<unk>	0
<s>	0
</s>	0
[PAD]	0
[UNK]	0
[CLS]	0
[SEP]	0
[MASK]	0
[BOS]	0
[EOS]	0
[UNK0]	0
[UNK1]	0
[UNK2]	0
[UNK3]	0
[UNK4]	0
[UNK5]	0
[UNK6]	0
[UNK7]	0
[UNK8]	0
[UNK9]	0
[unused0]	0
[unused1]	0
[unused2]	0
[unused3]	0
[unused4]	0
[unused5]	0
[unused6]	0
[unused7]	0
[unused8]	0
[unused9]	0
[unused10]	0
[unused11]	0
[unused12]	0
[unused13]	0
[unused14]	0
[unused15]	0
[unused16]	0
[unused17]	0
[unused18]	0
[unused19]	0
[unused20]	0
[unused21]	0
[unused22]	0
[unused23]	0
[unused24]	0
[unused25]	0
[unused26]	0
[unused27]	0
[unused28]	0
[unused29]	0
[unused30]	0
[unused31]	0
[unused32]	0
[unused33]	0
[unused34]	0
[unused35]	0
[unused36]	0
[unused37]	0
[unused38]	0
[unused39]	0
[unused40]	0
[unused41]	0
[unused42]	0
[unused43]	0
[unused44]	0
[unused45]	0
[unused46]	0
[unused47]	0
[unused48]	0
[unused49]	0
[unused50]	0
[unused51]	0
[unused52]	0
[unused53]	0
[unused54]	0
[unused55]	0
[unused56]	0
[unused57]	0
[unused58]	0
[unused59]	0
[unused60]	0
[unused61]	0
[unused62]	0
[unused63]	0
[unused64]	0
[unused65]	0
[unused66]	0
[unused67]	0
[unused68]	0
[unused69]	0
[unused70]	0
[unused71]	0
[unused72]	0
[unused73]	0
[unused74]	0
[unused75]	0
[unused76]	0
[unused77]	0
[unused78]	0
[unused79]	0
[unused80]	0
[unused81]	0
[unused82]	0
[unused83]	0
[unused84]	0
[unused85]	0
[unused86]	0
[unused87]	0
[unused88]	0
[unused89]	0
[unused90]	0
[unused91]	0
[unused92]	0
[unused93]	0
[unused94]	0
[unused95]	0
[unused96]	0
[unused97]	0
[unused98]	0
[unused99]	0
..	-0
영화	-1
▁영화	-2
▁이	-3
▁아	-4
...	-5
▁그	-6
▁보	-7
▁재	-8
ᄏᄏ	-9
니다	-10
▁정	-11
▁나	-12
는데	-13
너무	-14
▁다	-15
▁하	-16
▁좋	-17
▁없	-18
▁어	-19
▁너무	-20
▁사	-21
▁내	-22
▁감	-23
▁진	-24
▁재미	-25
▁연	-26
▁있	-27
▁지	-28
!!	-29
으로	-30
지만	-31
하고	-32
▁최	-33
▁시	-34
▁한	-35
네요	-36
▁안	-37
▁1	-38
▁정말	-39
▁스	-40
▁만	-41
▁가	-42
....	-43
에서	-44
▁재밌	-45
▁기	-46
▁봤	-47
▁평	-48
▁대	-49
▁전	-50
▁진짜	-51
▁연기	-52
▁마	-53
하는	-54
▁무	-55
▁모	-56
▁수	-57
▁여	-58
▁생	-59
▁잘	-60
어요	-61
▁주	-62
▁최고	-63
▁않	-64
▁더	-65
▁평점	-66
드라	-67
토리	-68
▁오	-69
습니다	-70
이다	-71
▁제	-72
▁개	-73
▁이런	-74
하다	-75
▁인	-76
▁말	-77
▁배	-78
드라마	-79
▁생각	-80
▁ᄏᄏ	-81
▁왜	-82
▁자	-83
들이	-84
▁같	-85
▁못	-86
▁스토리	-87
▁소	-88
▁남	-89
▁알	-90
▁본	-91
까지	-92
▁느	-93
▁유	-94
▁미	-95
▁보고	-96
▁볼	-97
▁감동	-98
하게	-99
▁일	-100
▁별	-101
이라	-102
▁쓰	-103
▁것	-104
▁비	-105
▁장	-106
보다	-107
었다	-108
▁지루	-109
▁우	-110
▁드라마	-111
▁많	-112
▁작	-113
▁중	-114
▁재미있	-115
레기	-116
▁그냥	-117
▁부	-118
~~	-119
▁배우	-120
▁뭐	-121
▁아니	-122
▁공	-123
▁사람	-124
▁2	-125
해서	-126
면서	-127
▁조	-128
▁내용	-129
▁역	-130
▁10	-131
▁완	-132
ᅲᅲ	-133
▁만들	-134
▁감독	-135
▁끝	-136
▁저	-137
▁애	-138
▁좀	-139
적인	-140
▁재미없	-141
다는	-142
렇게	-143
리고	-144
▁고	-145
▁쓰레기	-146
▁해	-147
▁명	-148
▁사랑	-149
▁참	-150
▁되	-151
▁반	-152
▁보는	-153
;;	-154
▁영화를	-155
▁웃	-156
▁영	-157
▁예	-158
^^	-159
보고	-160
▁결	-161
▁봐	-162
▁다시	-163
지막	-164
액션	-165
▁좋은	-166
▁좋아	-167
▁시간	-168
??	-169
라고	-170
▁거	-171
▁매	-172
▁싶	-173
▁상	-174
▁신	-175
으면	-176
▁눈	-177
입니다	-178
▁처	-179
▁실	-180
▁바	-181
▁이거	-182
들의	-183
▁노	-184
▁영화가	-185
▁불	-186
▁작품	-187
▁영화는	-188
지는	-189
▁원	-190
▁봤는데	-191
▁없는	-192
▁살	-193
하지	-194
▁이건	-195
인공	-196
▁최고의	-197
▁마지막	-198
!!!	-199
▁난	-200
▁내가	-201
▁3	-202
▁기대	-203
▁완전	-204
ᄏᄏᄏᄏ	-205
▁액션	-206
▁좋았	-207
다가	-208
▁있는	-209
▁하나	-210
▁넘	-211
▁할	-212
▁의	-213
다고	-214
▁코	-215
ᄒᄒ	-216
▁성	-217
야기	-218
▁도	-219
▁처음	-220
어서	-221
▁때	-222
▁죽	-223
▁몰	-224
▁한국	-225
없는	-226
적이	-227
세요	-228
▁추	-229
▁지금	-230
▁없다	-231
같은	-232
▁후	-233
했다	-234
인데	-235
▁나오	-236
▁현	-237
들은	-238
▁괜	-239
▁하는	-240
▁최악	-241
▁김	-242
▁이렇게	-243
▁이게	-244
,,	-245
에게	-246
▁모르	-247
▁또	-248
▁아깝	-249
▁극	-250
대로	-251
합니다	-252
라는	-253
▁별로	-254
적으로	-255
▁세	-256
이나	-257
▁허	-258
ᅳᅳ	-259
▁멋	-260
▁이해	-261
부터	-262
▁강	-263
겠다	-264
▁관	-265
▁위	-266
▁초	-267
연기	-268
▁연출	-269
▁분	-270
있는	-271
▁돈	-272
▁느낌	-273
▁짜	-274
▁명작	-275
한다	-276
▁두	-277
▁동	-278
▁역시	-279
▁화	-280
▁심	-281
▁로	-282
▁따	-283
▁잼	-284
▁구	-285
▁이야기	-286
▁했	-287
▁기억	-288
▁뭔	-289
▁음	-290
▁평점이	-291
▁재밌게	-292
되는	-293
▁우리	-294
▁캐	-295
OO	-296
▁많이	-297
▁괜찮	-298
▁당	-299
정도	-300
▁아이	-301
배우	-302
▁들	-303
▁이영화	-304
▁장면	-305
▁그래	-306
주는	-307
지도	-308
▁여자	-309
▁그리고	-310
▁잔	-311
▁에	-312
▁아름	-313
문에	-314
▁만든	-315
▁엄	-316
▁요	-317
▁발	-318
▁그런	-319
▁아까	-320
▁막	-321
▁와	-322
리는	-323
ᄏᄏᄏ	-324
▁꼭	-325
재미	-326
▁주인공	-327
▁포	-328
사람	-329
▁보여	-330
았다	-331
▁차	-332
▁마음	-333
▁귀	-334
▁특	-335
▁단	-336
▁같은	-337
필요	-338
▁슬	-339
만에	-340
▁아닌	-341
드는	-342
▁설	-343
것도	-344
▁공포	-345
▁유치	-346
▁울	-347
▁졸	-348
▁존	-349
진짜	-350
▁일본	-351
▁줄	-352
▁표	-353
을까	-354
▁박	-355
!!!!	-356
아서	-357
▁무슨	-358
하나	-359
▁망	-360
가는	-361
없이	-362
▁없고	-363
▁아무	-364
었는데	-365
▁점	-366
▁ᄏᄏᄏ	-367
▁볼만	-368
▁현실	-369
▁결말	-370
▁서	-371
▁힘	-372
▁소재	-373
▁가장	-374
하기	-375
▁ᅲᅲ	-376
▁몰입	-377
였다	-378
▁아깝다	-379
▁다른	-380
▁누	-381
인가	-382
시간	-383
없다	-384
▁이상	-385
▁흥	-386
▁보면	-387
""	-388
▁짱	-389
▁보기	-390
▁과	-391
▁.	-392
나는	-393
▁..	-394
▁OO	-395
니까	-396
▁매력	-397
▁반전	-398
▁속	-399
하면	-400
▁빠	-401
보는	-402
▁남자	-403
▁뻔	-404
▁절	-405
구나	-406
▁걸	-407
▁얼	-408
▁가슴	-409
▁스릴	-410
▁짜증	-411
인지	-412
▁말이	-413
▁애니	-414
▁리	-415
▁낮	-416
▁원작	-417
▁선	-418
▁영화다	-419
미디	-420
▁솔	-421
하지만	-422
▁눈물	-423
스럽	-424
▁맞	-425
이고	-426
▁ᄒᄒ	-427
▁억	-428
봐도	-429
▁정도	-430
▁높	-431
▁대한	-432
▁방	-433
는지	-434
▁드	-435
는다	-436
▁긴	-437
▁충	-438
▁20	-439
▁계	-440
▁인생	-441
▁ᄏ	-442
▁있다	-443
려고	-444
릭터	-445
재밌	-446
▁만들어	-447
▁전개	-448
▁영상	-449
었던	-450
▁인간	-451
▁음악	-452
아요	-453
스러	-454
지않	-455
▁몇	-456
더라	-457
▁솔직	-458
지마	-459
▁많은	-460
▁집	-461
지고	-462
에는	-463
▁ᄏᄏᄏᄏ	-464
▁머	-465
리즈	-466
▁'	-467
▁필요	-468
▁극장	-469
ᅮᅮ	-470
▁순	-471
▁9	-472
▁건	-473
▁굿	-474
▁모든	-475
▁아름다	-476
나서	-477
▁한번	-478
▁돌	-479
처럼	-480
▁적	-481
▁간	-482
▁듯	-483
▁게	-484
▁4	-485
▁아직	-486
정말	-487
▁억지	-488
▁피	-489
메이	-490
▁끝까지	-491
▁새	-492
▁ᅳᅳ	-493
점이	-494
밖에	-495
▁문	-496
▁하고	-497
다니	-498
근데	-499
▁수준	-500
▁욕	-501
▁찾	-502
었음	-503
나오	-504
▁하지만	-505
▁8	-506
▁올	-507
▁편	-508
떨어	-509
▁봐도	-510
들을	-511
▁솔직히	-512
▁전혀	-513
▁받	-514
▁파	-515
중에	-516
▁재밋	-517
▁언	-518
스터	-519
▁행	-520
▁이제	-521
▁프	-522
▁모두	-523
▁...	-524
▁뭔가	-525
된다	-526
▁열	-527
▁외	-528
▁7	-529
떻게	-530
했던	-531
는거	-532
▁아주	-533
▁찍	-534
▁추천	-535
▁여운	-536
▁딱	-537
▁경	-538
나라	-539
▁5	-540
▁캐릭터	-541
▁좋다	-542
▁연기력	-543
▁엄청	-544
▁코미디	-545
이는	-546
리가	-547
타임	-548
▁같다	-549
▁실망	-550
▁공감	-551
.....	-552
준다	-553
▁대박	-554
기도	-555
장면	-556
▁치	-557
▁긴장	-558
▁호	-559
주고	-560
▁갈	-561
▁독	-562
스트	-563
▁봤다	-564
........	-565
▁달	-566
감독	-567
을때	-568
▁약	-569
▁버	-570
▁출	-571
▁최악의	-572
▁놀	-573
▁나온	-574
이랑	-575
▁배우들	-576
▁먹	-577
▁크	-578
건지	-579
▁개봉	-580
주인공	-581
▁대단	-582
생각	-583
에도	-584
이지	-585
▁가족	-586
▁답	-587
▁믿	-588
친구	-589
▁손	-590
▁영화의	-591
▁재미있게	-592
라도	-593
▁이걸	-594
▁어떻게	-595
▁교	-596
만들	-597
▁엉	-598
때문에	-599
▁내내	-600
수록	-601
▁재밌다	-602
▁계속	-603
▁흥미	-604
했는데	-605
▁함	-606
없고	-607
영화는	-608
이가	-609
점도	-610
▁레	-611
▁표현	-612
하네요	-613
▁0	-614
▁않고	-615
던데	-616
▁잔잔	-617
▁영화에	-618
수가	-619
이라는	-620
▁등	-621
▁어디	-622
스토리	-623
엔딩	-624
었어요	-625
▁악	-626
▁질	-627
▁야	-628
▁즐	-629
▁아니라	-630
있다	-631
최고	-632
▁대사	-633
기는	-634
어야	-635
▁모습	-636
10	-637
▁제목	-638
▁아쉽	-639
봤는데	-640
내내	-641
▁물	-642
아니	-643
▁그래도	-644
▁싸	-645
▁내용이	-646
▁떨어	-647
▁삶	-648
▁않은	-649
▁나오는	-650
내용	-651
하네	-652
▁-	-653
▁담	-654
보면	-655
▁카	-656
▁아쉬	-657
기에	-658
전에	-659
▁연기가	-660
한테	-661
라리	-662
▁잊	-663
▁아니다	-664
▁조금	-665
▁그렇	-666
성이	-667
▁기분	-668
▁스릴러	-669
영화가	-670
▁잠	-671
▁베	-672
▁느껴	-673
▁봐야	-674
▁진심	-675
▁막장	-676
리오	-677
어도	-678
▁보다	-679
▁긴장감	-680
해요	-681
~~~	-682
▁자체	-683
만큼	-684
리스	-685
▁제대로	-686
하면서	-687
▁시리즈	-688
들도	-689
이라고	-690
▁아름다운	-691
▁개인	-692
▁메	-693
▁요즘	-694
▁제일	-695
▁재미없다	-696
▁떠	-697
▁오랜	-698
대체	-699
▁앞	-700
▁근데	-701
▁연기도	-702
▁네	-703
으나	-704
같다	-705
▁알바	-706
▁만드는	-707
▁부족	-708
인듯	-709
▁나는	-710
▁중간	-711
▁천	-712
▁홍	-713
훌륭	-714
▁웃기	-715
이상	-716
▁재미도	-717
▁내용도	-718
▁아까운	-719
▁정신	-720
▁제작	-721
▁스토리가	-722
이란	-723
▁보다가	-724
▁잼있	-725
기가	-726
▁노래	-727
▁않는	-728
치는	-729
▁나름	-730
▁미국	-731
▁이유	-732
년대	-733
▁어설	-734
만한	-735
▁날	-736
▁데	-737
▁나왔	-738
▁목	-739
▁시작	-740
난다	-741
점은	-742
▁형	-743
▁아니고	-744
▁국	-745
▁삼	-746
▁감독이	-747
▁디	-748
▁타	-749
▁보고싶	-750
거리	-751
▁때문에	-752
▁왜이	-753
진다	-754
▁싶다	-755
▁각	-756
할수	-757
▁킬	-758
마다	-759
해도	-760
▁나와	-761
▁영화라고	-762
라이	-763
▁그러	-764
군요	-765
▁로맨	-766
▁절대	-767
ᄏᄏᄏᄏᄏᄏᄏᄏ	-768
▁모르겠	-769
▁남는	-770
▁보게	-771
▁훌륭	-772
▁시간이	-773
▁너무나	-774
▁복	-775
▁될	-776
▁뒤	-777
▁통	-778
영화를	-779
스팅	-780
▁된	-781
▁따뜻	-782
▁싶은	-783
▁감정	-784
▁의미	-785
▁살아	-786
▁영화로	-787
▁케	-788
이네	-789
적이고	-790
감동	-791
에요	-792
▁수작	-793
▁출연	-794
▁아직도	-795
나고	-796
▁느끼	-797
▁글	-798
▁뻔한	-799
▁티	-800
▁세상	-801
▁작가	-802
았는데	-803
▁여운이	-804
기를	-805
나리오	-806
로운	-807
▁괜찮은	-808
나요	-809
더니	-810
▁차라리	-811
으로도	-812
▁영화입니다	-813
스러운	-814
하는데	-815
▁스토리도	-816
▁^^	-817
▁그저	-818
▁나도	-819
▁신선	-820
▁희	-821
▁어이	-822
▁뭘	-823
▁재밌어요	-824
학교	-825
▁안되	-826
▁주는	-827
었습니다	-828
▁무엇	-829
▁얼마	-830
▁특히	-831
▁보면서	-832
▁6	-833
소리	-834
▁장난	-835
▁ᅲ	-836
▁걍	-837
이런	-838
▁C	-839
이야	-840
▁도대체	-841
해야	-842
▁만화	-843
▁변	-844
▁산	-845
없음	-846
▁점수	-847
▁싫	-848
▁감독의	-849
고싶	-850
▁무섭	-851
▁친구	-852
▁행복	-853
▁사실	-854
▁어린	-855
▁B	-856
▁무서	-857
▁니	-858
▁판	-859
▁황	-860
▁확	-861
▁영화였	-862
▁""	-863
이네요	-864
▁되는	-865
▁t	-866
▁갑	-867
▁언제	-868
메이션	-869
▁오랜만에	-870
▁훨	-871
점을	-872
▁답답	-873
▁시청	-874
▁좋았다	-875
▁용	-876
???	-877
▁멋진	-878
사랑	-879
지가	-880
▁이해가	-881
▁옛	-882
▁첨	-883
이지만	-884
▁없음	-885
▁부분	-886
▁허접	-887
_-	-888
▁마지막에	-889
▁재미가	-890
▁길	-891
▁토	-892
▁좋아하는	-893
▁빨	-894
▁빼	-895
나게	-896
;;;	-897
▁좋고	-898
▁자신	-899
▁초반	-900
▁관객	-901
▁봤습니다	-902
▁추억	-903
▁우리나라	-904
▁깨	-905
놓고	-906
▁귀여	-907
▁전쟁	-908
부분	-909
▁봤던	-910
▁인상	-911
것이	-912
▁양	-913
▁소름	-914
▁완벽	-915
▁깊	-916
성도	-917
한데	-918
▁엔딩	-919
▁생각이	-920
▁배경	-921
▁어색	-922
▁없이	-923
▁시나리오	-924
아깝	-925
▁OOO	-926
▁지루하고	-927
▁어떤	-928
▁궁	-929
▁킬링	-930
▁지루함	-931
▁청	-932
▁낚	-933
▁유쾌	-934
▁힘들	-935
디오	-936
치고	-937
▁못한	-938
▁영화관	-939
인이	-940
▁분위	-941
동안	-942
▁헐	-943
▁다큐	-944
ᄃᄃ	-945
▁흐	-946
▁총	-947
▁안타	-948
▁식	-949
▁준	-950
▁팬	-951
ᄍᄍ	-952
▁둘	-953
▁오늘	-954
▁최고다	-955
▁입	-956
다면	-957
▁스타	-958
▁배우들의	-959
▁문제	-960
▁시대	-961
▁이딴	-962
▁지루한	-963
▁잡	-964
▁슬프	-965
▁들어	-966
▁함께	-967
▁환	-968
구만	-969
,,,	-970
아까	-971
▁졸작	-972
▁찾아	-973
▁결국	-974
텐데	-975
▁만들었	-976
▁종	-977
한거	-978
▁있었	-979
▁큰	-980
▁개인적으로	-981
▁뛰	-982
▁범	-983
▁왠	-984
럽게	-985
들에게	-986
리지	-987
▁진정	-988
▁뿐	-989
▁보는내내	-990
▁태	-991
▁임	-992
시길	-993
▁당시	-994
▁어릴	-995
▁역사	-996
을듯	-997
▁애니메이션	-998
▁러	-999
그냥	-1000
점대	-1001
쓰레기	-1002
▁진부	-1003
▁보세요	-1004
▁재밌는	-1005
낭비	-1006
보니	-1007
▁예술	-1008
▁얼마나	-1009
건가	-1010
구요	-1011
좋아	-1012
▁코믹	-1013
▁책	-1014
그래	-1015
보단	-1016
▁꿈	-1017
▁포스터	-1018
▁클	-1019
▁몰입도	-1020
▁아름답	-1021
~!	-1022
나마	-1023
▁아무리	-1024
▁암	-1025
▁설정	-1026
▁캐스팅	-1027
▁혼	-1028
▁강추	-1029
▁"	-1030
▁백	-1031
지루	-1032
평점	-1033
▁킬링타임	-1034
레이	-1035
▁기억에	-1036
▁사람이	-1037
▁ᄒ	-1038
▁맘	-1039
▁연기는	-1040
▁웃음	-1041
▁안되는	-1042
▁지루하다	-1043
▁주연	-1044
▁후회	-1045
▁개연	-1046
▁오래	-1047
▁영화도	-1048
▁영화라	-1049
▁민	-1050
▁돌아	-1051
하며	-1052
있고	-1053
▁패	-1054
려는	-1055
작품	-1056
▁보지	-1057
▁공포영화	-1058
st	-1059
▁얘	-1060
했음	-1061
주의	-1062
▁꽤	-1063
▁브	-1064
▁매우	-1065
▁제발	-1066
oo	-1067
▁몸	-1068
같이	-1069
자기	-1070
▁더빙	-1071
▁지나	-1072
▁충격	-1073
▁주제	-1074
▁그렇게	-1075
~~~~	-1076
들과	-1077
당히	-1078
이버	-1079
▁여러	-1080
▁집중	-1081
한영화	-1082
▁폭	-1083
는게	-1084
▁어느	-1085
▁잔인	-1086
▁낫	-1087
▁엄마	-1088
▁보지마	-1089
인줄	-1090
말이	-1091
▁충분	-1092
▁같이	-1093
▁궁금	-1094
▁않았	-1095
▁있고	-1096
▁한국영화	-1097
렸다	-1098
▁좋아요	-1099
▁옛날	-1100
▁하나도	-1101
▁병	-1102
▁채	-1103
▁미친	-1104
학생	-1105
▁것이	-1106
▁빠져	-1107
▁따라	-1108
▁순수	-1109
▁T	-1110
▁군	-1111
마디	-1112
▁먼	-1113
르는	-1114
웠다	-1115
▁봤어요	-1116
▁터	-1117
▁감동적이	-1118
▁은	-1119
이거	-1120
▁불쌍	-1121
▁극장에서	-1122
▁모르겠다	-1123
......	-1124
▁블	-1125
▁느낌이	-1126
▁풀	-1127
▁뛰어	-1128
▁커	-1129
가지	-1130
것같	-1131
▁한다	-1132
꿀잼	-1133
만든	-1134
▁위해	-1135
▁광	-1136
▁탄	-1137
길래	-1138
▁나올	-1139
▁하지	-1140
▁숨	-1141
▁괴	-1142
야지	-1143
▁말도	-1144
▁색	-1145
▁ᅮᅮ	-1146
▁영화네요	-1147
▁너	-1148
▁투	-1149
▁흘	-1150
거지	-1151
함을	-1152
▁재밌음	-1153
▁o	-1154
린다	-1155
수있	-1156
▁중국	-1157
▁마음이	-1158
▁b	-1159
해지는	-1160
00	-1161
자가	-1162
▁그만	-1163
▁굳	-1164
▁상상	-1165
▁,	-1166
▁알고	-1167
▁위한	-1168
기만	-1169
▁영화중	-1170
▁약간	-1171
▁엉성	-1172
이라도	-1173
▁않는다	-1174
▁끌	-1175
성을	-1176
▁돋	-1177
봤다	-1178
▁왕	-1179
력이	-1180
워서	-1181
좋은	-1182
하시	-1183
▁감사	-1184
▁이름	-1185
▁!	-1186
전개	-1187
▁프로	-1188
▁여기	-1189
이야기	-1190
▁내용은	-1191
▁걸작	-1192
▁누가	-1193
▁대체	-1194
▁이쁘	-1195
▁읽	-1196
▁비슷	-1197
▁얼굴	-1198
했지만	-1199
▁후반	-1200
▁로맨스	-1201
그리고	-1202
▁똥	-1203
▁훨씬	-1204
▁영상미	-1205
▁이정도	-1206
느낌	-1207
▁철	-1208
이었다	-1209
▁가슴이	-1210
▁눈물이	-1211
으니	-1212
▁갈수록	-1213
▁감동도	-1214
▁사람들	-1215
▁CG	-1216
▁있을	-1217
▁존나	-1218
▁여주인공	-1219
▁첫	-1220
굉장	-1221
듯한	-1222
▁실화	-1223
▁그나마	-1224
것을	-1225
노잼	-1226
리를	-1227
자체	-1228
겠지만	-1229
가서	-1230
▁히	-1231
재밋	-1232
▁비교	-1233
이건	-1234
▁없었다	-1235
▁똑	-1236
▁번	-1237
▁죄	-1238
▁흔	-1239
인생	-1240
함이	-1241
▁연기를	-1242
▁재미없음	-1243
▁g	-1244
▁키	-1245
대한	-1246
라서	-1247
▁전체	-1248
▁발연기	-1249
년이	-1250
버린	-1251
타지	-1252
편이	-1253
▁노잼	-1254
겠지	-1255
▁알았	-1256
▁맛	-1257
♥♥	-1258
재미있	-1259
▁없어	-1260
라면	-1261
멜로	-1262
▁어렸	-1263
▁기억이	-1264
▁그래서	-1265
▁장르	-1266
▁재밌고	-1267
▁S	-1268
▁갖	-1269
▁벌	-1270
▁단순	-1271
▁밖에	-1272
스럽다	-1273
▁어설픈	-1274
▁늘	-1275
시절	-1276
▁것도	-1277
▁s	-1278
ood	-1279
▁굉장	-1280
▁티비	-1281
▁비디오	-1282
년도	-1283
수준	-1284
▁느낄	-1285
▁초딩	-1286
▁200	-1287
▁네이버	-1288
나온	-1289
지지	-1290
이라면	-1291
▁취	-1292
든다	-1293
시키	-1294
▁알게	-1295
▁보여주는	-1296
▁사람들이	-1297
보게	-1298
보기	-1299
▁딸	-1300
개도	-1301
정이	-1302
▁귀엽	-1303
▁다들	-1304
▁감동이	-1305
▁19	-1306
▁오글	-1307
▁다음	-1308
▁이미	-1309
아이	-1310
▁것을	-1311
▁시즌	-1312
▁인물	-1313
마지막	-1314
으면서	-1315
▁결말이	-1316
스가	-1317
▁....	-1318
한번	-1319
er	-1320
▁상황	-1321
▁주고	-1322
려서	-1323
말고	-1324
▁간만에	-1325
▁잘봤	-1326
▁쓰레기영화	-1327
▁영화관에서	-1328
▁성룡	-1329
▁이것	-1330
적이다	-1331
▁송	-1332
그런	-1333
머니	-1334
▁섹	-1335
▁테	-1336
버지	-1337
▁한마디	-1338
▁꼬	-1339
인의	-1340
짜리	-1341
해라	-1342
▁등장	-1343
▁아쉽다	-1344
▁좋은데	-1345
었고	-1346
편은	-1347
▁30	-1348
▁교훈	-1349
▁100	-1350
▁존재	-1351
▁좋겠	-1352
▁화려	-1353
▁c	-1354
땜에	-1355
완전	-1356
▁이후	-1357
보고싶	-1358
영화의	-1359
▁킬링타임용	-1360
▁트	-1361
▁풍	-1362
거같	-1363
▁온	-1364
▁독특	-1365
▁영화였다	-1366
▁으	-1367
다른	-1368
론가	-1369
▁아님	-1370
▁생각을	-1371
▁감동적인	-1372
▁멍	-1373
▁훈	-1374
다시	-1375
▁맘에	-1376
▁바로	-1377
▁애들	-1378
▁평가	-1379
▁여배우	-1380
▁~	-1381
▁쓸	-1382
▁전부	-1383
▁스토리는	-1384
건데	-1385
되고	-1386
▁잘못	-1387
▁같아요	-1388
거야	-1389
연히	-1390
▁사회	-1391
▁있을까	-1392
▁배우들이	-1393
▁라	-1394
감이	-1395
았던	-1396
▁잔잔한	-1397
▁했는데	-1398
▁마이	-1399
▁보니	-1400
▁삼류	-1401
▁않다	-1402
▁생각보다	-1403
이팅	-1404
▁대해	-1405
주세요	-1406
▁진정한	-1407
▁틀	-1408
▁혹	-1409
들어	-1410
워요	-1411
할때	-1412
▁다운	-1413
▁별점	-1414
▁영화임	-1415
아닌	-1416
잖아	-1417
아깝다	-1418
▁그리	-1419
▁어울	-1420
▁상당히	-1421
▁직	-1422
수를	-1423
▁감동을	-1424
▁그대로	-1425
모르	-1426
정도로	-1427
▁정도로	-1428
▁거의	-1429
▁재미는	-1430
▁소설	-1431
▁영화인데	-1432
나오는	-1433
▁같은데	-1434
스타	-1435
▁높은	-1436
▁다르	-1437
,.	-1438
▁?	-1439
▁ᅳ	-1440
▁항	-1441
본다	-1442
중간	-1443
▁허무	-1444
▁세계	-1445
였음	-1446
▁재미있는	-1447
▁빵	-1448
▁ᄍᄍ	-1449
▁두번	-1450
▁예상	-1451
▁중간에	-1452
여자	-1453
을텐데	-1454
▁나와서	-1455
▁뭐야	-1456
▁자연	-1457
▁준다	-1458
거나	-1459
▁해서	-1460
▁재미있어요	-1461
졌다	-1462
하냐	-1463
▁하다	-1464
에서도	-1465
리의	-1466
영화다	-1467
▁휴	-1468
신이	-1469
하자	-1470
▁뭐지	-1471
▁있지만	-1472
댓글	-1473
이게	-1474
▁몇번	-1475
보다는	-1476
간다	-1477
분들	-1478
▁재밌네요	-1479
▁윤	-1480
▁멋있	-1481
▁봐서	-1482
▁재미있다	-1483
▁구성	-1484
▁어른	-1485
▁겁	-1486
▁봣	-1487
기대	-1488
▁기다	-1489
▁나의	-1490
▁혼자	-1491
▁봤지만	-1492
▁이영화를	-1493
▁볼수	-1494
▁실제	-1495
▁자기	-1496
시대	-1497
어나	-1498
여서	-1499
▁잃	-1500
을수	-1501
▁에로	-1502
▁평점을	-1503
▁착	-1504
아야	-1505
어가	-1506
저히	-1507
▁이번	-1508
▁밑	-1509
라니	-1510
▁멜로	-1511
었지만	-1512
▁압	-1513
때마다	-1514
에서는	-1515
▁맨	-1516
▁각본	-1517
▁제가	-1518
▁했다	-1519
▁마음에	-1520
▁(	-1521
▁흑	-1522
▁슬픈	-1523
▁굉장히	-1524
음악	-1525
다는게	-1526
▁장면이	-1527
에선	-1528
▁낮은	-1529
▁좀비	-1530
▁O	-1531
▁묘	-1532
예요	-1533
▁더욱	-1534
▁갑자기	-1535
-_-	-1536
▁어쩌	-1537
▁질질	-1538
▁평범	-1539
▁어디서	-1540
▁있어서	-1541
사가	-1542
시다	-1543
▁90	-1544
랑스	-1545
이트	-1546
지를	-1547
▁머리	-1548
▁뭐냐	-1549
▁원작을	-1550
고는	-1551
▁방송	-1552
▁저런	-1553
▁즐거	-1554
▁권	-1555
▁까	-1556
▁빨리	-1557
▁여주	-1558
▁확실	-1559
보면서	-1560
▁극장판	-1561
▁새로운	-1562
▁판타지	-1563
▁누구	-1564
았음	-1565
▁예쁘	-1566
????	-1567
▁볼만한	-1568
던가	-1569
▁감독님	-1570
~!!	-1571
▁그녀	-1572
▁상영	-1573
▁못하는	-1574
▁재미없는	-1575
일이	-1576
▁의도	-1577
▁크리스	-1578
인다	-1579
▁개그	-1580
▁끝나	-1581
▁불편	-1582
ᄋᄋ	-1583
▁밀	-1584
▁벗	-1585
▁믿고	-1586
▁화면	-1587
▁슈	-1588
▁가치	-1589
▁봐라	-1590
▁있어	-1591
스럽고	-1592
▁듣	-1593
▁빛	-1594
▁회	-1595
▁흠	-1596
우드	-1597
▁뭐가	-1598
코미디	-1599
▁생각하게	-1600
에겐	-1601
▁자체가	-1602
▁근	-1603
유의	-1604
하니	-1605
▁저는	-1606
▁전형	-1607
▁시청률	-1608
▁너무너무	-1609
▁놓	-1610
▁쳐	-1611
와서	-1612
▁일단	-1613
▁항상	-1614
지게	-1615
▁봤음	-1616
▁꺼	-1617
▁빈	-1618
년전	-1619
도록	-1620
리티	-1621
▁성우	-1622
▁역대	-1623
▁흥행	-1624
▁훌륭한	-1625
▁M	-1626
▁탄탄	-1627
▁그러나	-1628
▁봄	-1629
▁왔	-1630
▁운	-1631
현실	-1632
▁꿀잼	-1633
▁만드	-1634
▁예고	-1635
▁가지고	-1636
▁있는데	-1637
▁ᄉ	-1638
진진	-1639
▁있었다	-1640
!!!!!!!!	-1641
그러	-1642
봐서	-1643
조건	-1644
▁감성	-1645
▁살인	-1646
▁빌	-1647
남자	-1648
속에	-1649
▁비해	-1650
▁아닐	-1651
▁중요	-1652
보다가	-1653
했어요	-1654
▁그런지	-1655
▁보여주	-1656
▁향	-1657
▁사람은	-1658
▁없어서	-1659
▁이런영화	-1660
▁써	-1661
들아	-1662
메디	-1663
▁관람	-1664
▁아까움	-1665
▁평론가	-1666
▁필	-1667
이라니	-1668
하지않	-1669
▁처음부터	-1670
in	-1671
▁TV	-1672
립니다	-1673
▁생각해	-1674
▁충분히	-1675
▁주인공이	-1676
없어	-1677
▁순간	-1678
▁한심	-1679
ᅲᅲᅲᅲ	-1680
기고	-1681
▁돋보	-1682
하지도	-1683
내가	-1684
무리	-1685
▁것은	-1686
▁대단한	-1687
거다	-1688
▁진행	-1689
▁헐리	-1690
▁해도	-1691
▁개연성	-1692
▁됐	-1693
▁점점	-1694
▁쉽	-1695
별로	-1696
사회	-1697
▁리얼	-1698
▁안타깝	-1699
▁프랑스	-1700
▁합니다	-1701
▁댓글	-1702
으며	-1703
조차	-1704
▁만족	-1705
▁잘만들	-1706
▁금	-1707
이코	-1708
▁소리	-1709
▁어려	-1710
▁좋네요	-1711
▁짝	-1712
되어	-1713
▁tv	-1714
▁나이	-1715
▁시절	-1716
▁식상	-1717
▁한편	-1718
▁젊	-1719
▁몰랐	-1720
▁참고	-1721
▁훈훈	-1722
영화중	-1723
▁헤	-1724
웃음	-1725
▁당신	-1726
▁자극	-1727
만으로도	-1728
▁good	-1729
▁능	-1730
가고	-1731
처음	-1732
했고	-1733
히려	-1734
▁수가	-1735
▁분위기	-1736
▁m	-1737
짜증	-1738
▁먹먹	-1739
▁보았	-1740
▁소중	-1741
▁참신	-1742
▁홍콩	-1743
▁재밌는데	-1744
▁루	-1745
▁승	-1746
만의	-1747
스의	-1748
아도	-1749
▁황당	-1750
▁아닌가	-1751
▁좋은영화	-1752
▁맥	-1753
▁섬	-1754
저씨	-1755
▁그닥	-1756
시리즈	-1757
▁이영화는	-1758
▁창	-1759
한게	-1760
▁어쩔	-1761
▁하게	-1762
것같다	-1763
▁짧	-1764
러운	-1765
봐야	-1766
일까	-1767
▁그때	-1768
▁된다	-1769
▁선택	-1770
▁엉망	-1771
▁201	-1772
▁보는데	-1773
▁전개가	-1774
▁흥미진진	-1775
▁급	-1776
▁씨	-1777
촬영	-1778
▁유명	-1779
▁한마디로	-1780
리게	-1781
하긴	-1782
효과	-1783
▁불륜	-1784
;;;;	-1785
▁도저히	-1786
▁안타까	-1787
▁평점은	-1788
했습니다	-1789
▁묻	-1790
▁망작	-1791
▁여전	-1792
▁무조건	-1793
▁재밌었다	-1794
▁검	-1795
▁깔	-1796
▁놈	-1797
▁찌	-1798
최악	-1799
▁가는	-1800
▁카메	-1801
▁케이	-1802
어지는	-1803
었으면	-1804
▁더럽게	-1805
▁어릴때	-1806
▁엄청난	-1807
많은	-1808
민국	-1809
▁편집	-1810
▁감독은	-1811
▁다시봐도	-1812
파이	-1813
▁과거	-1814
▁끝내	-1815
▁아쉬운	-1816
▁쓴	-1817
추천	-1818
▁얘기	-1819
▁지금까지	-1820
인물	-1821
지금	-1822
▁없네	-1823
지마라	-1824
▁-_-	-1825
▁사랑을	-1826
▁뮤	-1827
▁그게	-1828
▁모르고	-1829
▁이것도	-1830
이냐	-1831
▁멍청	-1832
▁범죄	-1833
▁안나	-1834
▁진지	-1835
▁겨	-1836
▁80	-1837
▁원래	-1838
하는거	-1839
▁돈주고	-1840
▁사람들은	-1841
겠네	-1842
만이	-1843
없네	-1844
▁미안	-1845
▁이리	-1846
영상	-1847
이면	-1848
보는데	-1849
▁봤네요	-1850
▁페	-1851
연출	-1852
▁물론	-1853
▁있음	-1854
▁희망	-1855
하다고	-1856
▁좋겠다	-1857
▁줄거리	-1858
그램	-1859
막장	-1860
애니	-1861
▁영화인	-1862
당시	-1863
대박	-1864
하여	-1865
▁만점	-1866
▁초등	-1867
▁해야	-1868
영화로	-1869
▁견	-1870
▁설명	-1871
▁자꾸	-1872
▁힘든	-1873
났다	-1874
어로	-1875
▁결혼	-1876
▁최근	-1877
▁평점에	-1878
▁후반부	-1879
▁뜬	-1880
방송	-1881
▁가능	-1882
▁전설	-1883
▁죽음	-1884
▁로맨틱	-1885
▁a	-1886
▁넣	-1887
▁북	-1888
▁미화	-1889
▁아빠	-1890
▁그래픽	-1891
▁유치한	-1892
▁있다는	-1893
였습니다	-1894
▁갔	-1895
스런	-1896
▁감상	-1897
▁분명	-1898
▁알려	-1899
▁저질	-1900
▁따뜻한	-1901
▁액션도	-1902
▁전형적인	-1903
시는	-1904
▁느꼈	-1905
▁사라	-1906
보세요	-1907
.......	-1908
▁법	-1909
내는	-1910
님의	-1911
▁가볍	-1912
▁괜히	-1913
▁내인생	-1914
▁d	-1915
시고	-1916
▁그럴	-1917
▁그림	-1918
▁배우가	-1919
▁없네요	-1920
따위	-1921
▁병맛	-1922
▁웃긴	-1923
▁느끼게	-1924
▁억지로	-1925
▁오히려	-1926
내고	-1927
▁아버지	-1928
▁예전에	-1929
.5	-1930
▁골	-1931
작가	-1932
▁독립	-1933
▁영웅	-1934
▁좋음	-1935
메이크	-1936
▁무서운	-1937
▁오글거	-1938
▁완벽한	-1939
▁이야기를	-1940
▁끼	-1941
공포	-1942
대의	-1943
명작	-1944
봐라	-1945
지다	-1946
▁나쁘	-1947
▁바보	-1948
,,,,	-1949
▁인간의	-1950
▁깜	-1951
년에	-1952
프로	-1953
▁듯한	-1954
▁학교	-1955
였는데	-1956
하는게	-1957
▁입니다	-1958
▁덕	-1959
나면	-1960
이하	-1961
자의	-1962
▁SF	-1963
그래도	-1964
▁연출력	-1965
것은	-1966
은데	-1967
▁돈이	-1968
▁동화	-1969
▁별루	-1970
▁죽는	-1971
▁하면	-1972
▁완성도	-1973
▁우연히	-1974
▁기대하고	-1975
ST	-1976
▁친	-1977
오는	-1978
움이	-1979
▁바라	-1980
▁흘러	-1981
▁스타일	-1982
▁지루해	-1983
▁좋았어요	-1984
님이	-1985
▁대작	-1986
▁말고	-1987
▁인정	-1988
▁현재	-1989
▁것이다	-1990
▁모르는	-1991
▁대한민국	-1992
▁팔	-1993
랄까	-1994
평가	-1995
한듯	-1996
함과	-1997
▁!!	-1998
▁나쁜	-1999
▁되어	-2000
▁요소	-2001
▁알았다	-2002
▁영화보다	-2003
▁재미없어	-2004
스를	-2005
실망	-2006
심이	-2007
▁복수	-2008
▁신기	-2009
▁적당	-2010
▁진실	-2011
▁안된다	-2012
▁아무것도	-2013
▁아이들이	-2014
예산	-2015
▁전기	-2016
▁지금도	-2017
웠던	-2018
인간	-2019
▁관계	-2020
▁풀어	-2021
▁허술	-2022
우는	-2023
▁다행	-2024
▁메세	-2025
▁서로	-2026
▁영원	-2027
▁잊혀	-2028
▁어설프	-2029
▁재밌어	-2030
▁처음으로	-2031
네여	-2032
심을	-2033
▁중반	-2034
리아	-2035
▁낫다	-2036
▁노력	-2037
▁이러	-2038
같은데	-2039
안되는	-2040
▁ost	-2041
▁이런걸	-2042
▁특유의	-2043
▁화이팅	-2044
▁재미있고	-2045
▁유머	-2046
▁전문	-2047
▁전편	-2048
................	-2049
▁핵	-2050
기엔	-2051
리다	-2052
▁바람	-2053
▁성장	-2054
▁안보	-2055
▁즐겁	-2056
▁천재	-2057
더군요	-2058
▁다운받	-2059
▁앞으로	-2060
▁코메디	-2061
▁만들었다	-2062
▁ᄃᄃ	-2063
최고의	-2064
▁알았는데	-2065
▁촌	-2066
드가	-2067
상을	-2068
▁없을	-2069
▁웃겨	-2070
▁연출이	-2071
▁이런거	-2072
▁멀	-2073
있게	-2074
▁놀라	-2075
▁라는	-2076
▁저도	-2077
▁전작	-2078
▁청춘	-2079
안하고	-2080
▁탈	-2081
강추	-2082
세가	-2083
어울	-2084
▁나라	-2085
▁뭔지	-2086
▁부모	-2087
됩니다	-2088
▁영화에서	-2089
he	-2090
▁워	-2091
아먹	-2092
▁촬영	-2093
것이다	-2094
한다는	-2095
▁목소리	-2096
▁장면은	-2097
ᄏᄏᄏᄏᄏ	-2098
▁리메이크	-2099
▁유치하고	-2100
스로	-2101
한건	-2102
▁여성	-2103
▁왜이리	-2104
▁어렸을때	-2105
▁재미없고	-2106
점준	-2107
줄알	-2108
ᅲᅲᅲ	-2109
▁싫어	-2110
▁아프	-2111
▁우울	-2112
▁만들지	-2113
자들	-2114
하겠	-2115
▁못보	-2116
▁않음	-2117
▁명작이다	-2118
화가	-2119
▁노출	-2120
▁또한	-2121
▁지난	-2122
▁말하고	-2123
▁류	-2124
그라	-2125
많이	-2126
▁그려	-2127
▁졸라	-2128
봅니다	-2129
소한	-2130
▁거지	-2131
▁뜬금	-2132
▁만큼	-2133
▁작품이	-2134
//	-2135
▁면	-2136
▁줘	-2137
리에	-2138
분이	-2139
식이	-2140
싶다	-2141
역시	-2142
▁게임	-2143
▁사건	-2144
▁중에	-2145
배우들	-2146
▁ᄒᄒᄒ	-2147
▁모습이	-2148
▁비슷한	-2149
▁아니지만	-2150
르고	-2151
장이	-2152
정을	-2153
치게	-2154
▁비추	-2155
▁아오	-2156
▁이래	-2157
▁이연	-2158
아니고	-2159
▁최악이다	-2160
▁D	-2161
려면	-2162
무슨	-2163
▁가득	-2164
▁정치	-2165
▁철학	-2166
영화에	-2167
▁귀여운	-2168
▁그렇고	-2169
▁않았다	-2170
▁하는데	-2171
▁시간낭비	-2172
▁짐	-2173
▁찬	-2174
▁플	-2175
▁합	-2176
개봉	-2177
이의	-2178
자는	-2179
▁그의	-2180
▁않을	-2181
▁이어	-2182
▁아닐까	-2183
▁스토리에	-2184
였던	-2185
▁누군	-2186
▁보여준	-2187
하면서도	-2188
▁드라마를	-2189
?)	-2190
분에	-2191
인거	-2192
▁12	-2193
▁돌려	-2194
▁이상한	-2195
▁진부한	-2196
▁재밌었어요	-2197
▁좋았습니다	-2198
▁접	-2199
▁학	-2200
놓은	-2201
▁안맞	-2202
▁어찌	-2203
▁왠지	-2204
▁해피	-2205
있는데	-2206
▁좋았고	-2207
▁생각한다	-2208
가요	-2209
걸까	-2210
던지	-2211
세계	-2212
인은	-2213
져서	-2214
지못	-2215
▁경찰	-2216
▁스케	-2217
▁행동	-2218
▁마음을	-2219
▁부족한	-2220
▁화려한	-2221
▁전체적으로	-2222
기억	-2223
▁15	-2224
▁남아	-2225
▁짱짱	-2226
▁그런데	-2227
▁못하고	-2228
▁얻	-2229
대사	-2230
▁귀신	-2231
▁눈이	-2232
면서도	-2233
▁감동적	-2234
▁반전이	-2235
▁안나오	-2236
▁너무나도	-2237
▁드라마가	-2238
▁잘봤습니다	-2239
▁영화였습니다	-2240
▁응	-2241
감을	-2242
수도	-2243
▁마치	-2244
▁먼저	-2245
▁미래	-2246
▁삶을	-2247
▁아는	-2248
▁아마	-2249
▁예전	-2250
▁전달	-2251
시간이	-2252
점짜리	-2253
▁같습니다	-2254
▁보고나서	-2255
심히	-2256
알바	-2257
자를	-2258
좋고	-2259
해주	-2260
..?	-2261
▁본다	-2262
▁손발	-2263
나온다	-2264
봤어요	-2265
재밌게	-2266
하는지	-2267
▁소재는	-2268
▁대단하다	-2269
▁무엇보다	-2270
▁ᄏᄏᄏᄏᄏᄏᄏᄏᄏᄏᄏᄏ	-2271
▁샤	-2272
▁대충	-2273
▁성공	-2274
▁알겠	-2275
▁어렵	-2276
▁잘생	-2277
▁한계	-2278
수있는	-2279
었네요	-2280
점준다	-2281
해주는	-2282
▁여자가	-2283
▁이야기가	-2284
반전	-2285
▁나만	-2286
만하면	-2287
▁이런게	-2288
or	-2289
▁:	-2290
▁월	-2291
▁퍼	-2292
지네요	-2293
▁이영화가	-2294
▁논	-2295
기다	-2296
마저	-2297
모습	-2298
▁그랬	-2299
▁나머	-2300
▁다소	-2301
▁메시	-2302
▁환상	-2303
사람이	-2304
▁나에게	-2305
▁애들이	-2306
▁인상깊	-2307
▁지금봐도	-2308
▁늙	-2309
▁뒷	-2310
▁웬	-2311
▁짓	-2312
▁춤	-2313
다운	-2314
보이	-2315
▁깊은	-2316
▁이젠	-2317
▁예고편	-2318
▁자신의	-2319
▁영화중에	-2320
극장	-2321
리도	-2322
이해	-2323
인을	-2324
▁눈을	-2325
▁시도	-2326
▁확실히	-2327
순간	-2328
스는	-2329
스릴	-2330
좋다	-2331
▁러브	-2332
▁와닿	-2333
▁조연	-2334
▁피해	-2335
고싶다	-2336
▁나온다	-2337
▁있었던	-2338
▁어이없는	-2339
내요	-2340
새끼	-2341
▁밑에	-2342
▁자유	-2343
닝타임	-2344
▁모습을	-2345
▁케이블	-2346
▁했지만	-2347
▁허접한	-2348
▁매력적인	-2349
▁뜨	-2350
▁힐	-2351
가족	-2352
번째	-2353
▁군대	-2354
▁글쎄	-2355
▁낭비	-2356
▁미소	-2357
▁심심	-2358
사람들	-2359
했으면	-2360
▁같네요	-2361
▁잘만든	-2362
▁좋았는데	-2363
▁A	-2364
눈물	-2365
려다	-2366
마음	-2367
말로	-2368
~^^	-2369
▁알아	-2370
만으로	-2371
지도않	-2372
▁그런가	-2373
▁내용을	-2374
▁좋았음	-2375
이제	-2376
지컬	-2377
특히	-2378
▁심리	-2379
도없고	-2380
스럽게	-2381
이에요	-2382
퀄리티	-2383
▁별로다	-2384
▁짜증나	-2385
▁영화이다	-2386
▁왜이렇게	-2387
▁프로그램	-2388
▁증	-2389
하하	-2390
▁나를	-2391
▁연애	-2392
▁취향	-2393
이렇게	-2394
▁감사합니다	-2395
▁ᅮ	-2396
▁붙	-2397
겟다	-2398
과는	-2399
로서	-2400
일뿐	-2401
절한	-2402
▁고민	-2403
하기만	-2404
▁보이는	-2405
▁부분이	-2406
▁역시나	-2407
.2	-2408
▁딴	-2409
성애	-2410
어라	-2411
▁겁나	-2412
▁하루	-2413
였어요	-2414
▁감정이	-2415
▁제작비	-2416
▁스토리와	-2417
▁끊	-2418
더만	-2419
들만	-2420
로는	-2421
▁;;	-2422
▁ᄉᄇ	-2423
▁남주	-2424
▁다가	-2425
▁아놔	-2426
▁의외	-2427
지않는	-2428
▁해주는	-2429
▁느껴지는	-2430
▁영화보고	-2431
▁영화지만	-2432
무서	-2433
시켜	-2434
터리	-2435
할듯	-2436
▁그럼	-2437
▁실패	-2438
▁외국	-2439
▁젊은	-2440
▁찍은	-2441
없어서	-2442
▁사람을	-2443
▁세상에	-2444
▁어색한	-2445
▁연기에	-2446
▁저예산	-2447
▁카메라	-2448
▁+	-2449
▁G	-2450
소년	-2451
소재	-2452
었나	-2453
▁넘어	-2454
▁드는	-2455
▁해준	-2456
▁했던	-2457
▁화가	-2458
▁OST	-2459
▁나오고	-2460
▁사랑이	-2461
▁떨어지는	-2462
▁젤	-2463
저럭	-2464
쩐다	-2465
▁cg	-2466
▁감탄	-2467
▁느낀	-2468
▁순수한	-2469
▁아저씨	-2470
▁중간중간	-2471
▁처음이다	-2472
▁<	-2473
▁꾸	-2474
구려	-2475
는가	-2476
되지	-2477
▁오락	-2478
만드는	-2479
하세요	-2480
▁아닌데	-2481
▁여전히	-2482
▁씬	-2483
으론	-2484
이를	-2485
티비	-2486
▁가끔	-2487
▁역할	-2488
하려는	-2489
▁보는게	-2490
▁소재를	-2491
▁아니면	-2492
▁ᄏᄏᄏᄏᄏ	-2493
▁보지마세요	-2494
▁엑	-2495
다지	-2496
사는	-2497
와르	-2498
움을	-2499
▁기본	-2500
▁든다	-2501
▁특별	-2502
▁액션은	-2503
▁있다면	-2504
▁드라마는	-2505
▁w	-2506
▁곳	-2507
▁씁	-2508
명이	-2509
해보	-2510
▁나서	-2511
▁난다	-2512
▁맞는	-2513
▁섹시	-2514
▁이하	-2515
▁조폭	-2516
▁유쾌한	-2517
▁제작진	-2518
▁봤었는데	-2519
▁재미있음	-2520
▁꼴	-2521
▁밤	-2522
나올	-2523
▁마라	-2524
▁블랙	-2525
▁사극	-2526
▁슬픔	-2527
▁시선	-2528
▁유일	-2529
하다는	-2530
▁독특한	-2531
▁매력이	-2532
▁안하고	-2533
▁어이가	-2534
▁볼때마다	-2535
▁스토리를	-2536
니아	-2537
럽다	-2538
었어	-2539
위해	-2540
ᄒᄒᄒ	-2541
▁결론	-2542
▁까지	-2543
▁내생	-2544
▁리뷰	-2545
▁전에	-2546
▁호러	-2547
럭저럭	-2548
▁액션이	-2549
▁이유가	-2550
▁저렇게	-2551
▁연기력이	-2552
ou	-2553
▁폐	-2554
결말	-2555
트가	-2556
했을	-2557
▁가진	-2558
▁굿굿	-2559
▁다만	-2560
▁평생	-2561
▁귀엽고	-2562
▁그들의	-2563
▁끝나고	-2564
▁안되고	-2565
▁평범한	-2566
▁아름답고	-2567
▁쩔	-2568
먹고	-2569
하던	-2570
▁괴물	-2571
▁모자	-2572
▁미스	-2573
▁예쁜	-2574
▁이기	-2575
영화도	-2576
▁기대를	-2577
▁소름끼	-2578
▁흥미롭	-2579
래기	-2580
레스	-2581
씨가	-2582
었네	-2583
▁해주	-2584
▁감동적이고	-2585
▁돼	-2586
아라	-2587
었을	-2588
있네	-2589
펑펑	-2590
(?)	-2591
▁라이	-2592
▁살짝	-2593
▁악역	-2594
▁연예	-2595
▁일어	-2596
더라도	-2597
식으로	-2598
이라서	-2599
하지마	-2600
▁다큐멘	-2601
▁연기와	-2602
▁재밌었는데	-2603
▁밝	-2604
▁헛	-2605
끼리	-2606
시아	-2607
싶은	-2608
화를	-2609
▁굳이	-2610
▁깔끔	-2611
▁사이	-2612
▁시원	-2613
▁안됨	-2614
▁통해	-2615
▁희생	-2616
한다면	-2617
▁남는다	-2618
▁몰입이	-2619
▁보기엔	-2620
--	-2621
거냐	-2622
즈니	-2623
▁고전	-2624
▁봤다가	-2625
▁어린이	-2626
▁풋	-2627
들고	-2628
디어	-2629
▁과연	-2630
▁난해	-2631
▁분노	-2632
▁올라	-2633
▁용서	-2634
▁일상	-2635
버렸다	-2636
았어요	-2637
있어요	-2638
더라구요	-2639
▁사랑하는	-2640
▁아름답다	-2641
▁녹	-2642
원이	-2643
유치	-2644
편을	-2645
▁슈퍼	-2646
▁압권	-2647
▁종교	-2648
▁슬프다	-2649
▁어렸을	-2650
▁어릴적	-2651
았습니다	-2652
▁주인공의	-2653
▁겉	-2654
▁십	-2655
따라	-2656
어진	-2657
주얼	-2658
▁나타	-2659
▁스트	-2660
에서의	-2661
▁음악이	-2662
▁이건뭐	-2663
▁정말로	-2664
▁현실을	-2665
▁그럭저럭	-2666
▁짜증나는	-2667
▁하나하나	-2668
▁추천합니다	-2669
▁짠	-2670
▁톰	-2671
같음	-2672
걸로	-2673
까진	-2674
나가	-2675
듯이	-2676
한것	-2677
▁같음	-2678
▁불쾌	-2679
▁좋을	-2680
▁되었다	-2681
▁사랑에	-2682
▁아닌듯	-2683
▁잼있게	-2684
▁나왔으면	-2685
▁전기세가	-2686
▁생각합니다	-2687
른다	-2688
서야	-2689
있음	-2690
▁부터	-2691
▁재난	-2692
▁표절	-2693
구하고	-2694
▁열심히	-2695
▁이연걸	-2696
▁작품성	-2697
▁재미를	-2698
▁처음엔	-2699
▁I	-2700
▁칼	-2701
대는	-2702
무비	-2703
무섭	-2704
안되	-2705
제목	-2706
한국	-2707
▁막판	-2708
▁무지	-2709
▁포장	-2710
▁후속	-2711
으로서	-2712
▁더이상	-2713
▁보시길	-2714
▁만들어진	-2715
▁재미없네	-2716
an	-2717
▁챙	-2718
이터	-2719
▁개판	-2720
▁뮤지컬	-2721
▁신선한	-2722
▁아까워	-2723
▁영화냐	-2724
▁티비에서	-2725
▁재밌습니다	-2726
▁덜	-2727
▁밥	-2728
▁썩	-2729
▁축	-2730
▁침	-2731
기의	-2732
류의	-2733
불가	-2734
줌마	-2735
▁동물	-2736
▁보시	-2737
▁포기	-2738
지않은	-2739
▁공감이	-2740
▁기분이	-2741
▁싸이코	-2742
▁오그라	-2743
▁재밋게	-2744
▁진심으로	-2745
▁늦	-2746
▁던	-2747
▁뭉	-2748
겹다	-2749
버렸	-2750
이니	-2751
▁무협	-2752
▁소녀	-2753
▁영환	-2754
좋아요	-2755
▁그렇다	-2756
▁배우의	-2757
▁상상력	-2758
기로	-2759
대가	-2760
돌아	-2761
들에	-2762
보여	-2763
사를	-2764
▁감명	-2765
▁몸매	-2766
▁상처	-2767
▁자막	-2768
▁채널	-2769
▁사랑과	-2770
이유	-2771
이크	-2772
진심	-2773
▁고생	-2774
▁놀랍	-2775
▁되게	-2776
▁크게	-2777
▁현대	-2778
▁형편	-2779
점주는	-2780
했다는	-2781
▁볼만함	-2782
▁소재가	-2783
▁이유는	-2784
!!!!!	-2785
re	-2786
▁격	-2787
▁쩌	-2788
겼다	-2789
수는	-2790
시킨	-2791
줘서	-2792
히는	-2793
▁떠나	-2794
▁레이	-2795
▁말로	-2796
▁보러	-2797
▁사는	-2798
▁아침	-2799
▁있나	-2800
▁혹시	-2801
▁흐름	-2802
년전에	-2803
지않고	-2804
▁감동과	-2805
▁추억의	-2806
▁퀄리티	-2807
▁말이필요	-2808
▁이정도면	-2809
▁퇴	-2810
와는	-2811
이며	-2812
쵝오	-2813
할까	-2814
▁같아	-2815
▁그지	-2816
▁수도	-2817
▁쓸데	-2818
▁전투	-2819
▁폭력	-2820
▁표정	-2821
연기가	-2822
▁그다지	-2823
▁봤으면	-2824
▁필요한	-2825
▁징	-2826
그렇	-2827
리기	-2828
봤음	-2829
아주	-2830
표현	-2831
▁가서	-2832
▁동생	-2833
▁삶의	-2834
▁쉽게	-2835
평점이	-2836
▁없지만	-2837
▁하네요	-2838
▁등장인물	-2839
▁생각나는	-2840
20	-2841
▁쇼	-2842
▁엘	-2843
명의	-2844
상이	-2845
안에	-2846
오빠	-2847
웠음	-2848
해준	-2849
▁두고	-2850
▁어제	-2851
▁오버	-2852
보는게	-2853
아까운	-2854
▁마무리	-2855
▁볼수록	-2856
▁소름돋	-2857
▁지루하지	-2858
▁지루해서	-2859
▁필요없다	-2860
▁꼽	-2861
▁맡	-2862
▁잤	-2863
수의	-2864
아님	-2865
었지	-2866
지말	-2867
▁강렬	-2868
▁남녀	-2869
▁드러	-2870
▁부끄	-2871
▁북한	-2872
▁설레	-2873
▁신경	-2874
▁정서	-2875
▁몇번을	-2876
▁우리가	-2877
▁좋았던	-2878
재밌어요	-2879
▁보고싶다	-2880
▁필요없는	-2881
▁해피엔딩	-2882
▁재미있네요	-2883
지의	-2884
▁그립	-2885
▁말할	-2886
▁무시	-2887
▁아련	-2888
▁태어	-2889
▁힐링	-2890
까지는	-2891
속에서	-2892
하다가	-2893
▁가볍게	-2894
▁나중에	-2895
▁비주얼	-2896
▁사람의	-2897
▁스케일	-2898
▁보고싶은	-2899
▁좋습니다	-2900
▁잇	-2901
▁컨	-2902
도가	-2903
언가	-2904
▁남을	-2905
▁반성	-2906
▁비극	-2907
▁사기	-2908
▁산만	-2909
▁속편	-2910
▁끝나는	-2911
▁디즈니	-2912
▁반전도	-2913
▁소재로	-2914
▁수준이	-2915
▁연출도	-2916
▁음악도	-2917
▁몽	-2918
▁움	-2919
▁활	-2920
독교	-2921
르노	-2922
엄마	-2923
오글	-2924
의미	-2925
이자	-2926
전쟁	-2927
▁70	-2928
▁ᄋᄋ	-2929
▁거짓	-2930
▁눈빛	-2931
▁미치	-2932
▁선생	-2933
▁의심	-2934
▁이루	-2935
▁있게	-2936
▁조잡	-2937
버리고	-2938
재미없	-2939
▁몰라도	-2940
▁제목이	-2941
▁하면서	-2942
▁i	-2943
▁끄	-2944
관계	-2945
에만	-2946
정신	-2947
중의	-2948
친다	-2949
▁국민	-2950
▁보이	-2951
▁소장	-2952
▁없나	-2953
▁의문	-2954
▁있지	-2955
▁좋아서	-2956
▁뇌	-2957
▁김기	-2958
▁능력	-2959
▁말을	-2960
▁본방	-2961
▁심각	-2962
▁올해	-2963
▁일부	-2964
▁통쾌	-2965
하기도	-2966
▁봐야할	-2967
.1	-2968
?!	-2969
▁찡	-2970
거운	-2971
나이	-2972
밋밋	-2973
일본	-2974
자단	-2975
찝찝	-2976
▁건지	-2977
▁깊이	-2978
▁스크	-2979
▁역겨	-2980
거리는	-2981
봣는데	-2982
연기도	-2983
영화임	-2984
캐릭터	-2985
▁슬프고	-2986
▁시간을	-2987
▁싸구려	-2988
▁아이들	-2989
▁언제나	-2990
재미없다	-2991
,2	-2992
▁ᄌ	-2993
▁윌	-2994
가능	-2995
그인	-2996
두고	-2997
봐요	-2998
있어	-2999
▁광고	-3000
▁라고	-3001
했는지	-3002
▁마세요	-3003
▁엉성한	-3004
▁인생을	-3005
▁점수를	-3006
영화라고	-3007
▁다시한번	-3008
on	-3009
▁쉬	-3010
▁흡	-3011
라스	-3012
마스	-3013
봤던	-3014
트콤	-3015
▁40	-3016
▁가까	-3017
▁깨닫	-3018
▁받아	-3019
▁악당	-3020
▁않게	-3021
▁죽여	-3022
▁지구	-3023
사람은	-3024
▁만들고	-3025
▁쓰래기	-3026
▁이제야	-3027
▁있습니다	-3028
ad	-3029
▁농	-3030
구니	-3031
▁스티	-3032
▁싶어	-3033
▁아픔	-3034
▁오랫	-3035
▁이쁜	-3036
▁인터	-3037
▁존경	-3038
▁펑펑	-3039
▁불구하고	-3040
▁헐리우드	-3041
드의	-3042
만화	-3043
뻐서	-3044
우리	-3045
이후	-3046
하신	-3047
▁그린	-3048
▁방금	-3049
▁생애	-3050
▁싫다	-3051
▁이때	-3052
▁하이	-3053
▁홍보	-3054
감독이	-3055
장면이	-3056
▁뛰어난	-3057
▁봣는데	-3058
▁웃기고	-3059
▁이해할	-3060
▁재밌네	-3061
▁사랑스러운	-3062
▁뉴	-3063
▁쫌	-3064
느라	-3065
란다	-3066
해진	-3067
▁그걸	-3068
▁둘다	-3069
▁섬세	-3070
▁평이	-3071
▁풋풋	-3072
하시는	-3073
...?	-3074
▁낮아서	-3075
▁어려운	-3076
▁액션영화	-3077
▁영화라는	-3078
▁납	-3079
▁뜻	-3080
만점	-3081
하셨	-3082
▁그것	-3083
▁나가	-3084
▁딱히	-3085
▁씁쓸	-3086
▁잊을	-3087
▁눈물을	-3088
▁드럽게	-3089
▁마이너	-3090
▁산으로	-3091
▁시사회	-3092
▁지루할	-3093
▁^	-3094
▁줬	-3095
가락	-3096
나왔	-3097
로우	-3098
아가	-3099
▁니콜	-3100
▁되고	-3101
▁발전	-3102
▁살다	-3103
▁새벽	-3104
▁연결	-3105
▁죄다	-3106
영화라	-3107
▁결말도	-3108
▁결말은	-3109
▁무언가	-3110
▁아쉬움	-3111
▁재밌었음	-3112
▁끔	-3113
▁쌍	-3114
▁좌	-3115
괜찮	-3116
남는	-3117
식을	-3118
여운	-3119
을거	-3120
이션	-3121
자고	-3122
▁단연	-3123
▁밋밋	-3124
▁생생	-3125
▁할말	-3126
아니라	-3127
집니다	-3128
▁느낌을	-3129
▁느와르	-3130
▁베스트	-3131
▁이따위	-3132
▁정신병	-3133
▁재미있었다	-3134
▁꽃	-3135
▁닥	-3136
▁익	-3137
▁푹	-3138
감도	-3139
나와	-3140
버리	-3141
줘야	-3142
학년	-3143
한지	-3144
▁고통	-3145
▁대표	-3146
▁때문	-3147
▁바뀌	-3148
▁성인	-3149
▁스포	-3150
▁일반	-3151
▁좀더	-3152
▁쵝오	-3153
▁하하	-3154
수없는	-3155
한다고	-3156
▁어머니	-3157
▁있어요	-3158
▁지금은	-3159
▁닮	-3160
성에	-3161
온다	-3162
작이	-3163
하라	-3164
▁고등	-3165
▁나옴	-3166
▁나은	-3167
▁남겨	-3168
▁묘사	-3169
▁아나	-3170
랍니다	-3171
였지만	-3172
▁남자가	-3173
▁못했다	-3174
▁몰입해서	-3175
▁배우들도	-3176
▁일본영화	-3177
▁싱	-3178
▁잭	-3179
나도	-3180
피소	-3181
하구	-3182
▁많다	-3183
▁분들	-3184
▁느끼는	-3185
▁보니까	-3186
▁여기서	-3187
▁연기자	-3188
▁출연진	-3189
▁폴	-3190
사의	-3191
ver	-3192
▁과장	-3193
▁끝난	-3194
▁되지	-3195
▁시걸	-3196
▁시시	-3197
▁안돼	-3198
▁외계	-3199
▁우주	-3200
아까움	-3201
하려고	-3202
▁뻔하고	-3203
▁스스로	-3204
▁헐리웃	-3205
▁현실적인	-3206
▁재미없어요	-3207
at	-3208
ie	-3209
▁냉	-3210
▁체	-3211
답답	-3212
소설	-3213
▁00	-3214
▁슬퍼	-3215
▁아들	-3216
▁아류	-3217
▁에이	-3218
▁인도	-3219
▁한데	-3220
급영화	-3221
스릴러	-3222
아니다	-3223
었는지	-3224
으로써	-3225
자체가	-3226
캐스팅	-3227
▁견자단	-3228
▁단순한	-3229
▁떠나서	-3230
▁로그인	-3231
▁멋지다	-3232
▁시대를	-3233
▁없다는	-3234
▁작가가	-3235
▁아직까지	-3236
▁쪽	-3237
셔서	-3238
영이	-3239
인들	-3240
함에	-3241
ing	-3242
▁단지	-3243
▁발로	-3244
▁상업	-3245
▁영국	-3246
▁전반	-3247
겠네요	-3248
▁같아서	-3249
▁모든게	-3250
▁무엇을	-3251
▁생각없이	-3252
▁이거보고	-3253
."	-3254
▁뽑	-3255
▁앤	-3256
도안	-3257
우고	-3258
점주	-3259
져요	-3260
▁높다	-3261
▁뒤로	-3262
▁레전	-3263
▁벌써	-3264
▁와우	-3265
▁찝찝	-3266
▁흔한	-3267
줍니다	-3268
▁"""	-3269
▁옛날에	-3270
▁전문가	-3271
▁집에서	-3272
▁할말이	-3273
▁러닝타임	-3274
▁영화보는	-3275
▁푸	-3276
과의	-3277
긴다	-3278
로도	-3279
만드	-3280
인트	-3281
쳤다	-3282
▁명품	-3283
▁시각	-3284
▁연속	-3285
▁외모	-3286
▁은근	-3287
▁지켜	-3288
내용도	-3289
▁누구나	-3290
▁만든다	-3291
▁싶네요	-3292
▁안보고	-3293
▁않지만	-3294
▁작품을	-3295
▁즐겁게	-3296
▁잔잔하고	-3297
▁이런영화가	-3298
▁ᄏᄏᄏᄏᄏᄏᄏᄏ	-3299
BS	-3300
▁줌	-3301
▁흉	-3302
계의	-3303
나옴	-3304
노래	-3305
럽고	-3306
았고	-3307
▁50	-3308
▁다니	-3309
▁발견	-3310
▁주변	-3311
겠어요	-3312
인가요	-3313
▁위대한	-3314
▁청소년	-3315
▁영화에요	-3316
▁기대안하고	-3317
▁ᄋ	-3318
▁떡	-3319
러디	-3320
려요	-3321
부족	-3322
시작	-3323
씬은	-3324
양이	-3325
▁놀랐	-3326
▁망쳐	-3327
▁보길	-3328
▁안봤	-3329
▁않아	-3330
▁에휴	-3331
더라면	-3332
리스마	-3333
아버지	-3334
처구니	-3335
▁기독교	-3336
▁생각하고	-3337
▁유쾌하고	-3338
▁섞	-3339
거임	-3340
냐고	-3341
젠장	-3342
편의	-3343
▁18	-3344
▁갈등	-3345
▁공부	-3346
▁맨날	-3347
▁못할	-3348
▁믿을	-3349
▁반복	-3350
▁빼고	-3351
▁특이	-3352
소리가	-3353
▁ᅲᅲᅲ	-3354
▁김기덕	-3355
▁대사가	-3356
▁생각나	-3357
▁시트콤	-3358
▁있네요	-3359
▁초반에	-3360
배우들의	-3361
▁E	-3362
따구	-3363
물을	-3364
시에	-3365
애들	-3366
언니	-3367
장난	-3368
호가	-3369
▁13	-3370
▁무비	-3371
▁속에	-3372
▁처럼	-3373
▁특수	-3374
▁한참	-3375
스러움	-3376
시간에	-3377
아까워	-3378
▁마이클	-3379
▁빠져들	-3380
▁아이돌	-3381
▁인생의	-3382
▁탄탄한	-3383
▁하는지	-3384
▁힘들다	-3385
봤습니다	-3386
▁시간가는	-3387
.4	-3388
▁쥐	-3389
▁쿠	-3390
불어	-3391
지어	-3392
쳐서	-3393
▁가져	-3394
▁결과	-3395
▁국내	-3396
▁다양	-3397
▁문화	-3398
▁볼게	-3399
▁움직	-3400
▁치밀	-3401
▁편견	-3402
재밌다	-3403
▁없는데	-3404
▁음악과	-3405
▁있어야	-3406
▁좋아할	-3407
▁모르겠고	-3408
▁빡	-3409
간의	-3410
겠음	-3411
되서	-3412
석이	-3413
정은	-3414
제작	-3415
키는	-3416
하려	-3417
했네	-3418
▁검색	-3419
▁관심	-3420
▁꿈을	-3421
▁떠오	-3422
▁미모	-3423
▁여행	-3424
▁제로	-3425
▁찌질	-3426
▁타임	-3427
비디오	-3428
시키는	-3429
▁울었다	-3430
▁이쁘고	-3431
겠습니다	-3432
▁그렇다고	-3433
▁보고나면	-3434
▁안타깝다	-3435
▁최고입니다	-3436
bs	-3437
ll	-3438
▁f	-3439
계속	-3440
날때	-3441
라가	-3442
아프	-3443
와의	-3444
이로	-3445
편도	-3446
▁끌어	-3447
▁로봇	-3448
▁무척	-3449
▁코난	-3450
▁해리	-3451
차라리	-3452
하겠다	-3453
하다니	-3454
▁대부분	-3455
▁아줌마	-3456
▁있으면	-3457
▁즐거운	-3458
▁영화였어요	-3459
ov	-3460
▁[	-3461
당한	-3462
트맨	-3463
하진	-3464
▁고마	-3465
▁노답	-3466
▁달달	-3467
▁뭉클	-3468
▁불러	-3469
▁우와	-3470
야말로	-3471
▁덕분에	-3472
▁말하는	-3473
▁멍청한	-3474
▁사랑의	-3475
▁아깝지	-3476
▁에피소	-3477
▁의외로	-3478
▁잔인한	-3479
▁독립영화	-3480
▁영화인듯	-3481
▁따뜻해지는	-3482
▁낳	-3483
▁센	-3484
▁콜	-3485
씨의	-3486
100	-3487
▁기술	-3488
▁내려	-3489
▁높아	-3490
▁새롭	-3491
▁슬펐	-3492
▁아역	-3493
▁왜케	-3494
▁좋게	-3495
▁할까	-3496
으니까	-3497
▁007	-3498
▁본영화	-3499
▁재밋다	-3500
▁히어로	-3501
▁긴장감도	-3502
▁볼만하다	-3503
▁쓰레기다	-3504
▁아쉽네요	-3505
▁작품이다	-3506
▁재미있었어요	-3507
**	-3508
몰입	-3509
성은	-3510
테일	-3511
▁경험	-3512
▁눈에	-3513
▁늘어	-3514
▁동안	-3515
▁많아	-3516
▁복잡	-3517
▁섹스	-3518
▁울고	-3519
▁인내	-3520
▁자살	-3521
▁짝퉁	-3522
▁쩐다	-3523
가지고	-3524
내용이	-3525
▁나오면	-3526
▁보았다	-3527
▁봤더니	-3528
▁비현실	-3529
▁이후로	-3530
▁인간이	-3531
▁신선하고	-3532
▁초등학생	-3533
om	-3534
▁업	-3535
거라	-3536
기분	-3537
사수	-3538
이스	-3539
▁거슬	-3540
▁만나	-3541
▁세월	-3542
▁신파	-3543
▁암튼	-3544
▁조합	-3545
▁죽은	-3546
▁최강	-3547
았지만	-3548
용으로	-3549
장에서	-3550
▁the	-3551
▁감정을	-3552
▁무섭다	-3553
▁빼고는	-3554
▁사랑은	-3555
▁유명한	-3556
▁좋지만	-3557
▁어처구니	-3558
▁모르겠지만	-3559
▁ᄀ	-3560
▁썼	-3561
▁척	-3562
거면	-3563
것만	-3564
관이	-3565
미가	-3566
버트	-3567
살다	-3568
성치	-3569
아아	-3570
엇다	-3571
저도	-3572
"""	-3573
▁거기	-3574
▁극치	-3575
▁민망	-3576
▁박진	-3577
▁어휴	-3578
▁오바	-3579
▁힘이	-3580
편보다	-3581
했네요	-3582
▁!!!	-3583
▁남자의	-3584
▁박수를	-3585
▁아이가	-3586
▁없었던	-3587
▁영화들	-3588
▁원작의	-3589
▁장면에서	-3590
▁흥미로운	-3591
▁쓰레기같은	-3592
대를	-3593
사이	-3594
영환	-3595
체가	-3596
함은	-3597
해지	-3598
▁방법	-3599
▁작은	-3600
▁조선	-3601
▁틀어	-3602
▁허세	-3603
갈수록	-3604
▁199	-3605
▁더러운	-3606
▁레전드	-3607
▁멋있다	-3608
▁보인다	-3609
▁손발이	-3610
드립니다	-3611
▁연기력도	-3612
▁좋았지만	-3613
만을	-3614
버림	-3615
어이	-3616
였고	-3617
원작	-3618
▁가면	-3619
▁겨울	-3620
▁달라	-3621
▁바꿔	-3622
▁살고	-3623
▁않나	-3624
▁웃김	-3625
▁일품	-3626
▁직접	-3627
거같다	-3628
버스터	-3629
점정도	-3630
▁더불어	-3631
▁웃음이	-3632
▁하나의	-3633
▁개연성이	-3634
▁지루하게	-3635
▁카리스마	-3636
▁학교에서	-3637
▁갠	-3638
▁됨	-3639
▁뱀	-3640
▁픽	-3641
상황	-3642
적은	-3643
▁게이	-3644
▁김민	-3645
▁삶에	-3646
▁설마	-3647
▁어우	-3648
▁우정	-3649
▁일이	-3650
▁죽을	-3651
▁챙겨	-3652
버리는	-3653
없네요	-3654
▁본다면	-3655
▁역대급	-3656
▁완전히	-3657
▁의미를	-3658
사람들이	-3659
▁유치하다	-3660
▁좋았으나	-3661
.........	-3662
VD	-3663
▁멘	-3664
▁컴	-3665
▁탐	-3666
것들	-3667
려나	-3668
로만	-3669
받은	-3670
제가	-3671
▁가벼	-3672
▁교육	-3673
▁다룬	-3674
▁못해	-3675
▁빌려	-3676
▁제이	-3677
그대로	-3678
었을까	-3679
에대한	-3680
▁게다가	-3681
▁누군가	-3682
▁스크린	-3683
▁유치함	-3684
▁이유를	-3685
▁한번쯤	-3686
▁생각하는	-3687
▁재밌다고	-3688
▁좋겠어요	-3689
▁지루했다	-3690
▁기대했는데	-3691
감은	-3692
동생	-3693
레딧	-3694
설정	-3695
성의	-3696
세상	-3697
우기	-3698
이래	-3699
인도	-3700
주가	-3701
했어	-3702
▁11	-3703
▁그거	-3704
▁기가	-3705
▁끝이	-3706
▁똑같	-3707
▁먹고	-3708
▁모를	-3709
▁못생	-3710
▁미드	-3711
▁비판	-3712
▁정의	-3713
▁학생	-3714
년만에	-3715
해진다	-3716
▁뛰어넘	-3717
▁뿐이다	-3718
▁포르노	-3719
▁지나치게	-3720
▁평점보고	-3721
▁꽝	-3722
가슴	-3723
갔다	-3724
그리	-3725
머리	-3726
아직	-3727
억지	-3728
요일	-3729
편에	-3730
▁깜짝	-3731
▁많고	-3732
▁보긴	-3733
▁보며	-3734
▁여태	-3735
▁영혼	-3736
▁화끈	-3737
긴한데	-3738
끝까지	-3739
배우가	-3740
본영화	-3741
재밌음	-3742
하던데	-3743
▁재미잇	-3744
▁패러디	-3745
▁표현한	-3746
▁보여주고	-3747
▁잊혀지지	-3748
▁좋아해서	-3749
▁엠	-3750
▁옆	-3751
▁웨	-3752
▁탁	-3753
는건	-3754
니깐	-3755
리언	-3756
물이	-3757
받고	-3758
운드	-3759
▁당연	-3760
▁도전	-3761
▁봤을	-3762
▁이끌	-3763
▁이용	-3764
▁조용	-3765
▁지겨	-3766
▁투자	-3767
▁모르게	-3768
▁못한다	-3769
▁싶은데	-3770
▁않을까	-3771
▁알바들	-3772
▁이쁘다	-3773
▁전설의	-3774
▁느껴진다	-3775
▁드립니다	-3776
▁진부하고	-3777
ar	-3778
▁l	-3779
▁p	-3780
▁런	-3781
▁콩	-3782
니당	-3783
루스	-3784
명을	-3785
부작	-3786
시즌	-3787
아쉽	-3788
요즘	-3789
임을	-3790
있나	-3791
제발	-3792
▁몇몇	-3793
▁커플	-3794
▁해결	-3795
들이랑	-3796
학교때	-3797
▁감동의	-3798
▁들었다	-3799
▁반개도	-3800
▁봤을때	-3801
▁아까울	-3802
▁우리의	-3803
▁전개도	-3804
▁좋았을	-3805
▁주성치	-3806
▁사람들의	-3807
▁이해하기	-3808
▁다큐멘터리	-3809
▁사랑이야기	-3810
▁e	-3811
▁엽	-3812
냄새	-3813
먹는	-3814
배경	-3815
솔직	-3816
슬프	-3817
신은	-3818
했나	-3819
▁관한	-3820
▁김수	-3821
▁따로	-3822
▁레알	-3823
▁아닙	-3824
▁영어	-3825
▁이정	-3826
▁잠깐	-3827
▁타이	-3828
보지마	-3829
인들이	-3830
▁가슴에	-3831
▁대해서	-3832
▁모두가	-3833
▁볼수있	-3834
▁재미와	-3835
▁감동적이다	-3836
▁좋아하는데	-3837
▁한국영화는	-3838
▁팀	-3839
놈들	-3840
로써	-3841
분은	-3842
비가	-3843
아나	-3844
아무	-3845
임스	-3846
자나	-3847
출연	-3848
토록	-3849
회가	-3850
▁못함	-3851
▁세련	-3852
▁아기	-3853
▁인기	-3854
▁젠장	-3855
감독의	-3856
보다도	-3857
점이다	-3858
▁개막장	-3859
▁그녀의	-3860
▁넘치는	-3861
▁보려고	-3862
▁보여줬	-3863
▁볼거리	-3864
사람들은	-3865
▁괜찮은데	-3866
▁무섭지도	-3867
ᄏᄏᄏᄏᄏᄏᄏᄏᄏᄏᄏᄏᄏᄏᄏᄏ	-3868
bb	-3869
▁빅	-3870
▁쏟	-3871
▁탑	-3872
다음	-3873
뻔한	-3874
속의	-3875
식의	-3876
이걸	-3877
이기	-3878
이러	-3879
▁감흥	-3880
▁공짜	-3881
▁국가	-3882
▁담아	-3883
▁대중	-3884
▁변태	-3885
▁어지	-3886
▁응원	-3887
▁이럴	-3888
▁짜임	-3889
▁착한	-3890
▁필름	-3891
♥♥♥	-3892
그래서	-3893
은영화	-3894
..^^	-3895
▁1,2	-3896
▁똑같은	-3897
▁스파이	-3898
▁점수가	-3899
▁참으로	-3900
좋아하는	-3901
▁부족하다	-3902
▁앞으로도	-3903
▁왠만하면	-3904
▁웃기지도	-3905
12	-3906
▁h	-3907
▁쏘	-3908
▁옥	-3909
기지	-3910
씬이	-3911
포터	-3912
000	-3913
▁류승	-3914
▁뭐라	-3915
▁안본	-3916
▁없지	-3917
▁올려	-3918
▁이도	-3919
▁할리	-3920
되었다	-3921
▁말아먹	-3922
▁우리는	-3923
▁작품은	-3924
▁죽이고	-3925
▁아름다움	-3926
▁이제서야	-3927
▁재밌던데	-3928
▁봉	-3929
▁찰	-3930
느니	-3931
님들	-3932
받는	-3933
버그	-3934
삭제	-3935
시청	-3936
얼굴	-3937
요소	-3938
자연	-3939
주연	-3940
.^^	-3941
▁간다	-3942
▁감히	-3943
▁개뿔	-3944
▁겨우	-3945
▁내면	-3946
▁대화	-3947
▁보자	-3948
▁아동	-3949
▁야동	-3950
▁잊지	-3951
▁주말	-3952
▁풍경	-3953
되네요	-3954
려다가	-3955
연기력	-3956
..;;	-3957
▁DVD	-3958
▁명작이	-3959
▁없어요	-3960
▁있는지	-3961
▁행복한	-3962
지도않고	-3963
▁긴장감이	-3964
▁보여준다	-3965
▁스토리의	-3966
▁있었지만	-3967
.,	-3968
▁k	-3969
▁y	-3970
▁됬	-3971
▁술	-3972
만은	-3973
문제	-3974
소녀	-3975
얘기	-3976
우가	-3977
점줌	-3978
▁받을	-3979
▁블록	-3980
▁빈약	-3981
▁신비	-3982
▁싶을	-3983
▁악마	-3984
▁욕망	-3985
▁이민	-3986
▁자주	-3987
▁제시	-3988
스타일	-3989
이영화	-3990
▁심하게	-3991
▁원작이	-3992
▁장르가	-3993
▁정도의	-3994
▁하는거	-3995
▁할머니	-3996
▁잼있어요	-3997
▁캐릭터가	-3998
▁말도안되는	-3999
▁영화보면서	-4000
▁맹	-4001
▁쩝	-4002
겨진	-4003
나다	-4004
더빙	-4005
드시	-4006
무지	-4007
역사	-4008
이들	-4009
초반	-4010
후반	-4011
▁강력	-4012
▁깨달	-4013
▁무술	-4014
▁어두	-4015
▁오로	-4016
▁인해	-4017
있어서	-4018
▁몰입감	-4019
▁생각함	-4020
▁왜이래	-4021
▁있구나	-4022
보고싶다	-4023
▁어린시절	-4024
▁보았습니다	-4025
▁멈	-4026
▁육	-4027
게요	-4028
년의	-4029
도는	-4030
루즈	-4031
았을	-4032
애가	-4033
오늘	-4034
원의	-4035
▁다루	-4036
▁드림	-4037
▁보통	-4038
▁수고	-4039
▁최초	-4040
장면은	-4041
했다고	-4042
▁감명깊	-4043
▁그당시	-4044
▁깨닫게	-4045
▁배우를	-4046
▁세상을	-4047
▁한심한	-4048
▁재미없게	-4049
▁짜증난다	-4050
▁끈	-4051
관람	-4052
드로	-4053
라기	-4054
러워	-4055
리카	-4056
어여	-4057
음이	-4058
인것	-4059
인과	-4060
▁그건	-4061
▁기발	-4062
▁떠올	-4063
▁설득	-4064
▁아픈	-4065
▁안볼	-4066
▁짝이	-4067
▁찍어	-4068
어떻게	-4069
자들이	-4070
▁관객을	-4071
▁노래도	-4072
▁막판에	-4073
▁문제가	-4074
▁수준의	-4075
▁않네요	-4076
▁영원히	-4077
▁영화네	-4078
▁위해서	-4079
▁잼있다	-4080
보는내내	-4081
▁2014	-4082
▁개연성도	-4083
▁뿌	-4084
▁옷	-4085
개인	-4086
능력	-4087
▁둘이	-4088
▁방영	-4089
▁사진	-4090
▁이소	-4091
▁작위	-4092
▁전율	-4093
▁하네	-4094
년도에	-4095
▁내가본	-4096
▁분들은	-4097
▁자신을	-4098
▁자신이	-4099
▁죽는줄	-4100
▁훈훈한	-4101
것같아요	-4102
마지막에	-4103
▁ᅲᅲᅲᅲ	-4104
▁생각하면	-4105
▁명작입니다	-4106
▁깎	-4107
▁엿	-4108
▁칭	-4109
냈다	-4110
는대	-4111
모든	-4112
지요	-4113
추기	-4114
티브	-4115
..1	-4116
OOO	-4117
▁낚시	-4118
▁만한	-4119
▁무리	-4120
▁바꾸	-4121
▁범인	-4122
▁볼거	-4123
▁살려	-4124
▁우려	-4125
▁위로	-4126
▁해라	-4127
▁효과	-4128
▁가치가	-4129
▁그렇지	-4130
▁답답한	-4131
▁동성애	-4132
▁미스터	-4133
▁보다는	-4134
▁분위기가	-4135
▁생각나서	-4136
▁있었는데	-4137
▁시간가는줄	-4138
▁앉	-4139
건만	-4140
드를	-4141
리네	-4142
보자	-4143
분의	-4144
연이	-4145
왔다	-4146
이어	-4147
취향	-4148
통령	-4149
▁결정	-4150
▁등등	-4151
▁모험	-4152
▁오빠	-4153
▁유지	-4154
▁인디	-4155
▁잔뜩	-4156
▁테러	-4157
▁하늘	-4158
▁해석	-4159
겠다는	-4160
기에는	-4161
다는걸	-4162
듭니다	-4163
분들은	-4164
▁기다려	-4165
▁나오지	-4166
▁대놓고	-4167
▁디테일	-4168
▁오랜만	-4169
▁중요한	-4170
▁만들어도	-4171
▁보지마라	-4172
▁알겠는데	-4173
▁이런영화를	-4174
en	-4175
▁n	-4176
겨서	-4177
그만	-4178
다큐	-4179
데이	-4180
라인	-4181
바로	-4182
부를	-4183
세포	-4184
쓰고	-4185
어린	-4186
피스	-4187
▁21	-4188
▁남은	-4189
▁대본	-4190
▁도망	-4191
▁아예	-4192
▁야구	-4193
▁여름	-4194
▁올리	-4195
▁장애	-4196
▁제외	-4197
▁조니	-4198
▁지났	-4199
만큼은	-4200
지말고	-4201
하고자	-4202
▁느낄수	-4203
▁만들면	-4204
▁비하면	-4205
▁연기잘	-4206
▁의미가	-4207
▁재밌을	-4208
▁죽이는	-4209
▁추억이	-4210
▁현실성	-4211
배우들이	-4212
▁만들다니	-4213
▁비디오로	-4214
▁안타까운	-4215
▁없습니다	-4216
▁억지스러운	-4217
▁겪	-4218
낸다	-4219
대단	-4220
미네	-4221
번은	-4222
보네	-4223
복을	-4224
볼만	-4225
빨리	-4226
신을	-4227
씨는	-4228
장을	-4229
절대	-4230
함의	-4231
형래	-4232
▁높게	-4233
▁돈을	-4234
▁배역	-4235
▁비밀	-4236
▁사고	-4237
▁심오	-4238
▁알수	-4239
겁니다	-4240
만들어	-4241
▁노래가	-4242
▁다시는	-4243
▁색다른	-4244
▁소중한	-4245
▁연출과	-4246
▁잘하고	-4247
▁지나도	-4248
▁짜임새	-4249
영화인데	-4250
▁모르겠음	-4251
▁여러가지	-4252
99	-4253
▁L	-4254
▁P	-4255
▁낙	-4256
▁묵	-4257
▁왤	-4258
긴장	-4259
때문	-4260
레멘	-4261
력을	-4262
만다	-4263
모두	-4264
뭐야	-4265
뭔가	-4266
빼고	-4267
세기	-4268
였어	-4269
이리	-4270
종일	-4271
▁sf	-4272
▁~~	-4273
▁상관	-4274
▁새끼	-4275
▁양심	-4276
▁웃고	-4277
웠지만	-4278
하는건	-4279
~!!!	-4280
▁가슴을	-4281
▁거기에	-4282
▁결말을	-4283
▁매력을	-4284
▁뭐하나	-4285
▁반전은	-4286
▁봅니다	-4287
▁소름이	-4288
▁속에서	-4289
▁애들은	-4290
▁어이없	-4291
▁여운을	-4292
▁이래서	-4293
생각없이	-4294
▁그저그런	-4295
▁극장가서	-4296
▁기대이상	-4297
▁답답하고	-4298
▁떨어진다	-4299
▁아닙니다	-4300
▁인상적이	-4301
▁정말이지	-4302
▁하나같이	-4303
▁재미없었다	-4304
▁ᄏᄏᄏᄏᄏᄏ	-4305
▁킬링타임용으로	-4306
▁/	-4307
▁씹	-4308
사건	-4309
생활	-4310
아쉬	-4311
좋음	-4312
허접	-4313
▁기준	-4314
▁데이	-4315
▁둘째	-4316
▁부실	-4317
▁선동	-4318
▁성격	-4319
▁스페	-4320
▁있던	-4321
▁잔혹	-4322
▁정확	-4323
▁집에	-4324
▁최민	-4325
▁치고	-4326
▁한명	-4327
다는거	-4328
레이션	-4329
솔직히	-4330
이였다	-4331
점만점	-4332
줄이야	-4333
파이어	-4334
▁나쁘지	-4335
▁느꼈다	-4336
▁또다른	-4337
▁소소한	-4338
▁아니야	-4339
▁어쩔수	-4340
▁영화화	-4341
▁예쁘고	-4342
▁최고임	-4343
▁최근에	-4344
▁흥미로	-4345
스토리도	-4346
해주세요	-4347
▁감정이입	-4348
▁엉성하고	-4349
▁이야기는	-4350
▁주인공은	-4351
영화입니다	-4352
▁남자주인공	-4353
▁블록버스터	-4354
▁재미있습니다	-4355
▁택	-4356
▁펼	-4357
과서	-4358
나니	-4359
누나	-4360
는듯	-4361
든지	-4362
뭥미	-4363
어디	-4364
음을	-4365
잡고	-4366
장한	-4367
정한	-4368
지면	-4369
▁결코	-4370
▁길게	-4371
▁낮네	-4372
▁빠진	-4373
▁어쩜	-4374
▁연극	-4375
▁울컥	-4376
▁일깨	-4377
▁충실	-4378
보니까	-4379
봤지만	-4380
부분이	-4381
연기는	-4382
웠어요	-4383
▁구성이	-4384
▁많은데	-4385
▁연예인	-4386
▁오래된	-4387
▁이해안	-4388
▁잘어울	-4389
▁제임스	-4390
▁최고로	-4391
▁무엇인지	-4392
▁스트레스	-4393
▁막장드라마	-4394
it	-4395
구성	-4396
님은	-4397
스크	-4398
오래	-4399
이쁘	-4400
제로	-4401
▁14	-4402
▁감각	-4403
▁갖고	-4404
▁만남	-4405
▁무한	-4406
▁아래	-4407
▁열정	-4408
▁정체	-4409
▁조작	-4410
들이나	-4411
레멘타	-4412
해주고	-4413
▁데리고	-4414
▁됩니다	-4415
▁별로임	-4416
▁잼나게	-4417
▁적당히	-4418
▁본방사수	-4419
▁잘봤어요	-4420
▁최고였다	-4421
vd	-4422
▁=	-4423
▁낭	-4424
▁떨	-4425
니퍼	-4426
되면	-4427
르게	-4428
매력	-4429
아는	-4430
어리	-4431
조금	-4432
후의	-4433
▁끝났	-4434
▁놓고	-4435
▁단편	-4436
▁달리	-4437
▁생활	-4438
▁의리	-4439
▁잼잇	-4440
▁탄생	-4441
▁할수	-4442
나오고	-4443
인줄알	-4444
점대는	-4445
▁그만큼	-4446
▁느낌의	-4447
▁명작을	-4448
▁식상한	-4449
▁주기도	-4450
▁참신한	-4451
▁한국의	-4452
했었는데	-4453
▁다운받아	-4454
▁집중해서	-4455
▁크리스마스	-4456
~~~~~~~~	-4457
▁넌	-4458
▁샘	-4459
▁헬	-4460
▁홀	-4461
강호	-4462
개그	-4463
니가	-4464
싸움	-4465
아름	-4466
치가	-4467
커플	-4468
팩트	-4469
▁낮게	-4470
▁넘게	-4471
▁먼가	-4472
▁못봐	-4473
▁뭐니	-4474
▁본게	-4475
▁봐줄	-4476
▁빼면	-4477
▁손에	-4478
▁시키	-4479
▁아내	-4480
▁안된	-4481
▁안습	-4482
▁열받	-4483
▁으리	-4484
▁책을	-4485
는거야	-4486
전개가	-4487
점에서	-4488
▁그자체	-4489
▁낚였다	-4490
▁남네요	-4491
▁수많은	-4492
▁아무런	-4493
▁하는게	-4494
▁한국인	-4495
▁했으면	-4496
미네이터	-4497
없는영화	-4498
▁몰입도가	-4499
▁살다살다	-4500
▁살아가는	-4501
▁생각했는데	-4502
▁;	-4503
▁N	-4504
▁껐	-4505
▁났	-4506
▁를	-4507
▁몬	-4508
▁웰	-4509
▁첩	-4510
♡♡	-4511
동차	-4512
로드	-4513
리면	-4514
묘한	-4515
부가	-4516
상은	-4517
서는	-4518
신의	-4519
아빠	-4520
티즌	-4521
퓨터	-4522
하군	-4523
▁담배	-4524
▁듣고	-4525
▁명화	-4526
▁뭘까	-4527
▁야한	-4528
▁조절	-4529
▁조카	-4530
▁주기	-4531
▁집착	-4532
것같은	-4533
기전에	-4534
인데도	-4535
▁다양한	-4536
▁돌아가	-4537
▁부분도	-4538
▁살면서	-4539
▁실제로	-4540
▁여주가	-4541
▁이것이	-4542
▁질리지	-4543
▁핵노잼	-4544
▁바랍니다	-4545
▁보기에는	-4546
▁볼수있는	-4547
▁봤는데도	-4548
▁시리즈중	-4549
▁연기력은	-4550
▁영화인가	-4551
▁이상하게	-4552
▁훌륭하다	-4553
11	-4554
▁낯	-4555
▁쥬	-4556
▁휘	-4557
국영	-4558
년작	-4559
라의	-4560
버려	-4561
분을	-4562
윤발	-4563
이에	-4564
▁가지	-4565
▁거부	-4566
▁기자	-4567
▁꽤나	-4568
▁다를	-4569
▁다이	-4570
▁본거	-4571
▁볼때	-4572
▁새로	-4573
▁시끄	-4574
▁앞뒤	-4575
▁애기	-4576
▁영향	-4577
▁자식	-4578
▁플롯	-4579
▁헤어	-4580
도대체	-4581
엇는데	-4582
했으나	-4583
▁감동은	-4584
▁거짓말	-4585
▁교훈을	-4586
▁놀라운	-4587
▁로버트	-4588
▁소설을	-4589
▁소재도	-4590
▁아류작	-4591
▁약간의	-4592
▁여자의	-4593
▁자체는	-4594
▁주제를	-4595
▁짜증만	-4596
재미없음	-4597
하는영화	-4598
▁만든영화	-4599
▁시리즈는	-4600
▁특수효과	-4601
▁마지막까지	-4602
..........	-4603
30	-4604
▁캬	-4605
▁튀	-4606
공감	-4607
나네	-4608
문화	-4609
싫어	-4610
치곤	-4611
▁be	-4612
▁끔찍	-4613
▁들고	-4614
▁사투	-4615
▁살린	-4616
▁서부	-4617
▁쓰고	-4618
▁안쓰	-4619
▁안에	-4620
▁위험	-4621
▁유아	-4622
▁읽어	-4623
▁짧은	-4624
갑니다	-4625
는영화	-4626
봤네요	-4627
속으로	-4628
자들의	-4629
하는것	-4630
▁교과서	-4631
▁나머지	-4632
▁심지어	-4633
▁않아서	-4634
▁영상이	-4635
▁웃기다	-4636
▁장면도	-4637
▁친구가	-4638
▁생각으로	-4639
▁아쉽지만	-4640
▁여자친구	-4641
▁좋겠네요	-4642
▁포스터가	-4643
▁만들었는지	-4644
▁재미도없고	-4645
▁W	-4646
▁X	-4647
개는	-4648
관객	-4649
래곤	-4650
뢰매	-4651
리며	-4652
마이	-4653
바이	-4654
스포	-4655
시오	-4656
여행	-4657
으신	-4658
정의	-4659
치노	-4660
트의	-4661
하길	-4662
혼자	-4663
▁60	-4664
▁낮지	-4665
▁따분	-4666
▁매일	-4667
▁무료	-4668
▁묻어	-4669
▁짜집	-4670
▁타고	-4671
▁혹은	-4672
으로는	-4673
이었음	-4674
▁가벼운	-4675
▁반드시	-4676
▁별로고	-4677
▁봤을까	-4678
▁역사를	-4679
▁영화와	-4680
▁원작에	-4681
▁일깨워	-4682
▁있다니	-4683
▁첫사랑	-4684
▁하다가	-4685
▁한번도	-4686
▁한편의	-4687
▁궁금하다	-4688
▁떨어지고	-4689
▁배우들은	-4690
▁시청률이	-4691
▁어느정도	-4692
▁어울리는	-4693
▁에피소드	-4694
▁영화인지	-4695
▁처음에는	-4696
-^	-4697
▁K	-4698
▁객	-4699
▁벤	-4700
같고	-4701
거든	-4702
덕화	-4703
도를	-4704
상의	-4705
선을	-4706
스키	-4707
이도	-4708
이여	-4709
적임	-4710
했지	-4711
▁가르	-4712
▁낮다	-4713
▁때려	-4714
▁받은	-4715
▁비행	-4716
▁손색	-4717
▁쓰는	-4718
▁웃겼	-4719
▁정작	-4720
▁한숨	-4721
▁호구	-4722
감독님	-4723
나와서	-4724
심으로	-4725
였으면	-4726
적이지	-4727
해지고	-4728
▁감독을	-4729
▁괜찮다	-4730
▁귀여워	-4731
▁당신은	-4732
▁러시아	-4733
▁무서워	-4734
▁스티븐	-4735
▁작가님	-4736
▁주윤발	-4737
▁특별한	-4738
▁평점조	-4739
있습니다	-4740
▁그야말로	-4741
▁말하고자	-4742
▁아름답게	-4743
▁어설프고	-4744
▁재밌다는	-4745
▁짜증나서	-4746
▁태어나서	-4747
▁여자주인공	-4748
▁틈	-4749
▁혐	-4750
가네	-4751
겠죠	-4752
대해	-4753
리나	-4754
박한	-4755
보지	-4756
상수	-4757
시면	-4758
악한	-4759
야할	-4760
여주	-4761
일을	-4762
장르	-4763
짱짱	-4764
프닝	-4765
후회	-4766
▁끼워	-4767
▁내게	-4768
▁다크	-4769
▁담겨	-4770
▁당황	-4771
▁본지	-4772
▁있네	-4773
▁첨엔	-4774
▁팬이	-4775
▁형사	-4776
기까지	-4777
았으면	-4778
애들이	-4779
했을때	-4780
▁놀랍다	-4781
▁당연히	-4782
▁많은걸	-4783
▁배우도	-4784
▁보지말	-4785
▁브루스	-4786
▁여자들	-4787
▁이딴걸	-4788
▁이상의	-4789
▁일부러	-4790
▁처음에	-4791
▁출연한	-4792
▁희망을	-4793
▁나름대로	-4794
▁쓸데없이	-4795
▁아까웠다	-4796
▁주인공들	-4797
▁해리포터	-4798
.0	-4799
80	-4800
ut	-4801
▁깡	-4802
▁효	-4803
보영	-4804
신고	-4805
정우	-4806
햇다	-4807
형님	-4808
▁of	-4809
▁근래	-4810
▁나랑	-4811
▁로코	-4812
▁목숨	-4813
▁미쳤	-4814
▁베드	-4815
▁수입	-4816
▁안될	-4817
▁잠시	-4818
▁주지	-4819
▁추격	-4820
▁파워	-4821
메이드	-4822
스럽지	-4823
으려고	-4824
하자는	-4825
해야지	-4826
▁그립다	-4827
▁내용과	-4828
▁모든걸	-4829
▁배트맨	-4830
▁보다니	-4831
▁소재와	-4832
▁심형래	-4833
▁엔딩이	-4834
▁영상과	-4835
▁이따구	-4836
▁이해를	-4837
▁장면을	-4838
웠습니다	-4839
▁수작이다	-4840
▁유일하게	-4841
▁이상하고	-4842
ᄏᄏᄏᄏᄏᄏ	-4843
▁재미없어서	-4844
ᅲᅮ	-4845
▁팝	-4846
게임	-4847
또한	-4848
로의	-4849
성과	-4850
슨이	-4851
어용	-4852
인건	-4853
정화	-4854
죽는	-4855
지현	-4856
함도	-4857
▁빵터	-4858
▁아버	-4859
▁애매	-4860
▁이야	-4861
▁이은	-4862
▁적절	-4863
▁확인	-4864
건가요	-4865
부터가	-4866
었다는	-4867
에게는	-4868
잖아요	-4869
점으로	-4870
하고싶	-4871
?...	-4872
▁dvd	-4873
▁you	-4874
▁강렬한	-4875
▁괜찮음	-4876
▁나에겐	-4877
▁내생에	-4878
▁많아서	-4879
▁배우는	-4880
▁사람도	-4881
▁시간만	-4882
▁싸우는	-4883
▁영화만	-4884
▁이런건	-4885
▁있다고	-4886
▁제니퍼	-4887
▁중에서	-4888
▁지금의	-4889
거같아요	-4890
긴하지만	-4891
스토리가	-4892
▁다시보니	-4893
▁따뜻하고	-4894
▁배경음악	-4895
▁아니라고	-4896
▁웃으면서	-4897
!!!!!!	-4898
is	-4899
▁F	-4900
▁ᄇ	-4901
▁곧	-4902
▁댄	-4903
드리	-4904
때매	-4905
레인	-4906
리와	-4907
이름	-4908
쟁이	-4909
줬다	-4910
직한	-4911
▁감안	-4912
▁극단	-4913
▁꼬마	-4914
▁무너	-4915
▁보던	-4916
▁봤네	-4917
▁부르	-4918
▁빵빵	-4919
▁실력	-4920
▁애국	-4921
▁언젠	-4922
▁자세	-4923
▁정우	-4924
▁착각	-4925
▁폐지	-4926
▁하아	-4927
같아요	-4928
면에서	-4929
뿐이다	-4930
아저씨	-4931
어야지	-4932
었구나	-4933
화이팅	-4934
▁너무도	-4935
▁머리가	-4936
▁새벽에	-4937
▁생각할	-4938
▁아깝고	-4939
▁엄마가	-4940
▁울리는	-4941
▁유일한	-4942
▁이소룡	-4943
▁잘하는	-4944
▁주제가	-4945
▁하길래	-4946
▁흐르는	-4947
영화보다	-4948
▁돋보이는	-4949
▁아쉬움이	-4950
▁재밋어요	-4951
▁재밌어서	-4952
▁케이블에서	-4953
le	-4954
느껴	-4955
미는	-4956
부로	-4957
선생	-4958
아치	-4959
있을	-4960
졸작	-4961
중이	-4962
추억	-4963
▁강한	-4964
▁고맙	-4965
▁김혜	-4966
▁난잡	-4967
▁동양	-4968
▁맞춰	-4969
▁별반	-4970
▁신의	-4971
▁싶지	-4972
▁아냐	-4973
▁어째	-4974
▁위대	-4975
▁하여	-4976
▁화장	-4977
관에서	-4978
만하다	-4979
있네요	-4980
좋았다	-4981
최악의	-4982
포스터	-4983
하나도	-4984
▁ᄍᄍᄍ	-4985
▁공포물	-4986
▁그것도	-4987
▁나네요	-4988
▁대통령	-4989
▁두번째	-4990
▁몰랐다	-4991
▁반전을	-4992
▁생각도	-4993
▁숨겨진	-4994
▁실화를	-4995
▁싶어요	-4996
▁없었음	-4997
▁영환데	-4998
▁예쁘다	-4999
▁잘못된	-5000
▁점수는	-5001
▁제목만	-5002
▁조니뎁	-5003
▁진짜로	-5004
▁초딩때	-5005
▁하나로	-5006
▁할리우드	-5007
▁아까운영화	-5008
▁최고의영화	-5009
▁늑	-5010
▁덤	-5011
나의	-5012
드만	-5013
민이	-5014
뻐요	-5015
언제	-5016
오브	-5017
전을	-5018
차별	-5019
하러	-5020
▁과학	-5021
▁남기	-5022
▁다섯	-5023
▁디워	-5024
▁마약	-5025
▁망친	-5026
▁바다	-5027
▁싸움	-5028
▁예능	-5029
▁재능	-5030
▁흑인	-5031
라이언	-5032
으로만	-5033
재미도	-5034
▁감동받	-5035
▁개노잼	-5036
▁단순히	-5037
▁못하다	-5038
▁보기에	-5039
▁부모님	-5040
▁불편한	-5041
▁여러번	-5042
▁여자는	-5043
▁연출은	-5044
▁일본의	-5045
▁잊혀지	-5046
▁줍니다	-5047
▁집중이	-5048
시나리오	-5049
하지않고	-5050
▁마음으로	-5051
▁매력적이	-5052
▁아이들과	-5053
▁어색하고	-5054
▁언제봐도	-5055
▁이드라마	-5056
▁클레멘타	-5057
▁한국에서	-5058
▁이런영화는	-5059
as	-5060
▁>	-5061
▁염	-5062
▁컬	-5063
랜드	-5064
버릴	-5065
분위	-5066
였네	-5067
웃김	-5068
으리	-5069
이프	-5070
일듯	-5071
일의	-5072
잡을	-5073
졌음	-5074
중반	-5075
테러	-5076
팔이	-5077
▁같고	-5078
▁두려	-5079
▁땜에	-5080
▁로빈	-5081
▁배급	-5082
▁빠른	-5083
▁사용	-5084
▁서양	-5085
▁실험	-5086
▁없게	-5087
▁오브	-5088
▁외로	-5089
▁이병	-5090
▁익숙	-5091
▁잤다	-5092
▁저급	-5093
▁중독	-5094
▁클래	-5095
▁편안	-5096
생각이	-5097
어가는	-5098
점주고	-5099
▁갑니다	-5100
▁다르게	-5101
▁떨어짐	-5102
▁멋있는	-5103
▁멋지고	-5104
▁봤다면	-5105
▁아니지	-5106
▁아들이	-5107
▁안봐도	-5108
▁없나요	-5109
▁인생에	-5110
▁재미로	-5111
▁재밋음	-5112
▁잼있음	-5113
▁짜증남	-5114
▁컴퓨터	-5115
▁혹시나	-5116
▁후속작	-5117
▁희대의	-5118
재미있게	-5119
...^^	-5120
▁마이너스	-5121
▁이해할수	-5122
▁모르겠네요	-5123
▁터미네이터	-5124
.3	-5125
▁곽	-5126
▁든	-5127
▁떼	-5128
▁링	-5129
가면	-5130
느끼	-5131
미국	-5132
보내	-5133
부는	-5134
어지	-5135
은거	-5136
자로	-5137
자와	-5138
전이	-5139
주면	-5140
줄은	-5141
판이	-5142
히고	-5143
▁개념	-5144
▁낮아	-5145
▁따위	-5146
▁망한	-5147
▁배신	-5148
▁선물	-5149
▁아놀	-5150
▁유발	-5151
▁정보	-5152
▁판단	-5153
는거지	-5154
는데도	-5155
라는게	-5156
었다고	-5157
하거나	-5158
하더라	-5159
▁그동안	-5160
▁나왔다	-5161
▁높아서	-5162
▁다르다	-5163
▁안간다	-5164
▁이보다	-5165
▁이뻐서	-5166
▁이토록	-5167
▁일본은	-5168
▁저평가	-5169
▁좋다고	-5170
▁최고봉	-5171
▁현실이	-5172
▁기억나는	-5173
▁봐도봐도	-5174
▁시간아깝다	-5175
▁ᄏᄏᄏᄏᄏᄏᄏ	-5176
!!!!!!!!!!!!!!!!	-5177
▁R	-5178
▁숙	-5179
▁옹	-5180
▁쭉	-5181
간에	-5182
같아	-5183
개가	-5184
기법	-5185
놨네	-5186
드림	-5187
모로	-5188
미스	-5189
볼수	-5190
불허	-5191
살아	-5192
살인	-5193
스케	-5194
식은	-5195
안됨	-5196
어색	-5197
조연	-5198
희가	-5199
▁가고	-5200
▁개성	-5201
▁두근	-5202
▁망치	-5203
▁생긴	-5204
▁소피	-5205
▁자랑	-5206
▁진리	-5207
내용은	-5208
모르고	-5209
보이는	-5210
분만에	-5211
있었다	-5212
ovie	-5213
▁네티즌	-5214
▁도무지	-5215
▁매니아	-5216
▁사운드	-5217
▁시간에	-5218
▁알겠다	-5219
▁전쟁의	-5220
도아니고	-5221
▁괜찮았다	-5222
▁궁금해서	-5223
▁마지막이	-5224
▁영상미가	-5225
▁영화라니	-5226
▁영화자체	-5227
▁짜증나고	-5228
▁여주인공이	-5229
▁작품입니다	-5230
▁갓	-5231
▁땡	-5232
▁뭣	-5233
▁헌	-5234
▁혁	-5235
보긴	-5236
사와	-5237
성기	-5238
싫다	-5239
엄청	-5240
웠고	-5241
즈의	-5242
진이	-5243
티노	-5244
하균	-5245
▁거북	-5246
▁겉멋	-5247
▁그들	-5248
▁기타	-5249
▁대신	-5250
▁루즈	-5251
▁말자	-5252
▁망가	-5253
▁반담	-5254
▁본듯	-5255
▁스텝	-5256
▁왤케	-5257
▁인형	-5258
▁잊고	-5259
▁잠이	-5260
▁즐겨	-5261
▁탈출	-5262
▁폭발	-5263
▁폭풍	-5264
▁프레	-5265
▁하시	-5266
▁하품	-5267
▁한방	-5268
▁형님	-5269
▁흑백	-5270
납니다	-5271
배우의	-5272
왔는데	-5273
▁느낌은	-5274
▁만화책	-5275
▁뭐하는	-5276
▁사실을	-5277
▁어른이	-5278
▁어우러	-5279
▁재개봉	-5280
▁주고싶	-5281
▁지겹다	-5282
▁짜증이	-5283
하지마라	-5284
▁2000	-5285
▁ᄒᄒᄒᄒ	-5286
▁뱀파이어	-5287
▁불쌍하다	-5288
▁괜찮았는데	-5289
▁재미없다고	-5290
▁한국영화의	-5291
▁걱	-5292
▁뽀	-5293
▁엔	-5294
귀여	-5295
까요	-5296
높은	-5297
딩때	-5298
마자	-5299
말도	-5300
빠진	-5301
사에	-5302
서도	-5303
성우	-5304
세여	-5305
시원	-5306
아내	-5307
엇음	-5308
점수	-5309
지나	-5310
하디	-5311
▁각색	-5312
▁관련	-5313
▁극복	-5314
▁꿈꾸	-5315
▁끌고	-5316
▁남편	-5317
▁달려	-5318
▁맛이	-5319
▁맞아	-5320
▁뭥미	-5321
▁밀려	-5322
▁빛을	-5323
▁사상	-5324
▁아우	-5325
▁압도	-5326
▁열연	-5327
▁이성	-5328
▁이수	-5329
▁좋네	-5330
▁컨셉	-5331
▁평소	-5332
▁했음	-5333
▁환경	-5334
거같음	-5335
게하는	-5336
스러워	-5337
어버린	-5338
정적인	-5339
햇는데	-5340
▁가족이	-5341
▁결론은	-5342
▁되네요	-5343
▁분들이	-5344
▁사이코	-5345
▁스릴도	-5346
▁액션을	-5347
▁얼굴이	-5348
▁인간은	-5349
▁적어도	-5350
▁케릭터	-5351
▁한다는	-5352
▁현실과	-5353
♥♥♥♥	-5354
같은영화	-5355
극장에서	-5356
기도하고	-5357
▁Good	-5358
▁기대없이	-5359
▁나레이션	-5360
▁소중함을	-5361
▁영화였음	-5362
▁잔잔하게	-5363
▁시나리오가	-5364
19	-5365
▁굴	-5366
▁땅	-5367
▁벨	-5368
가리	-5369
가에	-5370
못해	-5371
물로	-5372
았네	-5373
어의	-5374
였나	-5375
웃기	-5376
장의	-5377
해선	-5378
형제	-5379
▁달콤	-5380
▁로드	-5381
▁만약	-5382
▁멋지	-5383
▁못미	-5384
▁무겁	-5385
▁무게	-5386
▁박수	-5387
▁받고	-5388
▁부담	-5389
▁유행	-5390
▁자본	-5391
▁집어	-5392
▁추리	-5393
▁파괴	-5394
▁평균	-5395
분들이	-5396
인지도	-5397
제대로	-5398
▁고양이	-5399
▁공짜로	-5400
▁다보고	-5401
▁명복을	-5402
▁명불허	-5403
▁명작은	-5404
▁본건데	-5405
▁봐야지	-5406
▁사랑해	-5407
▁없는게	-5408
▁영화이	-5409
▁오프닝	-5410
▁왜이러	-5411
▁우뢰매	-5412
▁정도면	-5413
▁좋을듯	-5414
▁내용인지	-5415
▁리얼리티	-5416
▁만들어서	-5417
▁목소리가	-5418
▁무엇인가	-5419
▁믿고보는	-5420
▁쓸데없는	-5421
▁않았지만	-5422
▁오랫만에	-5423
▁유쾌하게	-5424
▁자극적인	-5425
쓰레기영화	-5426
CG	-5427
▁꿀	-5428
▁붕	-5429
▁쫓	-5430
▁콘	-5431
갈때	-5432
라노	-5433
라에	-5434
무시	-5435
버스	-5436
부의	-5437
불쌍	-5438
시가	-5439
인게	-5440
졌던	-5441
▁거품	-5442
▁과대	-5443
▁김지	-5444
▁김치	-5445
▁늦게	-5446
▁담백	-5447
▁답이	-5448
▁삶이	-5449
▁서울	-5450
▁어떨	-5451
▁원조	-5452
▁유럽	-5453
▁이렇	-5454
▁이준	-5455
▁장동	-5456
▁죽고	-5457
▁지겹	-5458
▁호기	-5459
▁흡입	-5460
감독은	-5461
들끼리	-5462
란티노	-5463
빕니다	-5464
아무리	-5465
적으론	-5466
한마디	-5467
할만한	-5468
▁내생애	-5469
▁동시에	-5470
▁매력에	-5471
▁못봐주	-5472
▁살인마	-5473
▁안어울	-5474
▁없다고	-5475
▁이름이	-5476
▁인생이	-5477
▁인터넷	-5478
▁잊을수	-5479
▁자동차	-5480
▁장국영	-5481
▁제이슨	-5482
▁짜집기	-5483
▁보았는데	-5484
▁볼만했다	-5485
▁사랑해요	-5486
▁장난하냐	-5487
▁재미있는데	-5488
...........	-5489
90	-5490
ck	-5491
ow	-5492
▁곰	-5493
대고	-5494
도의	-5495
들여	-5496
따뜻	-5497
받을	-5498
범죄	-5499
비슷	-5500
상영	-5501
소름	-5502
위에	-5503
장애	-5504
저리	-5505
주기	-5506
준호	-5507
▁:)	-5508
▁마무	-5509
▁맞지	-5510
▁매미	-5511
▁뭐고	-5512
▁반대	-5513
▁보내	-5514
▁생에	-5515
▁아파	-5516
▁없냐	-5517
▁역량	-5518
▁왜곡	-5519
▁일베	-5520
▁줄리	-5521
▁짐캐	-5522
▁책임	-5523
▁최소	-5524
▁케빈	-5525
▁파격	-5526
▁흔들	-5527
▁힘내	-5528
까지도	-5529
나네요	-5530
분동안	-5531
여운이	-5532
연기를	-5533
인들의	-5534
임에도	-5535
있지만	-5536
점부터	-5537
중에서	-5538
▁가까운	-5539
▁가득한	-5540
▁귀엽다	-5541
▁그것을	-5542
▁내용의	-5543
▁다세포	-5544
▁당시에	-5545
▁돈내고	-5546
▁명장면	-5547
▁무섭고	-5548
▁미국의	-5549
▁불쌍한	-5550
▁소재의	-5551
▁액션과	-5552
▁어렵다	-5553
▁없으면	-5554
▁영화야	-5555
▁전개와	-5556
▁느낌이다	-5557
▁봐야하는	-5558
▁아깝네요	-5559
▁탄탄하고	-5560
▁포스터만	-5561
개인적으로	-5562
▁전반적으로	-5563
▁좋았을텐데	-5564
15	-5565
od	-5566
▁널	-5567
▁띄	-5568
▁품	-5569
간히	-5570
께요	-5571
낮은	-5572
데체	-5573
리엄	-5574
바람	-5575
스맨	-5576
스에	-5577
스와	-5578
없나	-5579
위원	-5580
있던	-5581
있지	-5582
자면	-5583
존나	-5584
중훈	-5585
▁갖다	-5586
▁객관	-5587
▁기존	-5588
▁깡패	-5589
▁냄새	-5590
▁민폐	-5591
▁벗어	-5592
▁부탁	-5593
▁불안	-5594
▁브래	-5595
▁어둡	-5596
▁어리	-5597
▁죄송	-5598
▁찍고	-5599
▁프리	-5600
▁하며	-5601
그러나	-5602
봐야지	-5603
아닌가	-5604
았네요	-5605
을까요	-5606
졌어요	-5607
,.,.	-5608
▁가능한	-5609
▁가족의	-5610
▁그것이	-5611
▁끝날때	-5612
▁나이가	-5613
▁듭니다	-5614
▁때마다	-5615
▁떨어지	-5616
▁배경이	-5617
▁볼려고	-5618
▁불가능	-5619
▁세상이	-5620
▁시대에	-5621
▁시대의	-5622
▁아진짜	-5623
▁양아치	-5624
▁어쩌면	-5625
▁은근히	-5626
▁자기가	-5627
▁제목을	-5628
▁친구랑	-5629
▁한개도	-5630
▁허술한	-5631
▁갠적으로	-5632
▁드라마의	-5633
▁영화예요	-5634
▁이런류의	-5635
▁초등학교	-5636
▁사람들에게	-5637
▁사람이라면	-5638
▁아무생각없이	-5639
ᅲᅲᅲᅲᅲᅲᅲᅲ	-5640
▁V	-5641
▁맴	-5642
▁웅	-5643
▁쫄	-5644
▁킹	-5645
▁협	-5646
구가	-5647
그럼	-5648
나름	-5649
늦게	-5650
더맨	-5651
둥이	-5652
들러	-5653
들로	-5654
래도	-5655
법한	-5656
웨이	-5657
위한	-5658
유리	-5659
이요	-5660
쥬얼	-5661
질않	-5662
코믹	-5663
할지	-5664
▁강간	-5665
▁것에	-5666
▁공간	-5667
▁길이	-5668
▁김태	-5669
▁김희	-5670
▁꼭보	-5671
▁나무	-5672
▁다신	-5673
▁담은	-5674
▁동네	-5675
▁매끄	-5676
▁바탕	-5677
▁받는	-5678
▁빵점	-5679
▁승리	-5680
▁안들	-5681
▁암걸	-5682
▁이동	-5683
▁읽고	-5684
▁조화	-5685
▁즐길	-5686
▁천국	-5687
▁첩보	-5688
▁콜린	-5689
▁탁월	-5690
까지만	-5691
되는데	-5692
들한테	-5693
습니까	-5694
지루함	-5695
프리오	-5696
~~^^	-5697
▁공감도	-5698
▁공감할	-5699
▁내용에	-5700
▁메세지	-5701
▁보시면	-5702
▁빕니다	-5703
▁설정이	-5704
▁스포츠	-5705
▁시청자	-5706
▁싶었다	-5707
▁안무서	-5708
▁역겨운	-5709
▁왠만한	-5710
▁점수준	-5711
▁정도가	-5712
▁최소한	-5713
▁피해자	-5714
▁헛웃음	-5715
드라마가	-5716
▁100%	-5717
▁나오는데	-5718
▁만들었나	-5719
▁생각난다	-5720
▁시작부터	-5721
▁이것보단	-5722
▁추천하고	-5723
▁블랙코미디	-5724
▁사랑합니다	-5725
▁하나하나가	-5726
nd	-5727
▁깍	-5728
▁는	-5729
▁옳	-5730
▁탓	-5731
광고	-5732
구의	-5733
남기	-5734
노답	-5735
더더	-5736
먹은	-5737
뭐냐	-5738
번에	-5739
보구	-5740
슨의	-5741
앗다	-5742
우의	-5743
의를	-5744
좋게	-5745
주일	-5746
짬뽕	-5747
킬링	-5748
함께	-5749
▁가정	-5750
▁개나	-5751
▁개똥	-5752
▁고뇌	-5753
▁고독	-5754
▁내돈	-5755
▁단어	-5756
▁담긴	-5757
▁독일	-5758
▁만난	-5759
▁무난	-5760
▁버려	-5761
▁상징	-5762
▁세번	-5763
▁소화	-5764
▁여친	-5765
▁요새	-5766
▁우연	-5767
▁일으	-5768
▁정상	-5769
▁진한	-5770
▁참나	-5771
▁허허	-5772
▁혐오	-5773
레이드	-5774
리스트	-5775
했다면	-5776
~~!!	-5777
▁4.4	-5778
▁가슴아	-5779
▁감독도	-5780
▁교훈도	-5781
▁버리고	-5782
▁빠지는	-5783
▁알았음	-5784
▁어두운	-5785
▁영원한	-5786
▁영화나	-5787
▁울면서	-5788
▁인생은	-5789
▁작가의	-5790
▁적절한	-5791
▁찾아서	-5792
▁첨부터	-5793
공포영화	-5794
으면서도	-5795
지않는다	-5796
▁다시보고	-5797
▁뜬금없는	-5798
▁마지막회	-5799
▁명불허전	-5800
▁아니었다	-5801
▁안보는게	-5802
▁억지감동	-5803
▁유치해서	-5804
▁이해불가	-5805
▁포스터에	-5806
▁할아버지	-5807
재미있어요	-5808
▁볼만합니다	-5809
ᄏᄏᄏᄏᄏᄏᄏ	-5810
es	-5811
zz	-5812
▁뗄	-5813
▁액	-5814
▁쿵	-5815
★☆	-5816
가를	-5817
가운	-5818
감과	-5819
그랬	-5820
기와	-5821
되나	-5822
뚱맞	-5823
로로	-5824
모를	-5825
므로	-5826
민의	-5827
빠져	-5828
사실	-5829
살이	-5830
승전	-5831
시나	-5832
쓰는	-5833
안타	-5834
없지	-5835
자리	-5836
초에	-5837
타고	-5838
탈출	-5839
할뿐	-5840
▁건가	-5841
▁기회	-5842
▁데뷔	-5843
▁몇년	-5844
▁몽환	-5845
▁사무	-5846
▁언니	-5847
▁예수	-5848
▁오우	-5849
▁인종	-5850
▁절망	-5851
▁즐기	-5852
▁키스	-5853
▁할때	-5854
거리가	-5855
겠다고	-5856
그렇게	-5857
다니는	-5858
아니면	-5859
주기도	-5860
하니까	-5861
▁ᄒᄃᄃ	-5862
▁감독과	-5863
▁드네요	-5864
▁라스트	-5865
▁류승범	-5866
▁반전에	-5867
▁빛나는	-5868
▁시간때	-5869
▁싶었던	-5870
▁아깝네	-5871
▁아무도	-5872
▁않은데	-5873
▁의도가	-5874
▁제시카	-5875
▁조금은	-5876
▁한국판	-5877
▁홍상수	-5878
카프리오	-5879
▁괜찮았음	-5880
▁드라마에	-5881
▁마지막엔	-5882
▁만들어낸	-5883
▁못보겠다	-5884
▁사랑하고	-5885
▁웰메이드	-5886
▁이도저도	-5887
▁전체적인	-5888
▁다시보고싶	-5889
ot	-5890
~♥	-5891
▁ᄡ	-5892
▁곱	-5893
▁님	-5894
▁린	-5895
▁삽	-5896
가장	-5897
고생	-5898
꺼면	-5899
나쁜	-5900
났음	-5901
라라	-5902
롭고	-5903
림이	-5904
만도	-5905
무엇	-5906
번을	-5907
워즈	-5908
원은	-5909
잇는	-5910
잖은	-5911
전의	-5912
진않	-5913
질질	-5914
치의	-5915
패스	-5916
프레	-5917
후에	-5918
▁th	-5919
▁깨알	-5920
▁녹아	-5921
▁담담	-5922
▁메이	-5923
▁밤에	-5924
▁보단	-5925
▁빨갱	-5926
▁수면	-5927
▁쓸쓸	-5928
▁아담	-5929
▁앞에	-5930
▁엑소	-5931
▁잠들	-5932
▁장진	-5933
▁짜릿	-5934
▁트랜	-5935
간만에	-5936
기억이	-5937
답니다	-5938
라이즈	-5939
리네요	-5940
못하는	-5941
발연기	-5942
생각을	-5943
신분들	-5944
애들은	-5945
점이상	-5946
파치노	-5947
할수가	-5948
▁개봉한	-5949
▁공포를	-5950
▁괜찮게	-5951
▁괜찮고	-5952
▁기대했	-5953
▁나오네	-5954
▁나을듯	-5955
▁되는데	-5956
▁드디어	-5957
▁선생님	-5958
▁아프다	-5959
▁영화같	-5960
▁외계인	-5961
▁요즘은	-5962
▁이름을	-5963
▁포인트	-5964
▁황당한	-5965
▁그렇지만	-5966
▁다행이다	-5967
▁모르지만	-5968
▁배경으로	-5969
▁인상적인	-5970
▁있었으면	-5971
▁장면들이	-5972
▁재미있었음	-5973
▁재미있었습니다	-5974
TV	-5975
▁&	-5976
▁밖	-5977
▁빙	-5978
▁죠	-5979
▁쪼	-5980
굿굿	-5981
귀엽	-5982
꺼야	-5983
되게	-5984
뭐지	-5985
박죽	-5986
분한	-5987
선택	-5988
아노	-5989
오랜	-5990
왕국	-5991
웃겨	-5992
이딴	-5993
전혀	-5994
조현	-5995
찬란	-5996
체적	-5997
치를	-5998
트를	-5999
편집	-6000
희의	-6001
..!	-6002
▁,,	-6003
▁--	-6004
▁깊게	-6005
▁끝도	-6006
▁다녀	-6007
▁먹는	-6008
▁뭐임	-6009
▁반영	-6010
▁배꼽	-6011
▁보려	-6012
▁빼곤	-6013
▁선사	-6014
▁쏟아	-6015
▁음식	-6016
▁자고	-6017
▁점이	-6018
▁정당	-6019
▁창피	-6020
▁피터	-6021
라고요	-6022
아직도	-6023
야한다	-6024
죽박죽	-6025
코메디	-6026
평론가	-6027
하고는	-6028
ᄒᄒᄒᄒ	-6029
▁끝나서	-6030
▁놀랐다	-6031
▁드래곤	-6032
▁박중훈	-6033
▁보게된	-6034
▁보라고	-6035
▁보았던	-6036
▁빠져서	-6037
▁설득력	-6038
▁영상도	-6039
▁요소가	-6040
▁이병헌	-6041
▁이제는	-6042
▁정도는	-6043
▁풋풋한	-6044
▁화장실	-6045
시간동안	-6046
▁사람들을	-6047
▁아이디어	-6048
▁재밌었던	-6049
▁진지하게	-6050
▁캐릭터들이	-6051
▁드라마입니다	-6052
,3	-6053
▁땀	-6054
▁뚝	-6055
▁앵	-6056
▁엮	-6057
▁칠	-6058
감사	-6059
것에	-6060
곳에	-6061
든가	-6062
로맨	-6063
만족	-6064
맘에	-6065
못한	-6066
비해	-6067
선이	-6068
여진	-6069
울뿐	-6070
으러	-6071
이든	-6072
점에	-6073
지부	-6074
쯧쯧	-6075
?..	-6076
▁개콘	-6077
▁고어	-6078
▁공중	-6079
▁끝에	-6080
▁드라	-6081
▁리즈	-6082
▁변화	-6083
▁보라	-6084
▁분량	-6085
▁삭제	-6086
▁암울	-6087
▁어쨌	-6088
▁요리	-6089
▁절제	-6090
겠는데	-6091
맙시다	-6092
없어요	-6093
재밌어	-6094
적이라	-6095
좋네요	-6096
줬으면	-6097
크레딧	-6098
▁;;;	-6099
▁EBS	-6100
▁것들이	-6101
▁귀여움	-6102
▁그들이	-6103
▁기대가	-6104
▁나올때	-6105
▁동영상	-6106
▁무거운	-6107
▁아이언	-6108
▁알았네	-6109
▁어거지	-6110
▁여러분	-6111
▁영화속	-6112
▁웃기는	-6113
▁하이틴	-6114
▁하정우	-6115
거같은데	-6116
있는영화	-6117
좋은영화	-6118
▁뜬금없이	-6119
▁소장하고	-6120
▁최고네요	-6121
▁캐릭터를	-6122
▁.....	-6123
▁생각해보게	-6124
▁감동적이네요	-6125
▁H	-6126
▁x	-6127
▁및	-6128
▁쌩	-6129
경이	-6130
끝나	-6131
다르	-6132
다만	-6133
도로	-6134
마나	-6135
물론	-6136
물의	-6137
수선	-6138
아누	-6139
아오	-6140
없게	-6141
없을	-6142
에다	-6143
역할	-6144
위가	-6145
질이	-6146
치도	-6147
하루	-6148
호감	-6149
^-^	-6150
^^*	-6151
ᅮᅮᅮ	-6152
▁가히	-6153
▁강동	-6154
▁던져	-6155
▁도둑	-6156
▁뒤에	-6157
▁망할	-6158
▁머릿	-6159
▁무간	-6160
▁버린	-6161
▁베리	-6162
▁생겼	-6163
▁숨은	-6164
▁안가	-6165
▁예측	-6166
▁오는	-6167
▁이쁨	-6168
▁전화	-6169
▁절로	-6170
▁질리	-6171
▁치유	-6172
▁평화	-6173
▁하도	-6174
▁형제	-6175
▁후에	-6176
덩어리	-6177
시대에	-6178
을수가	-6179
하시고	-6180
한테는	-6181
했을까	-6182
▁ᄃᄃᄃ	-6183
▁들어가	-6184
▁라이언	-6185
▁만점에	-6186
▁말고는	-6187
▁메시지	-6188
▁모른다	-6189
▁모습은	-6190
▁보기가	-6191
▁송강호	-6192
▁신하균	-6193
▁않았던	-6194
▁임팩트	-6195
▁잊지못	-6196
▁찾아볼	-6197
▁첨이다	-6198
▁했더니	-6199
▁허무한	-6200
점만점에	-6201
지루하고	-6202
지마세요	-6203
~~~~~	-6204
▁2012	-6205
▁거지같은	-6206
▁둘째치고	-6207
▁말그대로	-6208
▁순수하고	-6209
▁시작해서	-6210
▁언제까지	-6211
▁연기하는	-6212
▁오글오글	-6213
▁짜증나게	-6214
▁만들었을까	-6215
.-	-6216
al	-6217
ed	-6218
ic	-6219
▁J	-6220
▁r	-6221
▁u	-6222
▁년	-6223
▁찢	-6224
가가	-6225
겠어	-6226
내지	-6227
데미	-6228
루토	-6229
르소	-6230
말을	-6231
살때	-6232
상에	-6233
석규	-6234
셔야	-6235
스톤	-6236
시의	-6237
였지	-6238
우스	-6239
원을	-6240
증이	-6241
참고	-6242
트로	-6243
행복	-6244
힘들	-6245
▁걱정	-6246
▁것만	-6247
▁글을	-6248
▁기괴	-6249
▁놀란	-6250
▁따름	-6251
▁맡은	-6252
▁못본	-6253
▁뭐여	-6254
▁뮤직	-6255
▁밑도	-6256
▁부활	-6257
▁소개	-6258
▁어떠	-6259
▁에효	-6260
▁워낙	-6261
▁이종	-6262
▁잃은	-6263
▁임창	-6264
▁잠을	-6265
▁줘야	-6266
▁칭찬	-6267
▁풍자	-6268
▁혼란	-6269
▁황정	-6270
▁힘을	-6271
년대에	-6272
시간을	-6273
점이나	-6274
졌으면	-6275
종일관	-6276
최고다	-6277
하기는	-6278
▁2.2	-6279
▁같았다	-6280
▁개그맨	-6281
▁것인가	-6282
▁낫겠다	-6283
▁마시길	-6284
▁멋지게	-6285
▁명대사	-6286
▁뭐라고	-6287
▁부자연	-6288
▁시도는	-6289
▁싶어서	-6290
▁안본다	-6291
▁어디로	-6292
▁있었고	-6293
▁진지한	-6294
▁표현할	-6295
▁하다니	-6296
▁한번더	-6297
▁한순간	-6298
내용인지	-6299
▁감명깊게	-6300
▁개봉당시	-6301
▁꼭보세요	-6302
▁드라마다	-6303
▁시리즈의	-6304
▁아버지의	-6305
▁어설프다	-6306
▁엄청나게	-6307
▁연출력이	-6308
▁이영화의	-6309
▁홍콩영화	-6310
▁좋겠습니다	-6311
▁최악의영화	-6312
▁재미있었는데	-6313
BC	-6314
▁땐	-6315
▁습	-6316
▁핑	-6317
▁햇	-6318
감정	-6319
결국	-6320
드워	-6321
럽지	-6322
먹을	-6323
발이	-6324
분도	-6325
성한	-6326
시기	-6327
신도	-6328
씨도	-6329
예진	-6330
인에	-6331
잔인	-6332
주지	-6333
중국	-6334
케이	-6335
!!♥	-6336
▁격투	-6337
▁괜찬	-6338
▁끝을	-6339
▁넘넘	-6340
▁리암	-6341
▁말투	-6342
▁몰라	-6343
▁박신	-6344
▁부산	-6345
▁불과	-6346
▁소통	-6347
▁신고	-6348
▁심장	-6349
▁우디	-6350
▁이다	-6351
▁이별	-6352
▁이승	-6353
▁줄수	-6354
▁찾는	-6355
▁축구	-6356
▁향연	-6357
같아서	-6358
매이션	-6359
재밋게	-6360
지않다	-6361
크루즈	-6362
▁공포가	-6363
▁그리워	-6364
▁깔끔한	-6365
▁당신이	-6366
▁더빙이	-6367
▁말아야	-6368
▁보게되	-6369
▁수준을	-6370
▁스타뎀	-6371
▁아만다	-6372
▁역사에	-6373
▁영화일	-6374
▁왕조현	-6375
▁있으나	-6376
▁전개는	-6377
▁중학생	-6378
것같네요	-6379
주인공이	-6380
▁귀여워요	-6381
▁긴장감을	-6382
▁독특하고	-6383
▁배우들을	-6384
▁아이들의	-6385
▁어이없음	-6386
▁에로영화	-6387
▁연기력에	-6388
▁영화인줄	-6389
▁재미있을	-6390
▁전쟁영화	-6391
▁최고라고	-6392
▁최고최고	-6393
▁캐릭터도	-6394
▁다운받아서	-6395
▁디카프리오	-6396
▁마지막장면	-6397
▁소름끼치는	-6398
▁코미디영화	-6399
▁재밌게봤어요	-6400
????????	-6401
.!	-6402
am	-6403
ay	-6404
ig	-6405
▁닿	-6406
▁듬	-6407
▁섭	-6408
▁앨	-6409
▁을	-6410
▁폰	-6411
가의	-6412
경찰	-6413
구라	-6414
나간	-6415
녀석	-6416
답게	-6417
덕에	-6418
렸음	-6419
마리	-6420
발견	-6421
상태	-6422
스텔	-6423
에로	-6424
여기	-6425
으셨	-6426
이죠	-6427
이큰	-6428
잔잔	-6429
제를	-6430
지르	-6431
트릭	-6432
▁to	-6433
▁가수	-6434
▁가짜	-6435
▁건질	-6436
▁기획	-6437
▁나중	-6438
▁능가	-6439
▁더더	-6440
▁모욕	-6441
▁묘한	-6442
▁밝혀	-6443
▁삶과	-6444
▁실감	-6445
▁억울	-6446
▁엘리	-6447
▁왔다	-6448
▁왠만	-6449
▁원숭	-6450
▁일을	-6451
▁있긴	-6452
▁재수	-6453
▁졸업	-6454
▁킬러	-6455
▁하기	-6456
▁한가	-6457
▁한지	-6458
▁한효	-6459
▁호불	-6460
나이트	-6461
류영화	-6462
편에서	-6463
포인트	-6464
하기에	-6465
▁그려낸	-6466
▁다시금	-6467
▁말인가	-6468
▁미국식	-6469
▁보는거	-6470
▁비쥬얼	-6471
▁안맞는	-6472
▁영화지	-6473
▁오로지	-6474
▁잘한다	-6475
▁조금만	-6476
하나하나	-6477
▁기대하지	-6478
▁뒤죽박죽	-6479
▁만들어라	-6480
▁보고나니	-6481
▁시종일관	-6482
▁아기자기	-6483
▁알파치노	-6484
▁여러모로	-6485
▁영화라서	-6486
▁왔습니다	-6487
▁잼있네요	-6488
▁지루하기	-6489
▁타란티노	-6490
▁흘러가는	-6491
▁미스캐스팅	-6492
▁사랑스럽다	-6493
▁아이들에게	-6494
▁재미없네요	-6495
▁감동적이에요	-6496
▁걷	-6497
▁덴	-6498
▁족	-6499
▁핸	-6500
▁획	-6501
관을	-6502
랐다	-6503
로그	-6504
롭게	-6505
맞는	-6506
미의	-6507
비에	-6508
사고	-6509
새록	-6510
스틱	-6511
었냐	-6512
영의	-6513
예술	-6514
유발	-6515
정쩡	-6516
주행	-6517
차피	-6518
추어	-6519
켓몬	-6520
트는	-6521
티가	-6522
해져	-6523
허무	-6524
..2	-6525
▁갔다	-6526
▁긴박	-6527
▁나음	-6528
▁늑대	-6529
▁당장	-6530
▁말씀	-6531
▁미녀	-6532
▁베이	-6533
▁블루	-6534
▁수록	-6535
▁숨막	-6536
▁어딘	-6537
▁없었	-6538
▁연상	-6539
▁엽기	-6540
▁올레	-6541
▁우선	-6542
▁의상	-6543
▁자아	-6544
▁직업	-6545
▁차이	-6546
▁펼쳐	-6547
나보다	-6548
목소리	-6549
못하고	-6550
였다면	-6551
있으면	-6552
정도의	-6553
하기엔	-6554
...(	-6555
▁구성도	-6556
▁김수현	-6557
▁누군지	-6558
▁닥치고	-6559
▁도데체	-6560
▁되돌아	-6561
▁보아도	-6562
▁보여줄	-6563
▁보이지	-6564
▁브래드	-6565
▁상황을	-6566
▁생각만	-6567
▁어디에	-6568
▁역사상	-6569
▁이미지	-6570
▁줄이야	-6571
▁질질끌	-6572
▁키아누	-6573
▁페이크	-6574
▁표현이	-6575
▁하세요	-6576
▁현실은	-6577
▁흥미를	-6578
프로그램	-6579
▁고등학교	-6580
▁뭐하자는	-6581
▁바탕으로	-6582
▁보지마셈	-6583
▁산만하고	-6584
▁살아있는	-6585
▁삼류영화	-6586
▁세상에서	-6587
▁스타워즈	-6588
▁어이없다	-6589
▁오래전에	-6590
▁이야기의	-6591
▁장난하나	-6592
▁재미있어	-6593
▁충격적인	-6594
▁했습니다	-6595
▁형편없는	-6596
▁movie	-6597
▁사랑스럽고	-6598
▁억지스럽고	-6599
▁영화보다가	-6600
50	-6601
70	-6602
tt	-6603
▁ᄆ	-6604
▁벅	-6605
▁숀	-6606
▁쿨	-6607
가위	-6608
동근	-6609
됐다	-6610
드먼	-6611
때도	-6612
본색	-6613
비추	-6614
빼곤	-6615
안돼	-6616
원에	-6617
일러	-6618
일은	-6619
집어	-6620
테리	-6621
▁is	-6622
▁공유	-6623
▁국어	-6624
▁그가	-6625
▁극혐	-6626
▁나열	-6627
▁난리	-6628
▁났다	-6629
▁단체	-6630
▁대학	-6631
▁데스	-6632
▁드니	-6633
▁로망	-6634
▁마찬	-6635
▁말았	-6636
▁모른	-6637
▁모아	-6638
▁방해	-6639
▁볼까	-6640
▁부정	-6641
▁섬뜩	-6642
▁시켜	-6643
▁신인	-6644
▁애잔	-6645
▁원주	-6646
▁절정	-6647
▁조낸	-6648
그나마	-6649
기위해	-6650
돈주고	-6651
드네요	-6652
리는데	-6653
사람의	-6654
없는데	-6655
▁그럴싸	-6656
▁극장에	-6657
▁남는게	-6658
▁당신의	-6659
▁들어간	-6660
▁똑같이	-6661
▁미소가	-6662
▁박보영	-6663
▁박진감	-6664
▁별점이	-6665
▁부분은	-6666
▁섬세한	-6667
▁성룡의	-6668
▁아무튼	-6669
▁액션씬	-6670
▁에라이	-6671
▁역겹다	-6672
▁유덕화	-6673
▁좋으나	-6674
▁필요가	-6675
▁한다고	-6676
▁했으나	-6677
▁했을까	-6678
▁후하게	-6679
것같은데	-6680
드라마는	-6681
▁가족영화	-6682
▁기대이하	-6683
▁나머지는	-6684
▁뛰어넘는	-6685
▁모르겠네	-6686
▁별로였다	-6687
▁아까워서	-6688
▁울었어요	-6689
▁충격적이	-6690
▁캐릭터들	-6691
▁보고있는데	-6692
▁오글거리는	-6693
▁잘만들었다	-6694
▁좋아하지만	-6695
tv	-6696
▁둔	-6697
▁락	-6698
▁람	-6699
▁뻥	-6700
▁삐	-6701
▁얄	-6702
▁옴	-6703
▁컸	-6704
▁큐	-6705
▁털	-6706
각본	-6707
거의	-6708
기종	-6709
느냐	-6710
대에	-6711
때는	-6712
바라	-6713
보러	-6714
스카	-6715
시지	-6716
실히	-6717
심에	-6718
어떤	-6719
어스	-6720
의식	-6721
있냐	-6722
잡는	-6723
집에	-6724
할뻔	-6725
흥미	-6726
▁16	-6727
▁??	-6728
▁ᄌᄂ	-6729
▁고문	-6730
▁그로	-6731
▁극중	-6732
▁납득	-6733
▁떡밥	-6734
▁레옹	-6735
▁마냥	-6736
▁매번	-6737
▁민족	-6738
▁민주	-6739
▁바닥	-6740
▁방향	-6741
▁별거	-6742
▁비록	-6743
▁소유	-6744
▁쉬운	-6745
▁시험	-6746
▁앞서	-6747
▁에서	-6748
▁여신	-6749
▁우린	-6750
▁의사	-6751
▁전도	-6752
▁죽이	-6753
▁캐릭	-6754
▁평을	-6755
가면서	-6756
기영화	-6757
듯하다	-6758
아이가	-6759
안에서	-6760
옵니다	-6761
재밌고	-6762
죽이고	-6763
하자면	-6764
▁공포는	-6765
▁난해한	-6766
▁남자는	-6767
▁낮은지	-6768
▁넘어서	-6769
▁무섭게	-6770
▁비호감	-6771
▁생각은	-6772
▁손가락	-6773
▁안좋아	-6774
▁여자를	-6775
▁영화랑	-6776
▁의도는	-6777
▁이만한	-6778
▁이상은	-6779
▁인간들	-6780
▁장난치	-6781
▁재밌었	-6782
▁하기엔	-6783
▁하나는	-6784
▁했는지	-6785
▁다시보기	-6786
▁답답하다	-6787
▁두고두고	-6788
▁드라마로	-6789
▁몰입도도	-6790
▁유치찬란	-6791
▁정신병자	-6792
▁지루함을	-6793
▁캐스팅이	-6794
▁평점조절	-6795
▁행복하게	-6796
▁현실적이	-6797
아까운영화	-6798
▁뻔한스토리	-6799
▁엔딩크레딧	-6800
▁영화라지만	-6801
.8	-6802
im	-6803
▁덮	-6804
▁썰	-6805
▁옮	-6806
▁짤	-6807
▁팍	-6808
개를	-6809
구역	-6810
그저	-6811
께서	-6812
더군	-6813
미친	-6814
미화	-6815
믿고	-6816
바타	-6817
스레	-6818
시네	-6819
신기	-6820
아지	-6821
장에	-6822
저것	-6823
찬욱	-6824
채널	-6825
천원	-6826
추는	-6827
태현	-6828
판을	-6829
ost	-6830
▁걸까	-6831
▁끝날	-6832
▁니가	-6833
▁들이	-6834
▁미션	-6835
▁부부	-6836
▁브라	-6837
▁상태	-6838
▁스펙	-6839
▁스피	-6840
▁싸우	-6841
▁아카	-6842
▁연관	-6843
▁온갖	-6844
▁우왕	-6845
▁재방	-6846
▁재앙	-6847
▁좋지	-6848
▁지옥	-6849
▁판타	-6850
나오네	-6851
부터는	-6852
시청률	-6853
치고는	-6854
하시길	-6855
very	-6856
▁가족애	-6857
▁가족을	-6858
▁개꿀잼	-6859
▁관객이	-6860
▁대사도	-6861
▁들어서	-6862
▁만든거	-6863
▁만들수	-6864
▁못만들	-6865
▁무의미	-6866
▁살아야	-6867
▁속았다	-6868
▁아이유	-6869
▁안무섭	-6870
▁웃었다	-6871
▁웃음을	-6872
▁음악은	-6873
▁이끌어	-6874
▁잘생겼	-6875
▁잼있는	-6876
▁정신이	-6877
▁짱이다	-6878
▁티비로	-6879
▁해야지	-6880
만큼이나	-6881
우리나라	-6882
있었는데	-6883
졌습니다	-6884
▁!!!!	-6885
▁4.44	-6886
▁괜찮네요	-6887
▁괜찮았던	-6888
▁돌아보게	-6889
▁드라마도	-6890
▁못하겠다	-6891
▁별로네요	-6892
▁실망이다	-6893
▁싶습니다	-6894
▁쓰레기는	-6895
▁아니라면	-6896
▁아쉬워요	-6897
▁안나온다	-6898
▁어울리지	-6899
▁이거보단	-6900
▁제작비가	-6901
▁스파이더맨	-6902
▁자연스럽게	-6903
bc	-6904
▁록	-6905
▁멜	-6906
▁쏠	-6907
▁앙	-6908
극을	-6909
놈이	-6910
달라	-6911
도한	-6912
돈이	-6913
렸던	-6914
베이	-6915
시스	-6916
아리	-6917
어쩌	-6918
움과	-6919
위를	-6920
저냥	-6921
저런	-6922
지네	-6923
타쿠	-6924
표정	-6925
하늘	-6926
하실	-6927
▁과정	-6928
▁글고	-6929
▁나고	-6930
▁난무	-6931
▁넘치	-6932
▁담고	-6933
▁도와	-6934
▁방황	-6935
▁보석	-6936
▁비참	-6937
▁상큼	-6938
▁선정	-6939
▁수는	-6940
▁오지	-6941
▁오해	-6942
▁이지	-6943
▁인류	-6944
▁작화	-6945
▁좋앗	-6946
▁진수	-6947
▁쩔어	-6948
▁태국	-6949
▁흉내	-6950
그런데	-6951
리면서	-6952
보네요	-6953
부분은	-6954
얼마나	-6955
여자가	-6956
원에서	-6957
장면도	-6958
평점은	-6959
필버그	-6960
하길래	-6961
하지말	-6962
하하하	-6963
..!!	-6964
...!	-6965
▁가장한	-6966
▁관심이	-6967
▁느껴질	-6968
▁느끼고	-6969
▁만드네	-6970
▁명성에	-6971
▁명연기	-6972
▁보겠다	-6973
▁살리지	-6974
▁애초에	-6975
▁영상은	-6976
▁웃겼다	-6977
▁원하는	-6978
▁유치해	-6979
▁의미도	-6980
▁있었음	-6981
▁절대로	-6982
▁제목에	-6983
▁조잡한	-6984
▁충분한	-6985
▁피아노	-6986
▁하나가	-6987
▁한동안	-6988
▁한시간	-6989
더라고요	-6990
보지마라	-6991
스러웠다	-6992
▁스토리나	-6993
▁알려주는	-6994
▁이상하다	-6995
▁크리스찬	-6996
▁한심하다	-6997
▁점수준것들	-6998
▁감동적입니다	-6999
▁로맨틱코미디	-7000
cg	-7001
vs	-7002
▁ᄂ	-7003
▁ᄅ	-7004
▁갱	-7005
▁폼	-7006
▁힙	-7007
결혼	-7008
궁금	-7009
니스	-7010
동이	-7011
력에	-7012
망작	-7013
면이	-7014
모양	-7015
물에	-7016
미를	-7017
병맛	-7018
사도	-7019
승우	-7020
아들	-7021
약한	-7022
으려	-7023
자꾸	-7024
자도	-7025
장은	-7026
지섭	-7027
진행	-7028
질을	-7029
찾아	-7030
~10	-7031
ᄃᄃᄃ	-7032
▁17	-7033
▁길을	-7034
▁놀래	-7035
▁놓치	-7036
▁마법	-7037
▁막상	-7038
▁만났	-7039
▁말은	-7040
▁말해	-7041
▁맞나	-7042
▁멋짐	-7043
▁바이	-7044
▁별한	-7045
▁본격	-7046
▁불가	-7047
▁설경	-7048
▁안감	-7049
▁애틋	-7050
▁영구	-7051
▁조지	-7052
▁처절	-7053
▁하드	-7054
갔는데	-7055
결말이	-7056
고싶은	-7057
나라는	-7058
다는건	-7059
덕분에	-7060
라에몽	-7061
시키고	-7062
웠는데	-7063
점준것	-7064
학년때	-7065
▁괜찮았	-7066
▁그럴듯	-7067
▁기발한	-7068
▁나왔던	-7069
▁내취향	-7070
▁데이빗	-7071
▁뒤늦게	-7072
▁떨어뜨	-7073
▁멋있고	-7074
▁문제를	-7075
▁바라는	-7076
▁사회적	-7077
▁설정은	-7078
▁성인이	-7079
▁실망이	-7080
▁아무나	-7081
▁아이디	-7082
▁안나옴	-7083
▁안보면	-7084
▁얘기를	-7085
▁어정쩡	-7086
▁여기에	-7087
▁연기의	-7088
▁영화적	-7089
▁오리지	-7090
▁우려먹	-7091
▁이상해	-7092
▁주세요	-7093
▁풀어낸	-7094
▁해준다	-7095
너무너무	-7096
이런영화	-7097
...;;	-7098
▁느껴졌다	-7099
▁대박이다	-7100
▁미안하다	-7101
▁보게되는	-7102
▁부족하고	-7103
▁스토리로	-7104
▁시리즈를	-7105
▁쓰레기를	-7106
▁오랫동안	-7107
▁완벽하게	-7108
▁완벽하다	-7109
▁이거보다	-7110
▁좀비영화	-7111
▁처음본다	-7112
▁파워레인	-7113
▁보고싶은데	-7114
▁스토리전개	-7115
▁자연스러운	-7116
▁재밌었습니다	-7117
............	-7118
!?	-7119
id	-7120
▁♥	-7121
▁잉	-7122
▁찜	-7123
▁쾌	-7124
♡♥	-7125
가며	-7126
개념	-7127
광구	-7128
급도	-7129
기술	-7130
녀의	-7131
다리	-7132
돌려	-7133
러스	-7134
론의	-7135
르네	-7136
리한	-7137
만듬	-7138
명은	-7139
바닥	-7140
보던	-7141
브리	-7142
스코	-7143
았나	-7144
외로	-7145
을지	-7146
이었	-7147
인걸	-7148
진실	-7149
진창	-7150
충격	-7151
평을	-7152
호러	-7153
▁25	-7154
▁감이	-7155
▁꿈과	-7156
▁남성	-7157
▁니네	-7158
▁듣기	-7159
▁때가	-7160
▁때는	-7161
▁마블	-7162
▁먹칠	-7163
▁멋져	-7164
▁모니	-7165
▁모방	-7166
▁본능	-7167
▁봤고	-7168
▁부러	-7169
▁불법	-7170
▁빠순	-7171
▁빠질	-7172
▁상대	-7173
▁쉽지	-7174
▁실사	-7175
▁실수	-7176
▁열라	-7177
▁완젼	-7178
▁욕을	-7179
▁욕이	-7180
▁우는	-7181
▁음모	-7182
▁의한	-7183
▁의해	-7184
▁주온	-7185
▁지가	-7186
▁지극	-7187
▁지독	-7188
▁짬뽕	-7189
▁찬양	-7190
▁코스	-7191
▁클로	-7192
것보다	-7193
그런지	-7194
끝나고	-7195
나가는	-7196
느낌이	-7197
라는걸	-7198
없었다	-7199
엇어요	-7200
에다가	-7201
인지는	-7202
점대가	-7203
좋은데	-7204
판타지	-7205
하기가	-7206
▁bad	-7207
▁그런거	-7208
▁그림체	-7209
▁그이상	-7210
▁낮네요	-7211
▁눈으로	-7212
▁니들이	-7213
▁버렸다	-7214
▁살렸다	-7215
▁세련된	-7216
▁세월이	-7217
▁시간도	-7218
▁심하다	-7219
▁아이를	-7220
▁애니는	-7221
▁어수선	-7222
▁웃겨서	-7223
▁음악을	-7224
▁잘보고	-7225
▁크레딧	-7226
▁편하게	-7227
▁한석규	-7228
▁했어요	-7229
이라는게	-7230
▁감독에게	-7231
▁고등학생	-7232
▁런닝타임	-7233
▁만들어주	-7234
▁분위기는	-7235
▁아니잖아	-7236
▁않습니다	-7237
▁억지스런	-7238
▁이영화에	-7239
▁있겠지만	-7240
▁재난영화	-7241
▁제대로된	-7242
▁최고에요	-7243
애니메이션	-7244
▁주인공들이	-7245
▁현실적이고	-7246
ᄏᄏᄏᄏᄏᄏᄏᄏᄏ	-7247
▁벽	-7248
▁젖	-7249
가야	-7250
경을	-7251
계를	-7252
기나	-7253
내서	-7254
누라	-7255
랬다	-7256
리즘	-7257
못함	-7258
버츠	-7259
부에	-7260
속을	-7261
수작	-7262
승헌	-7263
시킬	-7264
알고	-7265
에휴	-7266
예쁘	-7267
은듯	-7268
이미	-7269
줘요	-7270
지에	-7271
크로	-7272
플린	-7273
형이	-7274
홧팅	-7275
▁강요	-7276
▁걸로	-7277
▁구조	-7278
▁굳굳	-7279
▁귀찮	-7280
▁극본	-7281
▁넘쳐	-7282
▁니들	-7283
▁되면	-7284
▁들게	-7285
▁미학	-7286
▁본것	-7287
▁비정	-7288
▁사과	-7289
▁생존	-7290
▁소소	-7291
▁시골	-7292
▁신세	-7293
▁신이	-7294
▁쓰러	-7295
▁역작	-7296
▁웃을	-7297
▁입장	-7298
▁있냐	-7299
▁잡아	-7300
▁정사	-7301
▁조차	-7302
▁주관	-7303
▁준비	-7304
▁짜리	-7305
▁쩌는	-7306
▁채워	-7307
▁틀림	-7308
▁팝콘	-7309
▁한거	-7310
▁호흡	-7311
는것도	-7312
분짜리	-7313
였네요	-7314
영화제	-7315
이었던	-7316
이후로	-7317
있다면	-7318
탈리아	-7319
하나요	-7320
****	-7321
▁가족과	-7322
▁감성을	-7323
▁과정이	-7324
▁나루토	-7325
▁멋져요	-7326
▁모습에	-7327
▁밋밋한	-7328
▁벗어나	-7329
▁상처를	-7330
▁상황이	-7331
▁심장이	-7332
▁안가는	-7333
▁않아요	-7334
▁알바가	-7335
▁에드워	-7336
▁연기로	-7337
▁이하도	-7338
▁인상적	-7339
▁죽음을	-7340
▁처음이	-7341
▁첨으로	-7342
▁초반엔	-7343
▁포켓몬	-7344
생각으로	-7345
스토리는	-7346
▁가슴아프	-7347
▁개인적인	-7348
▁그냥저냥	-7349
▁기대했던	-7350
▁긴장감과	-7351
▁나오네요	-7352
▁너무하네	-7353
▁니콜라스	-7354
▁드라마중	-7355
▁마찬가지	-7356
▁모든것이	-7357
▁아버지가	-7358
▁완성도가	-7359
▁입장에서	-7360
▁평론가들	-7361
▁호불호가	-7362
▁되었습니다	-7363
▁애니매이션	-7364
▁오그라드는	-7365
▁이렇게까지	-7366
▁말이필요없다	-7367
!~	-7368
et	-7369
ᅮᅲ	-7370
▁곤	-7371
▁똘	-7372
▁롤	-7373
▁뺏	-7374
▁쌓	-7375
▁짙	-7376
▁찔	-7377
감한	-7378
고한	-7379
데렐	-7380
되요	-7381
드립	-7382
릴때	-7383
맞고	-7384
받아	-7385
방식	-7386
보소	-7387
스틴	-7388
아의	-7389
어른	-7390
어를	-7391
옛날	-7392
을것	-7393
임이	-7394
철학	-7395
치다	-7396
프리	-7397
혜선	-7398
▁가만	-7399
▁가야	-7400
▁간단	-7401
▁감수	-7402
▁갖게	-7403
▁거다	-7404
▁경악	-7405
▁공룡	-7406
▁껐다	-7407
▁남의	-7408
▁누나	-7409
▁늙은	-7410
▁다름	-7411
▁대결	-7412
▁대역	-7413
▁도시	-7414
▁러셀	-7415
▁머야	-7416
▁면이	-7417
▁무식	-7418
▁반갑	-7419
▁부드	-7420
▁새록	-7421
▁새삼	-7422
▁신은	-7423
▁안좋	-7424
▁없던	-7425
▁연습	-7426
▁와서	-7427
▁으로	-7428
▁이나	-7429
▁적은	-7430
▁졸잼	-7431
▁차승	-7432
▁참여	-7433
▁초월	-7434
▁커버	-7435
▁커서	-7436
▁포함	-7437
▁피식	-7438
▁한글	-7439
▁허나	-7440
것같음	-7441
것인가	-7442
다는것	-7443
달라고	-7444
모르게	-7445
보인다	-7446
분정도	-7447
뻔했다	-7448
사람도	-7449
셨으면	-7450
아깝고	-7451
있을까	-7452
재밋음	-7453
주는데	-7454
지않아	-7455
해가는	-7456
회부터	-7457
▁감성이	-7458
▁거기다	-7459
▁게스트	-7460
▁군더더	-7461
▁나와야	-7462
▁느껴지	-7463
▁못했던	-7464
▁박찬욱	-7465
▁받아야	-7466
▁보이고	-7467
▁빨갱이	-7468
▁슈퍼맨	-7469
▁싶다면	-7470
▁안되네	-7471
▁안보는	-7472
▁안봐서	-7473
▁엔딩은	-7474
▁연기만	-7475
▁영화란	-7476
▁영화볼	-7477
▁왔는데	-7478
▁이딴게	-7479
▁이해도	-7480
▁적당한	-7481
▁정주행	-7482
▁책으로	-7483
▁테이큰	-7484
▁화끈한	-7485
▁흉내내	-7486
드라마를	-7487
재미있다	-7488
점주기도	-7489
▁2.22	-7490
▁걸작이다	-7491
▁귀여워서	-7492
▁기대된다	-7493
▁긴장감은	-7494
▁동화같은	-7495
▁마지막은	-7496
▁만들었냐	-7497
▁말하려는	-7498
▁몰입하게	-7499
▁시리즈가	-7500
▁심각하게	-7501
▁아이언맨	-7502
▁영상미도	-7503
▁영웅본색	-7504
▁우리에게	-7505
▁의미있는	-7506
▁이어지는	-7507
▁전편보다	-7508
▁주고싶다	-7509
▁캐릭터는	-7510
▁필요한가	-7511
▁후반부에	-7512
▁흥미롭게	-7513
▁강추합니다	-7514
▁다시봤는데	-7515
.?	-7516
il	-7517
▁ᄊ	-7518
▁곡	-7519
개의	-7520
거에	-7521
구를	-7522
답다	-7523
동화	-7524
들린	-7525
땜시	-7526
뜨고	-7527
래요	-7528
렸네	-7529
명한	-7530
미안	-7531
배는	-7532
버튼	-7533
복수	-7534
상한	-7535
소가	-7536
스란	-7537
심한	-7538
암튼	-7539
일에	-7540
자인	-7541
좀비	-7542
팬이	-7543
한편	-7544
혀서	-7545
혜교	-7546
▁1~	-7547
▁거듭	-7548
▁구경	-7549
▁권상	-7550
▁기적	-7551
▁김명	-7552
▁낭만	-7553
▁높지	-7554
▁당할	-7555
▁되서	-7556
▁레오	-7557
▁마니	-7558
▁많네	-7559
▁매주	-7560
▁머냐	-7561
▁물어	-7562
▁미쳐	-7563
▁반응	-7564
▁받았	-7565
▁보구	-7566
▁삶은	-7567
▁색채	-7568
▁성의	-7569
▁소년	-7570
▁소품	-7571
▁스토	-7572
▁싶음	-7573
▁아팠	-7574
▁안봄	-7575
▁앉아	-7576
▁여유	-7577
▁역겹	-7578
▁오페	-7579
▁용기	-7580
▁우승	-7581
▁유승	-7582
▁재탕	-7583
▁적이	-7584
▁죽어	-7585
▁최대	-7586
갑자기	-7587
것처럼	-7588
게다가	-7589
고싶어	-7590
긴장감	-7591
넘치는	-7592
던데요	-7593
라지만	-7594
소리는	-7595
시네요	-7596
시키지	-7597
아닌데	-7598
안된다	-7599
없지만	-7600
으세요	-7601
이들의	-7602
인영화	-7603
재미가	-7604
창시절	-7605
▁거기서	-7606
▁결국엔	-7607
▁결국은	-7608
▁기대한	-7609
▁노래는	-7610
▁느낀다	-7611
▁대사와	-7612
▁말밖에	-7613
▁말았다	-7614
▁무서움	-7615
▁믿기지	-7616
▁바란다	-7617
▁비해서	-7618
▁송승헌	-7619
▁시간과	-7620
▁시간은	-7621
▁심리묘	-7622
▁알바생	-7623
▁알수있	-7624
▁앞에서	-7625
▁액션의	-7626
▁어중간	-7627
▁어차피	-7628
▁없어도	-7629
▁웃다가	-7630
▁웃으며	-7631
▁이라는	-7632
▁일어나	-7633
▁작품에	-7634
▁장르를	-7635
▁재밋고	-7636
▁전개에	-7637
▁전라도	-7638
▁점에서	-7639
▁좋더라	-7640
▁진실을	-7641
▁총체적	-7642
▁추억을	-7643
없습니다	-7644
여주인공	-7645
하고싶은	-7646
▁느껴지지	-7647
▁빠져들게	-7648
▁어설프게	-7649
▁지금보면	-7650
▁진행되는	-7651
▁최고인듯	-7652
▁충분하다	-7653
▁캐스팅은	-7654
▁허접하고	-7655
보지마세요	-7656
하겠습니다	-7657
하셨습니다	-7658
▁만들었으면	-7659
▁아깝습니다	-7660
▁여주인공의	-7661
▁영화였는데	-7662
▁주인공들의	-7663
40	-7664
:)	-7665
▁석	-7666
▁찐	-7667
▁퀴	-7668
같네	-7669
귀신	-7670
년을	-7671
누가	-7672
돌이	-7673
두번	-7674
많고	-7675
멤버	-7676
스턴	-7677
영은	-7678
작은	-7679
저나	-7680
져야	-7681
판에	-7682
한텐	-7683
희는	-7684
▁고증	-7685
▁기법	-7686
▁됐다	-7687
▁로마	-7688
▁마녀	-7689
▁마다	-7690
▁말아	-7691
▁멘탈	-7692
▁모순	-7693
▁반도	-7694
▁백인	-7695
▁버무	-7696
▁번역	-7697
▁성형	-7698
▁센스	-7699
▁속이	-7700
▁손꼽	-7701
▁수사	-7702
▁시체	-7703
▁심한	-7704
▁아메	-7705
▁어땠	-7706
▁엉뚱	-7707
▁오직	-7708
▁올드	-7709
▁위트	-7710
▁유익	-7711
▁음향	-7712
▁일찍	-7713
▁재치	-7714
▁죽인	-7715
▁지저	-7716
▁찍는	-7717
▁추구	-7718
▁치료	-7719
▁커녕	-7720
▁텐데	-7721
▁파고	-7722
▁편의	-7723
▁픽션	-7724
▁하니	-7725
▁해외	-7726
▁했나	-7727
▁화질	-7728
나올때	-7729
너무잘	-7730
리지만	-7731
마르소	-7732
마저도	-7733
보려고	-7734
스포머	-7735
었다면	-7736
여배우	-7737
였구나	-7738
이거나	-7739
자들은	-7740
재밋다	-7741
줘야지	-7742
지루해	-7743
판으로	-7744
편까지	-7745
할수도	-7746
▁과장된	-7747
▁기억을	-7748
▁나머진	-7749
▁다니엘	-7750
▁매력적	-7751
▁명배우	-7752
▁모르겟	-7753
▁못따라	-7754
▁반지의	-7755
▁받았다	-7756
▁보고난	-7757
▁보낸다	-7758
▁본듯한	-7759
▁뻔하다	-7760
▁소리가	-7761
▁아놀드	-7762
▁아바타	-7763
▁아이고	-7764
▁애니를	-7765
▁액션만	-7766
▁여운도	-7767
▁예뻐서	-7768
▁원작은	-7769
▁이것은	-7770
▁일주일	-7771
▁잼없다	-7772
▁적나라	-7773
▁전율이	-7774
▁지극히	-7775
▁최악임	-7776
▁편인데	-7777
▁하하하	-7778
오랜만에	-7779
하지말고	-7780
할수있는	-7781
▁2015	-7782
▁감동이다	-7783
▁나오는거	-7784
▁내용전개	-7785
▁메세지를	-7786
▁불쌍해서	-7787
▁사랑한다	-7788
▁스릴러물	-7789
▁싶었는데	-7790
▁여자들이	-7791
▁영화같다	-7792
▁영화인것	-7793
▁이것보다	-7794
▁인물들의	-7795
▁잘하네요	-7796
▁초반에는	-7797
▁후반부로	-7798
줄알았는데	-7799
▁러닝타임이	-7800
▁아직까지도	-7801
▁킬링타임용으로도	-7802
_^	-7803
▁껏	-7804
▁맑	-7805
▁헉	-7806
간이	-7807
고도	-7808
공주	-7809
깊은	-7810
놀이	-7811
롭다	-7812
봤네	-7813
사라	-7814
센스	-7815
시켰	-7816
실패	-7817
알아	-7818
여러	-7819
율이	-7820
장센	-7821
제일	-7822
카메	-7823
코드	-7824
쾌한	-7825
편과	-7826
평생	-7827
폭력	-7828
하의	-7829
한가	-7830
할것	-7831
▁99	-7832
▁ᅲᅮ	-7833
▁고양	-7834
▁공연	-7835
▁공허	-7836
▁국산	-7837
▁끝남	-7838
▁끝판	-7839
▁나면	-7840
▁넣어	-7841
▁노무	-7842
▁대부	-7843
▁돼지	-7844
▁따스	-7845
▁딸이	-7846
▁마리	-7847
▁맞추	-7848
▁모양	-7849
▁본건	-7850
▁생명	-7851
▁안다	-7852
▁열광	-7853
▁옆에	-7854
▁오유	-7855
▁외면	-7856
▁욕심	-7857
▁웃는	-7858
▁위안	-7859
▁의견	-7860
▁이뻤	-7861
▁인권	-7862
▁자리	-7863
▁정석	-7864
▁졸리	-7865
▁지경	-7866
▁지키	-7867
▁커피	-7868
▁평론	-7869
▁한줄	-7870
▁한쿡	-7871
▁회상	-7872
것같아	-7873
것들이	-7874
더럽게	-7875
방에서	-7876
보기엔	-7877
샌들러	-7878
시대의	-7879
으면좋	-7880
잘만들	-7881
정도는	-7882
중간에	-7883
지부지	-7884
...1	-7885
▁간간히	-7886
▁꼭봐야	-7887
▁나올까	-7888
▁느낌도	-7889
▁다이하	-7890
▁무간도	-7891
▁보지도	-7892
▁비행기	-7893
▁설명이	-7894
▁소재만	-7895
▁손색이	-7896
▁시대가	-7897
▁아픔을	-7898
▁여자애	-7899
▁영향을	-7900
▁왕가위	-7901
▁유치원	-7902
▁의도를	-7903
▁제목은	-7904
▁한효주	-7905
었을텐데	-7906
재미없어	-7907
줄알았다	-7908
킬링타임	-7909
▁OOOO	-7910
▁감동적임	-7911
▁겨울왕국	-7912
▁기억난다	-7913
▁남아있는	-7914
▁다큐멘터	-7915
▁도라에몽	-7916
▁또보고싶	-7917
▁바라보는	-7918
▁스필버그	-7919
▁슬픈영화	-7920
▁야하지도	-7921
▁어디까지	-7922
▁엉망진창	-7923
▁여배우의	-7924
▁연기자들	-7925
▁영화들이	-7926
▁욕나온다	-7927
▁이따위로	-7928
▁이런것도	-7929
▁정말정말	-7930
▁좋아했던	-7931
▁처음이네	-7932
▁학창시절	-7933
▁훈훈하고	-7934
▁힘들었다	-7935
...-_-	-7936
▁감동입니다	-7937
▁소피마르소	-7938
▁이런식으로	-7939
▁인간적으로	-7940
▁있었습니다	-7941
▁감동적이었다	-7942
.(	-7943
▁닭	-7944
▁밴	-7945
▁셋	-7946
▁웹	-7947
▁혈	-7948
거워	-7949
겨운	-7950
구먼	-7951
듣고	-7952
등장	-7953
라곤	-7954
란한	-7955
랄한	-7956
러니	-7957
려도	-7958
멋진	-7959
비는	-7960
수정	-7961
숙한	-7962
순수	-7963
스펜	-7964
오고	-7965
올라	-7966
운데	-7967
원도	-7968
일때	-7969
잘못	-7970
잘생	-7971
전은	-7972
즈가	-7973
진의	-7974
천재	-7975
펙트	-7976
평이	-7977
할거	-7978
할줄	-7979
.""	-7980
▁각각	-7981
▁거야	-7982
▁것과	-7983
▁고작	-7984
▁공주	-7985
▁날아	-7986
▁남고	-7987
▁내고	-7988
▁눈요	-7989
▁눈치	-7990
▁될듯	-7991
▁들지	-7992
▁로멘	-7993
▁명확	-7994
▁목적	-7995
▁몰아	-7996
▁문득	-7997
▁미술	-7998
▁미야	-7999
▁박시	-8000
▁배드	-8001
▁배울	-8002
▁보신	-8003
▁봤나	-8004
▁브로	-8005
▁수십	-8006
▁순진	-8007
▁숨어	-8008
▁승부	-8009
▁심사	-8010
▁안녕	-8011
▁애가	-8012
▁없애	-8013
▁오인	-8014
▁의지	-8015
▁이중	-8016
▁일일	-8017
▁자위	-8018
▁잘안	-8019
▁적극	-8020
▁중의	-8021
▁지워	-8022
▁패션	-8023
▁한정	-8024
그래픽	-8025
러티브	-8026
마음이	-8027
사람을	-8028
씩이나	-8029
에대해	-8030
지말자	-8031
지않게	-8032
지않음	-8033
▁고인의	-8034
▁관람객	-8035
▁국어책	-8036
▁귀신이	-8037
▁김희선	-8038
▁내시간	-8039
▁달리는	-8040
▁답답해	-8041
▁당시엔	-8042
▁대학생	-8043
▁더러워	-8044
▁되어야	-8045
▁만화가	-8046
▁명작임	-8047
▁뭐랄까	-8048
▁믿을게	-8049
▁보고도	-8050
▁보는것	-8051
▁세상의	-8052
▁시대적	-8053
▁아련한	-8054
▁어쨌든	-8055
▁어쩌다	-8056
▁엄정화	-8057
▁영화찍	-8058
▁이딴거	-8059
▁있는가	-8060
▁자체도	-8061
▁장르의	-8062
▁재방송	-8063
▁주연의	-8064
▁줄리아	-8065
▁중학교	-8066
▁통해서	-8067
▁표정이	-8068
▁하지말	-8069
▁하지원	-8070
▁한계를	-8071
▁흠잡을	-8072
떨어지는	-8073
지루하다	-8074
..-_-	-8075
▁돈아까워	-8076
▁마무리가	-8077
▁미친듯이	-8078
▁보는동안	-8079
▁에드워드	-8080
▁연기력과	-8081
▁영상미와	-8082
▁영화제목	-8083
▁오글거림	-8084
▁오락영화	-8085
▁웬만하면	-8086
▁이기적인	-8087
▁일본에서	-8088
▁재미없을	-8089
▁재밋네요	-8090
▁줄거리가	-8091
▁지금이나	-8092
▁지루했음	-8093
▁드라마라고	-8094
▁우리나라의	-8095
▁재미없었음	-8096
▁좋아하시는	-8097
▁클레멘타인	-8098
▁ᄏᄏᄏᄏᄏᄏᄏᄏᄏ	-8099
.6	-8100
34	-8101
cn	-8102
▁숲	-8103
거죠	-8104
겠고	-8105
격이	-8106
구는	-8107
구리	-8108
기면	-8109
넘게	-8110
놈은	-8111
놈의	-8112
님을	-8113
다들	-8114
대기	-8115
두사	-8116
뒤에	-8117
려야	-8118
맞추	-8119
미도	-8120
시도	-8121
않고	-8122
였을	-8123
원래	-8124
자막	-8125
재현	-8126
저기	-8127
저는	-8128
정보	-8129
조아	-8130
죽여	-8131
줘도	-8132
지환	-8133
▁갖춘	-8134
▁것들	-8135
▁그에	-8136
▁꺼져	-8137
▁남긴	-8138
▁내세	-8139
▁농담	-8140
▁된장	-8141
▁따듯	-8142
▁마구	-8143
▁망설	-8144
▁모독	-8145
▁모호	-8146
▁못하	-8147
▁박정	-8148
▁박평	-8149
▁발음	-8150
▁봤지	-8151
▁부각	-8152
▁아아	-8153
▁연인	-8154
▁였다	-8155
▁예뻤	-8156
▁욕만	-8157
▁월드	-8158
▁이란	-8159
▁이순	-8160
▁잘해	-8161
▁정통	-8162
▁제왕	-8163
▁지상	-8164
▁찾기	-8165
▁출발	-8166
▁클리	-8167
▁피곤	-8168
▁핸드	-8169
▁향한	-8170
▁허탈	-8171
▁흥분	-8172
▁힙합	-8173
내용을	-8174
너무나	-8175
부분도	-8176
손가락	-8177
이들이	-8178
지라도	-8179
하고도	-8180
함으로	-8181
▁가치도	-8182
▁그들을	-8183
▁기가막	-8184
▁김민종	-8185
▁더욱더	-8186
▁돈으로	-8187
▁만화를	-8188
▁못해서	-8189
▁본적이	-8190
▁사투리	-8191
▁소리만	-8192
▁스페인	-8193
▁신세계	-8194
▁애들도	-8195
▁약하다	-8196
▁어디가	-8197
▁언젠가	-8198
▁엑스맨	-8199
▁우울한	-8200
▁이루어	-8201
▁일본인	-8202
▁전지현	-8203
▁중후반	-8204
▁첫번째	-8205
▁초중반	-8206
모르겠다	-8207
볼때마다	-8208
아름다운	-8209
영화에서	-8210
프라이즈	-8211
하는것도	-8212
▁다시보게	-8213
▁만든건지	-8214
▁만으로도	-8215
▁발연기에	-8216
▁분위기를	-8217
▁사람에게	-8218
▁식상하다	-8219
▁쓰레기가	-8220
▁쓰레기네	-8221
▁어이없고	-8222
▁여태까지	-8223
▁영화같은	-8224
▁이것저것	-8225
▁이따구로	-8226
▁잊지못할	-8227
▁진부하다	-8228
▁하지마라	-8229
▁환상적인	-8230
▁명작이라고	-8231
▁보고싶네요	-8232
▁트랜스포머	-8233
▁흥미진진한	-8234
!!!!!!!	-8235
ᄉᄇ	-8236
▁ᄃ	-8237
▁뚜	-8238
▁붉	-8239
▁뼈	-8240
▁쌈	-8241
▁쏴	-8242
▁측	-8243
▁컷	-8244
▁훔	-8245
가라	-8246
감에	-8247
곳이	-8248
급의	-8249
남아	-8250
남을	-8251
년간	-8252
더러	-8253
더스	-8254
말까	-8255
면을	-8256
문을	-8257
부모	-8258
뽕짝	-8259
성룡	-8260
실화	-8261
아냐	-8262
오로	-8263
왔던	-8264
인해	-8265
자식	-8266
주네	-8267
지원	-8268
지효	-8269
트라	-8270
특집	-8271
힘든	-8272
ttp	-8273
▁가라	-8274
▁개잼	-8275
▁고질	-8276
▁길다	-8277
▁깨끗	-8278
▁나을	-8279
▁낚인	-8280
▁남친	-8281
▁내일	-8282
▁덴젤	-8283
▁동감	-8284
▁되야	-8285
▁많음	-8286
▁몰락	-8287
▁반감	-8288
▁배가	-8289
▁법정	-8290
▁보일	-8291
▁본인	-8292
▁빠르	-8293
▁빨간	-8294
▁색깔	-8295
▁샤론	-8296
▁스킵	-8297
▁신화	-8298
▁애로	-8299
▁애절	-8300
▁어마	-8301
▁에릭	-8302
▁엠마	-8303
▁연주	-8304
▁인지	-8305
▁잘하	-8306
▁잼나	-8307
▁조아	-8308
▁줘도	-8309
▁지는	-8310
▁컬트	-8311
▁퇴보	-8312
같네요	-8313
깁니다	-8314
나저나	-8315
눈물이	-8316
니버스	-8317
말고는	-8318
볼수록	-8319
스러울	-8320
이란게	-8321
이해가	-8322
조차도	-8323
평점을	-8324
▁MBC	-8325
▁게임을	-8326
▁결과는	-8327
▁굿굿굿	-8328
▁그시절	-8329
▁기대안	-8330
▁남기는	-8331
▁더더욱	-8332
▁만드냐	-8333
▁만들다	-8334
▁못하네	-8335
▁미래를	-8336
▁미치는	-8337
▁빈약한	-8338
▁빠지게	-8339
▁사회의	-8340
▁손예진	-8341
▁슬펐다	-8342
▁신데렐	-8343
▁없으니	-8344
▁엑소시	-8345
▁연기한	-8346
▁오우삼	-8347
▁웃긴다	-8348
▁원작과	-8349
▁원주율	-8350
▁의문이	-8351
▁작가는	-8352
▁장동건	-8353
▁잼나요	-8354
▁최고인	-8355
▁카메론	-8356
▁터지는	-8357
▁평점왜	-8358
왔습니다	-8359
재밋어요	-8360
티비에서	-8361
하고싶다	-8362
▁드래곤볼	-8363
▁떠오르는	-8364
▁메세지가	-8365
▁새록새록	-8366
▁생각나게	-8367
▁싫어하는	-8368
▁아마추어	-8369
▁안나오고	-8370
▁안나오는	-8371
▁의미없는	-8372
▁이야기에	-8373
▁이탈리아	-8374
▁인생에서	-8375
▁잔인하고	-8376
▁지루함이	-8377
▁초반부터	-8378
▁추천한다	-8379
▁코미디는	-8380
▁톰크루즈	-8381
▁하고싶은	-8382
▁흐지부지	-8383
최고의영화	-8384
▁명작이네요	-8385
▁아쉬웠지만	-8386
▁이영화보고	-8387
▁재밌게봤는데	-8388
.9	-8389
ce	-8390
na	-8391
▁U	-8392
▁j	-8393
▁쉴	-8394
▁좆	-8395
▁콧	-8396
▁탕	-8397
개연	-8398
급이	-8399
꼬마	-8400
끄는	-8401
끝내	-8402
노출	-8403
니의	-8404
데요	-8405
동을	-8406
될듯	-8407
랑은	-8408
려진	-8409
문의	-8410
물은	-8411
번도	-8412
사한	-8413
삼류	-8414
서트	-8415
소장	-8416
신선	-8417
실력	-8418
써요	-8419
아침	-8420
양의	-8421
어마	-8422
어보	-8423
에이	-8424
오오	-8425
일단	-8426
잇다	-8427
전문	-8428
전체	-8429
중요	-8430
지우	-8431
진은	-8432
질때	-8433
차이	-8434
치만	-8435
통수	-8436
하이	-8437
해본	-8438
현준	-8439
://	-8440
com	-8441
▁in	-8442
▁ᄇᄉ	-8443
▁거장	-8444
▁괴수	-8445
▁구지	-8446
▁극찬	-8447
▁김선	-8448
▁깜놀	-8449
▁끝은	-8450
▁내리	-8451
▁노튼	-8452
▁단역	-8453
▁돈과	-8454
▁돈벌	-8455
▁돈은	-8456
▁드문	-8457
▁때의	-8458
▁람보	-8459
▁마틴	-8460
▁만날	-8461
▁만듬	-8462
▁만세	-8463
▁맞다	-8464
▁믿기	-8465
▁버릴	-8466
▁분장	-8467
▁사로	-8468
▁성적	-8469
▁쓰나	-8470
▁안겨	-8471
▁않네	-8472
▁에바	-8473
▁영광	-8474
▁완죤	-8475
▁유령	-8476
▁이를	-8477
▁인가	-8478
▁정준	-8479
▁존잼	-8480
▁쥐어	-8481
▁집단	-8482
▁카피	-8483
▁크다	-8484
▁환장	-8485
기보단	-8486
기종영	-8487
네이버	-8488
돈으로	-8489
드려요	-8490
만하고	-8491
보시길	-8492
봣어요	-8493
빼고는	-8494
새끼들	-8495
세상에	-8496
스트라	-8497
습니당	-8498
십니다	-8499
안되고	-8500
에서만	-8501
원주고	-8502
이니까	-8503
입니까	-8504
재밌는	-8505
집에서	-8506
특유의	-8507
하구만	-8508
하는듯	-8509
할게요	-8510
▁8.5	-8511
▁강하게	-8512
▁개봉을	-8513
▁굉장한	-8514
▁낚여서	-8515
▁남기고	-8516
▁남자를	-8517
▁높은지	-8518
▁다른건	-8519
▁대사는	-8520
▁도움이	-8521
▁떨어져	-8522
▁또봐도	-8523
▁뛰어나	-8524
▁만들기	-8525
▁문제는	-8526
▁미장센	-8527
▁배우와	-8528
▁보여줌	-8529
▁봤는지	-8530
▁봤다는	-8531
▁불륜을	-8532
▁사람과	-8533
▁설정과	-8534
▁아니네	-8535
▁아빠가	-8536
▁알아야	-8537
▁어설퍼	-8538
▁연출을	-8539
▁영화계	-8540
▁윌리스	-8541
▁의외의	-8542
▁이정재	-8543
▁재미만	-8544
▁정우성	-8545
▁짱짱맨	-8546
▁클래식	-8547
▁탁월한	-8548
▁특이한	-8549
▁편견을	-8550
▁평가를	-8551
▁한가지	-8552
▁한번씩	-8553
▁할말을	-8554
▁함부로	-8555
재미있음	-8556
하더라도	-8557
한마디로	-8558
할수없는	-8559
▁2003	-8560
▁best	-8561
▁군더더기	-8562
▁만들어야	-8563
▁많은것을	-8564
▁무슨말이	-8565
▁사람마다	-8566
▁생각했던	-8567
▁아깝다는	-8568
▁아니네요	-8569
▁아이들은	-8570
▁여배우가	-8571
▁영화내내	-8572
▁이상으로	-8573
▁인상깊게	-8574
▁재밋는데	-8575
▁지루함의	-8576
▁캐릭터의	-8577
점도아깝다	-8578
▁-_-;;	-8579
▁공포영화가	-8580
▁시간때우기	-8581
▁시나리오도	-8582
▁오글거려서	-8583
▁잔잔하지만	-8584
;;;;;;;;	-8585
.............	-8586
ch	-8587
ct	-8588
el	-8589
op	-8590
▁넓	-8591
▁닌	-8592
▁밉	-8593
▁뿜	-8594
▁얽	-8595
▁왓	-8596
▁탱	-8597
▁톱	-8598
▁핀	-8599
가게	-8600
그림	-8601
극의	-8602
금보	-8603
깝다	-8604
누구	-8605
닝맨	-8606
다코	-8607
대화	-8608
던거	-8609
두근	-8610
디가	-8611
래셔	-8612
려니	-8613
밑에	-8614
살에	-8615
상욱	-8616
서방	-8617
설마	-8618
스피	-8619
슬리	-8620
시라	-8621
심의	-8622
앞에	-8623
연의	-8624
유머	-8625
이형	-8626
자에	-8627
짓을	-8628
치기	-8629
케팅	-8630
타는	-8631
토퍼	-8632
파서	-8633
펭귄	-8634
필름	-8635
하죠	-8636
헷갈	-8637
화면	-8638
,..	-8639
~~!	-8640
▁가난	-8641
▁가을	-8642
▁간지	-8643
▁고소	-8644
▁그를	-8645
▁그와	-8646
▁그외	-8647
▁기록	-8648
▁김윤	-8649
▁끊임	-8650
▁노골	-8651
▁대가	-8652
▁돈만	-8653
▁드물	-8654
▁듣는	-8655
▁등록	-8656
▁멀쩡	-8657
▁무대	-8658
▁무색	-8659
▁번을	-8660
▁베트	-8661
▁사망	-8662
▁살리	-8663
▁상어	-8664
▁솔까	-8665
▁어케	-8666
▁에러	-8667
▁완성	-8668
▁우롱	-8669
▁이전	-8670
▁일관	-8671
▁장소	-8672
▁장혁	-8673
▁재현	-8674
▁종합	-8675
▁지하	-8676
▁징징	-8677
▁쯧쯧	-8678
▁참을	-8679
▁추가	-8680
▁코드	-8681
▁태권	-8682
▁하긴	-8683
▁학살	-8684
▁한대	-8685
▁한예	-8686
▁황금	-8687
감동도	-8688
거같아	-8689
년동안	-8690
는거냐	-8691
들어서	-8692
들이다	-8693
떨어진	-8694
러워서	-8695
렸는데	-8696
받아서	-8697
버리지	-8698
사에서	-8699
성으로	-8700
필요한	-8701
하지는	-8702
▁가까이	-8703
▁같지만	-8704
▁겉멋만	-8705
▁경의를	-8706
▁공포도	-8707
▁관심을	-8708
▁나오기	-8709
▁나와도	-8710
▁대사를	-8711
▁돈낭비	-8712
▁두시간	-8713
▁들어도	-8714
▁또라이	-8715
▁매력은	-8716
▁머리를	-8717
▁면에서	-8718
▁무섭지	-8719
▁별하나	-8720
▁보기싫	-8721
▁불쾌한	-8722
▁수면제	-8723
▁슬퍼요	-8724
▁심오한	-8725
▁싶으면	-8726
▁아쉬울	-8727
▁안좋은	-8728
▁알게된	-8729
▁엉터리	-8730
▁역사적	-8731
▁영화제	-8732
▁웃음과	-8733
▁윌리엄	-8734
▁일어날	-8735
▁있어도	-8736
▁작품의	-8737
▁잼없음	-8738
▁정확히	-8739
▁주제는	-8740
▁쥬라기	-8741
▁차태현	-8742
▁찬사를	-8743
▁최악이	-8744
▁최초의	-8745
▁충격이	-8746
▁평점도	-8747
▁표현해	-8748
▁하던가	-8749
▁하지마	-8750
▁현실감	-8751
▁현실에	-8752
▁힘들게	-8753
거같네요	-8754
영화네요	-8755
하기까지	-8756
▁2005	-8757
▁very	-8758
▁~~~~	-8759
▁가슴아픈	-8760
▁감성팔이	-8761
▁결말까지	-8762
▁과대평가	-8763
▁나오다니	-8764
▁답답해서	-8765
▁몰랐는데	-8766
▁볼만한데	-8767
▁슬프네요	-8768
▁쓰레기임	-8769
▁아니라서	-8770
▁어린아이	-8771
▁없었는데	-8772
▁영화감독	-8773
▁오글거리	-8774
▁인생영화	-8775
▁재미나게	-8776
▁재밌었고	-8777
▁졸작이다	-8778
▁주인공을	-8779
▁캐스팅도	-8780
▁퀄리티가	-8781
▁필요없음	-8782
▁필요하다	-8783
▁해주세요	-8784
잘봤습니다	-8785
▁드라마네요	-8786
▁스토리지만	-8787
▁안타깝네요	-8788
▁영화중에서	-8789
▁울었습니다	-8790
▁재미있어서	-8791
▁좋아하네요	-8792
▁지루하지않	-8793
▁개인적으로는	-8794
▁킬링타임용도	-8795
.7	-8796
14	-8797
▁ᄍ	-8798
▁멕	-8799
▁싹	-8800
▁싼	-8801
▁썸	-8802
▁즉	-8803
▁쫒	-8804
▁콤	-8805
▁툭	-8806
▁혜	-8807
감상	-8808
강에	-8809
공부	-8810
권택	-8811
그녀	-8812
그때	-8813
낫다	-8814
리로	-8815
리칸	-8816
봣다	-8817
부한	-8818
비아	-8819
요미	-8820
웃긴	-8821
일으	-8822
잇고	-8823
자키	-8824
전달	-8825
절로	-8826
주제	-8827
중한	-8828
진희	-8829
초딩	-8830
크의	-8831
하리	-8832
함만	-8833
ion	-8834
▁it	-8835
▁가해	-8836
▁간직	-8837
▁경계	-8838
▁관대	-8839
▁괴로	-8840
▁그는	-8841
▁날려	-8842
▁너희	-8843
▁놓은	-8844
▁머가	-8845
▁밀어	-8846
▁바꾼	-8847
▁보아	-8848
▁볼것	-8849
▁불행	-8850
▁상실	-8851
▁성경	-8852
▁성찰	-8853
▁아끼	-8854
▁어딜	-8855
▁얻어	-8856
▁엽문	-8857
▁유혹	-8858
▁이뻐	-8859
▁이자	-8860
▁임청	-8861
▁잠수	-8862
▁잡는	-8863
▁저게	-8864
▁저지	-8865
▁중년	-8866
▁지배	-8867
▁찍을	-8868
▁친일	-8869
▁퀴어	-8870
▁해요	-8871
▁홧팅	-8872
곳에서	-8873
뭡니까	-8874
앞에서	-8875
이유가	-8876
있다는	-8877
작가님	-8878
주의를	-8879
줄거리	-8880
짜증나	-8881
창있네	-8882
티비로	-8883
하더니	-8884
히어로	-8885
▁고마운	-8886
▁공감을	-8887
▁과거를	-8888
▁관객들	-8889
▁구혜선	-8890
▁글쎄요	-8891
▁기승전	-8892
▁끝판왕	-8893
▁남는건	-8894
▁당연한	-8895
▁데뷔작	-8896
▁되어서	-8897
▁따라가	-8898
▁떨어진	-8899
▁레이첼	-8900
▁마스터	-8901
▁모성애	-8902
▁무서울	-8903
▁뭔가가	-8904
▁분명히	-8905
▁사기꾼	-8906
▁사람만	-8907
▁상당한	-8908
▁소재에	-8909
▁스릴이	-8910
▁시원한	-8911
▁싶지만	-8912
▁않아도	-8913
▁어떠한	-8914
▁인물들	-8915
▁일본이	-8916
▁임창정	-8917
▁있나요	-8918
▁장면과	-8919
▁재밋는	-8920
▁재밌당	-8921
▁정당화	-8922
▁짐캐리	-8923
▁집중도	-8924
▁참고로	-8925
▁추천해	-8926
▁타이틀	-8927
▁통쾌한	-8928
▁2004	-8929
▁당시에는	-8930
▁대표적인	-8931
▁등장하는	-8932
▁만들었네	-8933
▁만화영화	-8934
▁말아먹은	-8935
▁메시지가	-8936
▁몇번이나	-8937
▁부끄러운	-8938
▁비교하면	-8939
▁사랑으로	-8940
▁상상력이	-8941
▁아니라는	-8942
▁아프리카	-8943
▁알겠지만	-8944
▁어렸을적	-8945
▁여기저기	-8946
▁원작소설	-8947
▁좋아하고	-8948
▁죽기전에	-8949
▁중반부터	-8950
▁코믹영화	-8951
▁한번쯤은	-8952
것같습니다	-8953
▁다세포소녀	-8954
▁다크나이트	-8955
▁볼만했는데	-8956
▁아름다웠다	-8957
▁영화라는게	-8958
▁일본영화는	-8959
▁처음이네요	-8960
▁애니메이션이	-8961
.^	-8962
><	-8963
ht	-8964
▁겹	-8965
▁꽉	-8966
▁떄	-8967
▁숭	-8968
▁엇	-8969
거는	-8970
걸작	-8971
군이	-8972
급을	-8973
기준	-8974
나무	-8975
나쁘	-8976
나타	-8977
났던	-8978
대전	-8979
리트	-8980
맹랑	-8981
뭔지	-8982
바리	-8983
보며	-8984
보셈	-8985
봤을	-8986
블루	-8987
상도	-8988
스도	-8989
어느	-8990
었죠	-8991
연애	-8992
영웅	-8993
예고	-8994
워라	-8995
저질	-8996
좋았	-8997
줘라	-8998
증을	-8999
쨋든	-9000
쳐도	-9001
치않	-9002
틀러	-9003
향이	-9004
형사	-9005
호의	-9006
.10	-9007
est	-9008
ove	-9009
▁감옥	-9010
▁강조	-9011
▁골때	-9012
▁교회	-9013
▁구분	-9014
▁까는	-9015
▁나참	-9016
▁난생	-9017
▁남발	-9018
▁납치	-9019
▁넘는	-9020
▁되나	-9021
▁똥을	-9022
▁몸을	-9023
▁못살	-9024
▁못주	-9025
▁발레	-9026
▁보셈	-9027
▁부디	-9028
▁비하	-9029
▁서서	-9030
▁예산	-9031
▁오오	-9032
▁요약	-9033
▁우아	-9034
▁일탈	-9035
▁잘살	-9036
▁잡고	-9037
▁저러	-9038
▁전락	-9039
▁절반	-9040
▁점은	-9041
▁접근	-9042
▁짐승	-9043
▁차마	-9044
▁창의	-9045
▁총격	-9046
▁총알	-9047
▁최하	-9048
▁출현	-9049
▁토끼	-9050
▁피라	-9051
▁하자	-9052
▁허구	-9053
▁홍진	-9054
▁휴먼	-9055
거라고	-9056
당하는	-9057
도없는	-9058
때부터	-9059
리다가	-9060
볼만한	-9061
빠지는	-9062
스란히	-9063
스에서	-9064
시대를	-9065
앞으로	-9066
에서나	-9067
에서야	-9068
였으나	-9069
을수도	-9070
장면을	-9071
저예산	-9072
편으로	-9073
하나로	-9074
할정도	-9075
했다가	-9076
▁300	-9077
▁7.5	-9078
▁가져다	-9079
▁개같은	-9080
▁공중파	-9081
▁끝난다	-9082
▁다큐를	-9083
▁대단히	-9084
▁대실망	-9085
▁더럽고	-9086
▁도중에	-9087
▁된다는	-9088
▁드림웍	-9089
▁똑바로	-9090
▁만나는	-9091
▁말이다	-9092
▁명성을	-9093
▁모르나	-9094
▁모자라	-9095
▁모티브	-9096
▁배경과	-9097
▁배경도	-9098
▁베드신	-9099
▁별기대	-9100
▁복수극	-9101
▁설정에	-9102
▁소지섭	-9103
▁송혜교	-9104
▁실패작	-9105
▁아닌지	-9106
▁안되나	-9107
▁않으면	-9108
▁엄마의	-9109
▁없구나	-9110
▁역할을	-9111
▁영화본	-9112
▁예쁘게	-9113
▁오인혜	-9114
▁외국인	-9115
▁울었던	-9116
▁원피스	-9117
▁있겠지	-9118
▁있으니	-9119
▁작품중	-9120
▁절제된	-9121
▁정도다	-9122
▁주제도	-9123
▁지나친	-9124
▁최대의	-9125
▁평점올	-9126
▁하던데	-9127
▁혼자서	-9128
▁훌륭함	-9129
▁흡입력	-9130
감동적이	-9131
기대하고	-9132
스럽네요	-9133
▁2013	-9134
▁남자라면	-9135
▁돋보인다	-9136
▁마음속에	-9137
▁먹먹하다	-9138
▁미스테리	-9139
▁보고싶어	-9140
▁분위기도	-9141
▁분위기에	-9142
▁슬프지만	-9143
▁아까워요	-9144
▁안타까움	-9145
▁안했는데	-9146
▁영상미는	-9147
▁예술영화	-9148
▁인종차별	-9149
▁정신나간	-9150
▁주연배우	-9151
▁철학적인	-9152
▁캐릭터와	-9153
▁고맙습니다	-9154
▁매력적이다	-9155
▁오글거리고	-9156
▁존경합니다	-9157
▁초등학교때	-9158
,,,,,,,,	-9159
ve	-9160
▁값	-9161
▁맷	-9162
▁밍	-9163
★★	-9164
가자	-9165
겨울	-9166
괴담	-9167
그게	-9168
글자	-9169
남주	-9170
달아	-9171
라지	-9172
마냥	-9173
매우	-9174
명화	-9175
못보	-9176
미니	-9177
민아	-9178
버전	-9179
별루	-9180
보라	-9181
볼까	-9182
상실	-9183
생이	-9184
슬퍼	-9185
신분	-9186
싱턴	-9187
어설	-9188
언이	-9189
여야	-9190
역을	-9191
완벽	-9192
왜곡	-9193
이번	-9194
입고	-9195
저링	-9196
졌네	-9197
책임	-9198
크가	-9199
터짐	-9200
통에	-9201
플렉	-9202
..;	-9203
▁bb	-9204
▁같네	-9205
▁거냐	-9206
▁고딩	-9207
▁그대	-9208
▁극한	-9209
▁김영	-9210
▁나니	-9211
▁나비	-9212
▁내놓	-9213
▁높네	-9214
▁뉴욕	-9215
▁느슨	-9216
▁때도	-9217
▁뚝뚝	-9218
▁맘이	-9219
▁매혹	-9220
▁몸이	-9221
▁믿는	-9222
▁믿지	-9223
▁백배	-9224
▁불면	-9225
▁비롯	-9226
▁비싼	-9227
▁비중	-9228
▁빠지	-9229
▁색감	-9230
▁시사	-9231
▁쓰지	-9232
▁어벤	-9233
▁없군	-9234
▁엉덩	-9235
▁예쁨	-9236
▁우스	-9237
▁웃게	-9238
▁이범	-9239
▁이영	-9240
▁이외	-9241
▁이태	-9242
▁일생	-9243
▁읽은	-9244
▁잘함	-9245
▁정리	-9246
▁정이	-9247
▁주먹	-9248
▁죽일	-9249
▁짧게	-9250
▁짱임	-9251
▁찍지	-9252
▁찾을	-9253
▁최후	-9254
▁쿵푸	-9255
▁크로	-9256
▁클린	-9257
▁틈이	-9258
▁파이	-9259
▁팍팍	-9260
▁할배	-9261
▁혁명	-9262
▁흐뭇	-9263
가는게	-9264
모습이	-9265
번이나	-9266
볼려고	-9267
부분에	-9268
슬프다	-9269
앗는데	-9270
으라고	-9271
음악도	-9272
이기에	-9273
이유는	-9274
이정도	-9275
인간의	-9276
일리언	-9277
재미는	-9278
졌지만	-9279
좋아서	-9280
하군요	-9281
하였다	-9282
한건가	-9283
▁???	-9284
▁The	-9285
▁갔는데	-9286
▁것들을	-9287
▁구성과	-9288
▁기대에	-9289
▁나은듯	-9290
▁넘어선	-9291
▁노래를	-9292
▁노력이	-9293
▁뜨거운	-9294
▁마음의	-9295
▁망쳐놓	-9296
▁머리에	-9297
▁못하겠	-9298
▁반전의	-9299
▁복잡한	-9300
▁부족함	-9301
▁사라진	-9302
▁사랑도	-9303
▁사실이	-9304
▁송지효	-9305
▁신경쓰	-9306
▁아닌것	-9307
▁아쉽고	-9308
▁아이와	-9309
▁아침에	-9310
▁않았음	-9311
▁알려준	-9312
▁애니가	-9313
▁액션에	-9314
▁어둡고	-9315
▁용두사	-9316
▁원숭이	-9317
▁이번에	-9318
▁이쁘게	-9319
▁이상함	-9320
▁이해못	-9321
▁이후에	-9322
▁자유를	-9323
▁전부다	-9324
▁전쟁을	-9325
▁전편의	-9326
▁즐겁고	-9327
▁취향이	-9328
▁코드가	-9329
▁팀버튼	-9330
▁행복을	-9331
▁흐름이	-9332
되는영화	-9333
렸습니다	-9334
보고나서	-9335
영화지만	-9336
을정도로	-9337
▁다음으로	-9338
▁다이하드	-9339
▁되었는데	-9340
▁멋진영화	-9341
▁메시지를	-9342
▁멜로영화	-9343
▁미야자키	-9344
▁받아들이	-9345
▁볼만해요	-9346
▁부분에서	-9347
▁아이러니	-9348
▁예고편만	-9349
▁인간적인	-9350
▁작품이라	-9351
▁재밌게본	-9352
▁중학교때	-9353
▁지루하네	-9354
▁힘내세요	-9355
▁뮤직비디오	-9356
▁보고싶어요	-9357
▁사실적으로	-9358
▁영화에서는	-9359
▁지루하기만	-9360
▁현실적으로	-9361
▁너무재밌어요	-9362
▁잔잔하면서도	-9363
▁최고였습니다	-9364
▁ᅩ	-9365
▁♡	-9366
▁갇	-9367
▁곁	-9368
▁덧	-9369
▁롱	-9370
▁묶	-9371
▁빚	-9372
▁켄	-9373
▁훌	-9374
가진	-9375
거림	-9376
겠냐	-9377
국의	-9378
국이	-9379
군의	-9380
남길	-9381
내려	-9382
누군	-9383
눈이	-9384
도와	-9385
들리	-9386
등등	-9387
때가	-9388
라나	-9389
라를	-9390
라마	-9391
러움	-9392
리타	-9393
마는	-9394
맛이	-9395
박이	-9396
보길	-9397
봤지	-9398
부턴	-9399
불륜	-9400
서린	-9401
세이	-9402
수고	-9403
시죠	-9404
씨를	-9405
아버	-9406
았어	-9407
역의	-9408
열자	-9409
음에	-9410
점짜	-9411
중독	-9412
챙겨	-9413
추고	-9414
틈이	-9415
피아	-9416
해석	-9417
효진	-9418
▁28	-9419
▁98	-9420
▁가상	-9421
▁강호	-9422
▁같지	-9423
▁곱씹	-9424
▁구멍	-9425
▁구역	-9426
▁군인	-9427
▁글로	-9428
▁기념	-9429
▁김강	-9430
▁냉정	-9431
▁단언	-9432
▁도입	-9433
▁돈도	-9434
▁또는	-9435
▁무관	-9436
▁미니	-9437
▁미키	-9438
▁발상	-9439
▁버전	-9440
▁변호	-9441
▁분이	-9442
▁빠짐	-9443
▁뻔뻔	-9444
▁뻔히	-9445
▁섞어	-9446
▁속은	-9447
▁신념	-9448
▁심히	-9449
▁십점	-9450
▁싶었	-9451
▁어떻	-9452
▁여왕	-9453
▁열자	-9454
▁예뻐	-9455
▁운명	-9456
▁은은	-9457
▁은퇴	-9458
▁의학	-9459
▁이겨	-9460
▁이혼	-9461
▁임신	-9462
▁장미	-9463
▁저거	-9464
▁조심	-9465
▁조정	-9466
▁조조	-9467
▁죽기	-9468
▁증명	-9469
▁지적	-9470
▁짱이	-9471
▁쪽팔	-9472
▁찜찜	-9473
▁차별	-9474
▁찰리	-9475
▁추락	-9476
▁타락	-9477
▁티가	-9478
▁하셨	-9479
▁헷갈	-9480
▁활용	-9481
▁히로	-9482
거에요	-9483
겠는가	-9484
그런가	-9485
그렇고	-9486
기억에	-9487
냅니다	-9488
됐는데	-9489
라노말	-9490
멋대로	-9491
발이고	-9492
봤으면	-9493
아깝네	-9494
어머니	-9495
없다고	-9496
지루한	-9497
편인데	-9498
한건지	-9499
해졌다	-9500
..."	-9501
ᅮᅮᅮᅮ	-9502
▁,,,	-9503
▁198	-9504
▁강동원	-9505
▁검색해	-9506
▁결말에	-9507
▁구성은	-9508
▁그들은	-9509
▁기대도	-9510
▁나왔음	-9511
▁낚였네	-9512
▁넘어가	-9513
▁무엇이	-9514
▁뭔가요	-9515
▁범인이	-9516
▁별루다	-9517
▁별점을	-9518
▁부럽다	-9519
▁부분을	-9520
▁불후의	-9521
▁산만한	-9522
▁성우가	-9523
▁솔직한	-9524
▁신세경	-9525
▁심리를	-9526
▁안되서	-9527
▁액션물	-9528
▁양동근	-9529
▁엄마랑	-9530
▁없는듯	-9531
▁없었고	-9532
▁에로물	-9533
▁웃음만	-9534
▁유지태	-9535
▁이스트	-9536
▁이유로	-9537
▁인물의	-9538
▁인터뷰	-9539
▁일베충	-9540
▁임권택	-9541
▁장면만	-9542
▁제목과	-9543
▁주상욱	-9544
▁주제에	-9545
▁채널돌	-9546
▁충격을	-9547
▁클리셰	-9548
▁태어난	-9549
▁한숨만	-9550
▁흑역사	-9551
기만하고	-9552
다시봐도	-9553
배속으로	-9554
이영화는	-9555
장면에서	-9556
점대라니	-9557
점정도가	-9558
할정도로	-9559
▁감독님의	-9560
▁강력추천	-9561
▁고스란히	-9562
▁그럼에도	-9563
▁그지같은	-9564
▁나온다고	-9565
▁너무좋아	-9566
▁막장으로	-9567
▁만들려고	-9568
▁모르겟다	-9569
▁보이지만	-9570
▁봐야한다	-9571
▁아카데미	-9572
▁알게해준	-9573
▁어린이용	-9574
▁없었으면	-9575
▁연기까지	-9576
▁영화계의	-9577
▁영화들은	-9578
▁영화라면	-9579
▁예고편이	-9580
▁움직이는	-9581
▁이야기도	-9582
▁이정도로	-9583
▁잃어버린	-9584
▁자본주의	-9585
▁잘생기고	-9586
▁재미있네	-9587
▁좋아하지	-9588
▁좋아해요	-9589
▁중간부터	-9590
▁허무하게	-9591
▁흥미롭고	-9592
▁것만으로도	-9593
▁공포영화는	-9594
▁서프라이즈	-9595
▁어이없어서	-9596
▁재미있다고	-9597
▁재미있었고	-9598
▁좋아한다면	-9599
▁......	-9600
▁ᄏᄏᄏᄏᄏᄏᄏᄏᄏᄏᄏ	-9601
60	-9602
dd	-9603
if	-9604
▁낸	-9605
▁넋	-9606
▁놔	-9607
▁델	-9608
▁뚫	-9609
▁뚱	-9610
▁며	-9611
▁멸	-9612
▁빗	-9613
▁셀	-9614
▁칸	-9615
▁캠	-9616
▁캡	-9617
▁홈	-9618
가니	-9619
간지	-9620
그의	-9621
내기	-9622
능한	-9623
달까	-9624
대도	-9625
덜덜	-9626
데로	-9627
맞은	-9628
맹이	-9629
먼저	-9630
미래	-9631
부러	-9632
비홍	-9633
빨고	-9634
수로	-9635
스티	-9636
스페	-9637
시를	-9638
어는	-9639
유쾌	-9640
이긴	-9641
이젠	-9642
일세	-9643
재가	-9644
치면	-9645
카이	-9646
홍보	-9647
흐름	-9648
!^^	-9649
200	-9650
hat	-9651
ore	-9652
▁1,	-9653
▁가관	-9654
▁경우	-9655
▁경제	-9656
▁고찰	-9657
▁국제	-9658
▁권력	-9659
▁기차	-9660
▁김재	-9661
▁김현	-9662
▁나누	-9663
▁나뿐	-9664
▁나아	-9665
▁넘은	-9666
▁노동	-9667
▁논리	-9668
▁닥터	-9669
▁달고	-9670
▁덕에	-9671
▁도통	-9672
▁되도	-9673
▁두말	-9674
▁들여	-9675
▁똑똑	-9676
▁말라	-9677
▁멀리	-9678
▁모야	-9679
▁물건	-9680
▁물고	-9681
▁물씬	-9682
▁박해	-9683
▁보소	-9684
▁복선	-9685
▁싸울	-9686
▁쏘우	-9687
▁쓰렉	-9688
▁안남	-9689
▁알렉	-9690
▁알지	-9691
▁어떡	-9692
▁에너	-9693
▁여튼	-9694
▁우익	-9695
▁운동	-9696
▁웹툰	-9697
▁위에	-9698
▁이경	-9699
▁이완	-9700
▁읽는	-9701
▁저주	-9702
▁정화	-9703
▁존내	-9704
▁주목	-9705
▁증말	-9706
▁천만	-9707
▁캐리	-9708
▁큐브	-9709
▁특징	-9710
▁퍼즐	-9711
▁펭귄	-9712
▁푸른	-9713
▁하던	-9714
▁한개	-9715
는거다	-9716
당하고	-9717
들보다	-9718
로서의	-9719
모습을	-9720
봤다가	-9721
성탈출	-9722
아쉽다	-9723
아이돌	-9724
안타까	-9725
에게도	-9726
연기잘	-9727
영화냐	-9728
왔으면	-9729
웃기고	-9730
음악이	-9731
파서블	-9732
편부터	-9733
한것도	-9734
할려고	-9735
합시다	-9736
해야할	-9737
했더니	-9738
0000	-9739
▁ebs	-9740
▁~~~	-9741
▁가끔씩	-9742
▁가치를	-9743
▁감흥이	-9744
▁강지환	-9745
▁개소리	-9746
▁개인의	-9747
▁그만좀	-9748
▁기억도	-9749
▁꿈꾸는	-9750
▁나가는	-9751
▁나름의	-9752
▁낚이지	-9753
▁누구도	-9754
▁더럽다	-9755
▁돌아오	-9756
▁많지만	-9757
▁말하면	-9758
▁말할수	-9759
▁먹먹한	-9760
▁받아서	-9761
▁베트남	-9762
▁비교가	-9763
▁뻔해서	-9764
▁상상을	-9765
▁상영관	-9766
▁서스펜	-9767
▁선택한	-9768
▁수준은	-9769
▁아니냐	-9770
▁얘기가	-9771
▁이상을	-9772
▁일요일	-9773
▁있는듯	-9774
▁장난감	-9775
▁전작의	-9776
▁정신을	-9777
▁정신차	-9778
▁조용히	-9779
▁죽는다	-9780
▁차이가	-9781
▁초능력	-9782
▁초반부	-9783
▁취향은	-9784
▁클라이	-9785
▁태어나	-9786
▁풀어나	-9787
▁하려는	-9788
▁할수있	-9789
▁현실의	-9790
▁후회함	-9791
남기는데	-9792
부분에서	-9793
스러워서	-9794
시간낭비	-9795
영화였다	-9796
재미없는	-9797
적이지만	-9798
좋았어요	-9799
하겠지만	-9800
▁관객에게	-9801
▁그런영화	-9802
▁깔끔하고	-9803
▁너무한다	-9804
▁다른영화	-9805
▁때문이다	-9806
▁말았어야	-9807
▁말해주는	-9808
▁무서워서	-9809
▁배우분들	-9810
▁보고있는	-9811
▁사람들도	-9812
▁스릴러가	-9813
▁스릴러를	-9814
▁신데렐라	-9815
▁않았으면	-9816
▁알았더니	-9817
▁어마어마	-9818
▁어우러진	-9819
▁여배우들	-9820
▁이연걸의	-9821
▁이해가안	-9822
▁지났지만	-9823
▁지들끼리	-9824
▁짜증나네	-9825
▁최고라는	-9826
▁코미디가	-9827
▁허무맹랑	-9828
▁허술하고	-9829
▁허접하다	-9830
▁훌륭하고	-9831
▁히어로물	-9832
▁감동도없고	-9833
▁감동적으로	-9834
▁보고있어요	-9835
▁생각나네요	-9836
▁시간아까워	-9837
▁시나리오를	-9838
▁영화자체는	-9839
▁일깨워주는	-9840
▁재미있었던	-9841
▁지금까지도	-9842
▁지루했어요	-9843
▁최고였어요	-9844
!!!!!!!!!	-9845
->	-9846
▁규	-9847
▁긍	-9848
▁깝	-9849
▁몫	-9850
▁쏙	-9851
겟네	-9852
겠나	-9853
과정	-9854
구석	-9855
국민	-9856
까봐	-9857
꺼다	-9858
날이	-9859
남은	-9860
녀가	-9861
높아	-9862
대중	-9863
도다	-9864
디션	-9865
러브	-9866
마트	-9867
많다	-9868
맞춘	-9869
바다	-9870
바른	-9871
볼일	-9872
블랙	-9873
비스	-9874
사나	-9875
쓴다	-9876
아닐	-9877
안의	-9878
엿다	-9879
예능	-9880
우니	-9881
위로	-9882
일라	-9883
작에	-9884
점만	-9885
질수	-9886
체를	-9887
쳤던	-9888
트리	-9889
판은	-9890
하단	-9891
희씨	-9892
.."	-9893
..,	-9894
▁ᄅᄋ	-9895
▁간첩	-9896
▁건데	-9897
▁기쁨	-9898
▁길고	-9899
▁다케	-9900
▁더럽	-9901
▁데려	-9902
▁딱딱	-9903
▁마을	-9904
▁멈추	-9905
▁멘붕	-9906
▁모여	-9907
▁밀라	-9908
▁배려	-9909
▁보진	-9910
▁부를	-9911
▁삼가	-9912
▁삽입	-9913
▁생략	-9914
▁속도	-9915
▁수백	-9916
▁식스	-9917
▁씨네	-9918
▁안봐	-9919
▁역쉬	-9920
▁열린	-9921
▁옛다	-9922
▁온몸	-9923
▁우습	-9924
▁원표	-9925
▁인데	-9926
▁재료	-9927
▁잼씀	-9928
▁저희	-9929
▁주옥	-9930
▁쩌네	-9931
▁찾고	-9932
▁철저	-9933
▁초기	-9934
▁치는	-9935
감동이	-9936
거든요	-9937
거리고	-9938
그것도	-9939
그자체	-9940
급으로	-9941
기보다	-9942
는거임	-9943
로맨스	-9944
마음에	-9945
만든다	-9946
맞추기	-9947
머니즘	-9948
버린다	-9949
볼수있	-9950
수준의	-9951
아줌마	-9952
액션이	-9953
었어도	-9954
으려는	-9955
이나오	-9956
있었던	-9957
진정한	-9958
하는가	-9959
하라는	-9960
하잖아	-9961
▁ocn	-9962
▁과정을	-9963
▁괜찮네	-9964
▁권상우	-9965
▁그때의	-9966
▁그레이	-9967
▁기대는	-9968
▁기억될	-9969
▁기회가	-9970
▁김혜수	-9971
▁나온거	-9972
▁돈아까	-9973
▁드니로	-9974
▁따뜻해	-9975
▁만화는	-9976
▁매트릭	-9977
▁모자란	-9978
▁방법이	-9979
▁배우만	-9980
▁보느니	-9981
▁보는듯	-9982
▁복수를	-9983
▁봐줄만	-9984
▁부르는	-9985
▁새롭게	-9986
▁설경구	-9987
▁세계관	-9988
▁스티브	-9989
▁아동용	-9990
▁않았고	-9991
▁오늘도	-9992
▁오로라	-9993
▁요소를	-9994
▁웃겼음	-9995
▁잘표현	-9996
▁재밌지	-9997
▁재발견	-9998
▁저절로	-9999
▁전세계	-10000
▁조금씩	-10001
▁죽을때	-10002
▁죽인다	-10003
▁징그러	-10004
▁청춘의	-10005
▁치고는	-10006
▁컨저링	-10007
▁클린트	-10008
▁하고싶	-10009
▁하는건	-10010
▁하이킥	-10011
▁한건지	-10012
▁희망이	-10013
긴했지만	-10014
들에게는	-10015
하는건지	-10016
...!!	-10017
▁http	-10018
▁공감가는	-10019
▁기대되는	-10020
▁내러티브	-10021
▁대사들이	-10022
▁돈아깝다	-10023
▁만들어졌	-10024
▁무언가를	-10025
▁미스터리	-10026
▁별로였음	-10027
▁별한개도	-10028
▁보기에도	-10029
▁보냅니다	-10030
▁불러일으	-10031
▁빠져드는	-10032
▁생각해서	-10033
▁스케일이	-10034
▁시선으로	-10035
▁아닌가요	-10036
▁안되는데	-10037
▁어른들이	-10038
▁어쩌라고	-10039
▁없는영화	-10040
▁오리지널	-10041
▁우리들의	-10042
▁인디아나	-10043
▁장난아니	-10044
▁조기종영	-10045
▁진짜진짜	-10046
▁해도해도	-10047
▁현실성이	-10048
▁화려하고	-10049
보았습니다	-10050
영화관에서	-10051
...;;;	-10052
▁기대됩니다	-10053
▁모르겠는데	-10054
▁비현실적인	-10055
▁시나리오에	-10056
▁파워레인저	-10057
▁만들어주세요	-10058
ᄏᄏᄏᄏᄏᄏᄏᄏᄏᄏ	-10059
13	-10060
ne	-10061
og	-10062
▁Y	-10063
▁]	-10064
▁`	-10065
▁ᅵ	-10066
▁꾹	-10067
▁끓	-10068
▁훼	-10069
개로	-10070
거니	-10071
것다	-10072
고은	-10073
관련	-10074
교육	-10075
근석	-10076
금을	-10077
나만	-10078
나왓	-10079
놨다	-10080
드네	-10081
드러	-10082
드문	-10083
론이	-10084
롯데	-10085
리쉬	-10086
만세	-10087
몰랐	-10088
무니	-10089
미녀	-10090
바가	-10091
보임	-10092
본거	-10093
본게	-10094
부림	-10095
부탁	-10096
뿐만	-10097
사극	-10098
선수	-10099
성공	-10100
소를	-10101
아마	-10102
엉성	-10103
영씨	-10104
우면	-10105
월드	-10106
을뿐	-10107
이한	-10108
잼있	-10109
전히	-10110
점점	-10111
정서	-10112
조위	-10113
타령	-10114
틱한	-10115
해줄	-10116
화는	-10117
회의	-10118
훨씬	-10119
히게	-10120
OST	-10121
ᄍᄍᄍ	-10122
▁sh	-10123
▁거울	-10124
▁거창	-10125
▁검은	-10126
▁계획	-10127
▁고발	-10128
▁공존	-10129
▁구라	-10130
▁김소	-10131
▁김정	-10132
▁꺼내	-10133
▁날라	-10134
▁낮음	-10135
▁노예	-10136
▁놈들	-10137
▁높이	-10138
▁눈과	-10139
▁다리	-10140
▁당최	-10141
▁동료	-10142
▁될수	-10143
▁두명	-10144
▁로보	-10145
▁마초	-10146
▁말만	-10147
▁말에	-10148
▁맛깔	-10149
▁맞춘	-10150
▁몇개	-10151
▁무얼	-10152
▁묻혀	-10153
▁믿어	-10154
▁변신	-10155
▁부조	-10156
▁불친	-10157
▁빅뱅	-10158
▁빛이	-10159
▁빼앗	-10160
▁뿐만	-10161
▁사토	-10162
▁생기	-10163
▁섭외	-10164
▁스무	-10165
▁스콧	-10166
▁악플	-10167
▁약한	-10168
▁엉엉	-10169
▁예매	-10170
▁예의	-10171
▁울게	-10172
▁울어	-10173
▁웃길	-10174
▁이라	-10175
▁이재	-10176
▁잃고	-10177
▁저기	-10178
▁저렴	-10179
▁저리	-10180
▁정재	-10181
▁종영	-10182
▁증거	-10183
▁차분	-10184
▁창조	-10185
▁총을	-10186
▁충무	-10187
▁토니	-10188
▁패턴	-10189
▁하냐	-10190
▁한테	-10191
▁향해	-10192
▁호소	-10193
가는데	-10194
가슴이	-10195
같은거	-10196
기라도	-10197
놈들은	-10198
놈들이	-10199
느와르	-10200
랬는데	-10201
로서는	-10202
만큼의	-10203
모르는	-10204
별로다	-10205
봤더니	-10206
분위기	-10207
수준이	-10208
영화네	-10209
오르는	-10210
위원회	-10211
이쁘고	-10212
인으로	-10213
하구나	-10214
하느라	-10215
하려면	-10216
해놓고	-10217
했어도	-10218
▁KBS	-10219
▁각자의	-10220
▁강아지	-10221
▁겁니다	-10222
▁괜찮아	-10223
▁구역질	-10224
▁깜짝놀	-10225
▁남긴다	-10226
▁남았다	-10227
▁남주가	-10228
▁느리고	-10229
▁더빙은	-10230
▁던지는	-10231
▁됐는데	-10232
▁리뷰를	-10233
▁만점을	-10234
▁많네요	-10235
▁많았던	-10236
▁묘하게	-10237
▁무서웠	-10238
▁별로인	-10239
▁봤었다	-10240
▁비정상	-10241
▁사라져	-10242
▁생각한	-10243
▁성룡이	-10244
▁세상은	-10245
▁속아서	-10246
▁수작이	-10247
▁슬래셔	-10248
▁시절의	-10249
▁신나게	-10250
▁아니죠	-10251
▁아프고	-10252
▁않는데	-10253
▁어찌나	-10254
▁열정이	-10255
▁영화판	-10256
▁오타쿠	-10257
▁와닿는	-10258
▁왜이런	-10259
▁웃어야	-10260
▁유머가	-10261
▁이거는	-10262
▁이건좀	-10263
▁이번엔	-10264
▁이상도	-10265
▁인물이	-10266
▁있는게	-10267
▁자세히	-10268
▁잘하네	-10269
▁잘해서	-10270
▁장나라	-10271
▁장면의	-10272
▁재평가	-10273
▁저급한	-10274
▁적절히	-10275
▁전성기	-10276
▁전작에	-10277
▁졸면서	-10278
▁지금껏	-10279
▁지나서	-10280
▁채플린	-10281
▁처음임	-10282
▁철학적	-10283
▁케이트	-10284
▁클라라	-10285
▁하려고	-10286
▁한국어	-10287
감동적인	-10288
말이필요	-10289
봤었는데	-10290
수가없다	-10291
이라고는	-10292
하시네요	-10293
▁2010	-10294
▁관람불가	-10295
▁그들만의	-10296
▁극장판은	-10297
▁기분좋게	-10298
▁나왔는데	-10299
▁내용으로	-10300
▁두근두근	-10301
▁만드네요	-10302
▁매력있는	-10303
▁멋있어요	-10304
▁메세지는	-10305
▁모든것을	-10306
▁몽환적인	-10307
▁묻어나는	-10308
▁미치도록	-10309
▁보다보다	-10310
▁볼만했음	-10311
▁뻔하지만	-10312
▁상영관이	-10313
▁생각하며	-10314
▁수준이하	-10315
▁심심해서	-10316
▁아까웠던	-10317
▁안타깝고	-10318
▁않았을까	-10319
▁알수없는	-10320
▁억지설정	-10321
▁없다는게	-10322
▁엉성하다	-10323
▁에일리언	-10324
▁영상으로	-10325
▁영화관에	-10326
▁이건진짜	-10327
▁인터스텔	-10328
▁있었다니	-10329
▁작위적인	-10330
▁재밌기만	-10331
▁표현했다	-10332
▁현실이다	-10333
▁혹성탈출	-10334
감사합니다	-10335
▁감정이입이	-10336
▁네이버평점	-10337
▁느낌이랄까	-10338
▁아침드라마	-10339
▁우리나라는	-10340
▁잘만들어진	-10341
▁재밌게봤다	-10342
▁ᄏᄏᄏᄏᄏᄏᄏᄏᄏᄏ	-10343
ap	-10344
▁뜯	-10345
▁맺	-10346
▁쉐	-10347
▁혀	-10348
가치	-10349
게이	-10350
괜히	-10351
기업	-10352
꺼라	-10353
넣은	-10354
높다	-10355
님과	-10356
데터	-10357
독립	-10358
동네	-10359
되네	-10360
디젤	-10361
따름	-10362
란이	-10363
맞음	-10364
모가	-10365
모니	-10366
반복	-10367
방법	-10368
방의	-10369
보비	-10370
보잡	-10371
봣음	-10372
분만	-10373
분명	-10374
브라	-10375
선의	-10376
센트	-10377
소나	-10378
슈퍼	-10379
심은	-10380
씨와	-10381
어난	-10382
연한	-10383
엿음	-10384
올때	-10385
용도	-10386
유혼	-10387
은혜	-10388
음의	-10389
이쁨	-10390
인권	-10391
인상	-10392
인척	-10393
점줄	-10394
존재	-10395
주를	-10396
지식	-10397
짜는	-10398
치네	-10399
칼렛	-10400
키스	-10401
타클	-10402
피는	-10403
피를	-10404
해짐	-10405
해피	-10406
ill	-10407
▁//	-10408
▁23	-10409
▁24	-10410
▁me	-10411
▁so	-10412
▁가시	-10413
▁가자	-10414
▁개독	-10415
▁개발	-10416
▁결합	-10417
▁과잉	-10418
▁끝냈	-10419
▁난국	-10420
▁남매	-10421
▁내겐	-10422
▁느린	-10423
▁대비	-10424
▁대책	-10425
▁데미	-10426
▁둘의	-10427
▁로렌	-10428
▁마마	-10429
▁맛에	-10430
▁멤버	-10431
▁무기	-10432
▁뭔데	-10433
▁미개	-10434
▁버금	-10435
▁버리	-10436
▁보나	-10437
▁봐주	-10438
▁사전	-10439
▁샤를	-10440
▁쏠쏠	-10441
▁아가	-10442
▁안젤	-10443
▁연장	-10444
▁오토	-10445
▁유부	-10446
▁이선	-10447
▁저녁	-10448
▁조여	-10449
▁지니	-10450
▁지어	-10451
▁직장	-10452
▁진솔	-10453
▁찢어	-10454
▁차지	-10455
▁천사	-10456
▁첨에	-10457
▁최저	-10458
▁치열	-10459
▁한수	-10460
▁했을	-10461
▁환불	-10462
▁후한	-10463
▁훈남	-10464
▁흑흑	-10465
가능한	-10466
곱니다	-10467
낮아서	-10468
렸어요	-10469
만드네	-10470
만들고	-10471
묘하게	-10472
보느니	-10473
보다니	-10474
액션은	-10475
었을때	-10476
연기에	-10477
였다고	-10478
왔어요	-10479
이건뭐	-10480
이라곤	-10481
점준거	-10482
졌네요	-10483
주는게	-10484
하겠지	-10485
..,,	-10486
..??	-10487
▁500	-10488
▁가르쳐	-10489
▁가볍고	-10490
▁것인지	-10491
▁계기가	-10492
▁과도한	-10493
▁기분만	-10494
▁나오게	-10495
▁남자와	-10496
▁놈들은	-10497
▁눈물흘	-10498
▁다른거	-10499
▁담아낸	-10500
▁대박이	-10501
▁대표작	-10502
▁또보고	-10503
▁러브라	-10504
▁런닝맨	-10505
▁마누라	-10506
▁마케팅	-10507
▁만나고	-10508
▁만나서	-10509
▁만드나	-10510
▁말아라	-10511
▁말이지	-10512
▁맙시다	-10513
▁모습과	-10514
▁못보고	-10515
▁못생긴	-10516
▁미국이	-10517
▁미소를	-10518
▁미안해	-10519
▁배급사	-10520
▁보기전	-10521
▁보는줄	-10522
▁봤었던	-10523
▁분노가	-10524
▁불쌍해	-10525
▁비교해	-10526
▁사다코	-10527
▁사회에	-10528
▁생각에	-10529
▁서로를	-10530
▁소리지	-10531
▁스칼렛	-10532
▁스텝업	-10533
▁슬퍼서	-10534
▁시작은	-10535
▁식으로	-10536
▁쌩뚱맞	-10537
▁아이의	-10538
▁않았나	-10539
▁어딘가	-10540
▁어설픔	-10541
▁어울리	-10542
▁없을까	-10543
▁여주의	-10544
▁연출의	-10545
▁영화평	-10546
▁예상치	-10547
▁와닿지	-10548
▁웃기네	-10549
▁웃기지	-10550
▁웬만한	-10551
▁위하여	-10552
▁위험한	-10553
▁음악에	-10554
▁이름값	-10555
▁이연희	-10556
▁잔혹한	-10557
▁잘나가	-10558
▁장르는	-10559
▁저것도	-10560
▁제작된	-10561
▁지겨워	-10562
▁찝찝한	-10563
▁첨이네	-10564
▁최초로	-10565
▁친구들	-10566
▁편집이	-10567
▁한계가	-10568
▁한없이	-10569
▁해놓고	-10570
▁화면이	-10571
▁환타지	-10572
라는건지	-10573
리의리의	-10574
볼수있는	-10575
스럽지만	-10576
우면서도	-10577
재미없고	-10578
적이지도	-10579
점입니다	-10580
▁2001	-10581
▁거부감이	-10582
▁군대에서	-10583
▁그래픽이	-10584
▁깔끔하게	-10585
▁나발이고	-10586
▁나오는지	-10587
▁남자들이	-10588
▁너무재밌	-10589
▁따뜻하게	-10590
▁러브라인	-10591
▁만들어준	-10592
▁메세지도	-10593
▁무서웠다	-10594
▁무척이나	-10595
▁별반개도	-10596
▁보면서도	-10597
▁봐야겠다	-10598
▁분위기와	-10599
▁사람으로	-10600
▁사무라이	-10601
▁사이에서	-10602
▁스릴있고	-10603
▁실화라니	-10604
▁아니겠지	-10605
▁여자들의	-10606
▁역사왜곡	-10607
▁영화로서	-10608
▁옛날영화	-10609
▁울었네요	-10610
▁이해하고	-10611
▁인간들이	-10612
▁있다는게	-10613
▁작품성은	-10614
▁재밌지도	-10615
▁적당하다	-10616
▁존재하는	-10617
▁좋아지는	-10618
▁팬이라면	-10619
▁포스터는	-10620
▁하는건지	-10621
▁헛웃음만	-10622
▁공포영화를	-10623
▁러브스토리	-10624
▁실망스럽다	-10625
▁엑소시스트	-10626
▁응원합니다	-10627
▁지루하지만	-10628
▁크리스토퍼	-10629
▁한국영화가	-10630
▁재미없습니다	-10631
▁지루하지않고	-10632
▁감동적이었습니다	-10633
..............	-10634
0-	-10635
?'	-10636
@@	-10637
ld	-10638
~8	-10639
▁꽁	-10640
▁솜	-10641
▁쯤	-10642
▁퓨	-10643
▁횡	-10644
가수	-10645
걸이	-10646
교훈	-10647
구조	-10648
그린	-10649
근한	-10650
끌고	-10651
나를	-10652
낮지	-10653
너스	-10654
네용	-10655
네유	-10656
는뎅	-10657
도에	-10658
되길	-10659
등록	-10660
디로	-10661
때메	-10662
려라	-10663
로봇	-10664
마른	-10665
마치	-10666
명도	-10667
문이	-10668
바탕	-10669
베리	-10670
보일	-10671
부르	-10672
비교	-10673
비를	-10674
빼면	-10675
뻔함	-10676
셉션	-10677
속이	-10678
수님	-10679
스라	-10680
스토	-10681
슬픈	-10682
시티	-10683
연은	-10684
운이	-10685
인드	-10686
작을	-10687
장님	-10688
죽고	-10689
준이	-10690
차원	-10691
코가	-10692
태웅	-10693
하곤	-10694
하듯	-10695
한심	-10696
홀로	-10697
힌다	-10698
all	-10699
ery	-10700
▁+1	-10701
▁3,	-10702
▁st	-10703
▁강제	-10704
▁강혜	-10705
▁건강	-10706
▁걸린	-10707
▁김동	-10708
▁김성	-10709
▁꿈이	-10710
▁나왓	-10711
▁날로	-10712
▁내는	-10713
▁너네	-10714
▁너는	-10715
▁넘기	-10716
▁넣은	-10717
▁뇌가	-10718
▁도덕	-10719
▁돌고	-10720
▁드리	-10721
▁라스	-10722
▁레즈	-10723
▁록키	-10724
▁맞게	-10725
▁머지	-10726
▁메가	-10727
▁못했	-10728
▁박지	-10729
▁벌어	-10730
▁볼줄	-10731
▁붉은	-10732
▁비유	-10733
▁상투	-10734
▁소림	-10735
▁소방	-10736
▁속의	-10737
▁시기	-10738
▁시스	-10739
▁식의	-10740
▁싫은	-10741
▁심어	-10742
▁씨발	-10743
▁어딨	-10744
▁오만	-10745
▁오싹	-10746
▁욕먹	-10747
▁원맨	-10748
▁이념	-10749
▁자칫	-10750
▁잘만	-10751
▁조인	-10752
▁조직	-10753
▁존중	-10754
▁중세	-10755
▁지들	-10756
▁지지	-10757
▁질투	-10758
▁처참	-10759
▁쳐도	-10760
▁침묵	-10761
▁코엔	-10762
▁픽사	-10763
▁할지	-10764
▁허전	-10765
▁황홀	-10766
▁후기	-10767
▁흐르	-10768
▁흘렀	-10769
가네요	-10770
겟네요	-10771
는지도	-10772
다가도	-10773
되면서	-10774
됬는데	-10775
반전이	-10776
분보고	-10777
사람만	-10778
사랑을	-10779
씬에서	-10780
아아아	-10781
윌리스	-10782
이것도	-10783
이런거	-10784
적이며	-10785
좋겠다	-10786
지않나	-10787
한거지	-10788
합니까	-10789
해준다	-10790
▁0.5	-10791
▁거대한	-10792
▁과거의	-10793
▁관객의	-10794
▁구리다	-10795
▁김구라	-10796
▁깊이가	-10797
▁나이에	-10798
▁느꼈던	-10799
▁다니는	-10800
▁다를게	-10801
▁달콤한	-10802
▁레이싱	-10803
▁리암니	-10804
▁마음은	-10805
▁막장의	-10806
▁말해서	-10807
▁몬스터	-10808
▁묵직한	-10809
▁뭡니까	-10810
▁미이라	-10811
▁범죄자	-10812
▁별다른	-10813
▁별볼일	-10814
▁보기도	-10815
▁보자고	-10816
▁봤다고	-10817
▁빨리감	-10818
▁살인을	-10819
▁상황에	-10820
▁섹시한	-10821
▁슬프게	-10822
▁슬픔이	-10823
▁시간의	-10824
▁신현준	-10825
▁심각한	-10826
▁심심한	-10827
▁씁쓸한	-10828
▁아시아	-10829
▁안난다	-10830
▁안든다	-10831
▁안에서	-10832
▁액션신	-10833
▁어려울	-10834
▁영화죠	-10835
▁왜만들	-10836
▁우리네	-10837
▁웃겨요	-10838
▁의미는	-10839
▁이들이	-10840
▁이리도	-10841
▁인간을	-10842
▁일상을	-10843
▁임청하	-10844
▁잘했다	-10845
▁장면들	-10846
▁정도껏	-10847
▁졸려서	-10848
▁주제로	-10849
▁죽이네	-10850
▁줄리엣	-10851
▁즐거움	-10852
▁지대로	-10853
▁진행이	-10854
▁최고라	-10855
▁충실한	-10856
▁팔아먹	-10857
▁플레이	-10858
▁하나만	-10859
▁한번은	-10860
▁홍금보	-10861
▁황정민	-10862
▁힘든데	-10863
★☆★☆	-10864
드라마로	-10865
앞으로도	-10866
▁공감되는	-10867
▁그래픽은	-10868
▁나온다는	-10869
▁다운로드	-10870
▁말할것도	-10871
▁명작이라	-10872
▁브래드피	-10873
▁사랑이란	-10874
▁생각나네	-10875
▁생각했다	-10876
▁선동영화	-10877
▁소름돋는	-10878
▁스타일의	-10879
▁시청자를	-10880
▁실망했다	-10881
▁쓰레기들	-10882
▁쓰레기로	-10883
▁아니었음	-10884
▁안하는데	-10885
▁어색하다	-10886
▁이해하지	-10887
▁인간들은	-10888
▁전개되는	-10889
▁좋아하게	-10890
▁촌스러운	-10891
▁촬영기법	-10892
▁출연하는	-10893
▁코미디도	-10894
▁코스프레	-10895
▁해야하나	-10896
▁휴머니즘	-10897
▁개인적으론	-10898
▁객관적으로	-10899
▁느꼈습니다	-10900
▁볼만하네요	-10901
▁시간아까움	-10902
▁시나리오는	-10903
▁싸이코패스	-10904
▁아름다웠던	-10905
▁영화자체가	-10906
▁오그라든다	-10907
▁우리나라에	-10908
▁유치하지만	-10909
▁재미없다는	-10910
▁재밌게봤음	-10911
▁재밌는영화	-10912
▁좋아할만한	-10913
),	-10914
21	-10915
78	-10916
ul	-10917
un	-10918
▁낼	-10919
▁뺨	-10920
▁쉣	-10921
▁슴	-10922
▁춘	-10923
▁턱	-10924
가기	-10925
가다	-10926
가도	-10927
가루	-10928
근래	-10929
깜짝	-10930
내면	-10931
너의	-10932
눈에	-10933
는디	-10934
대충	-10935
렬한	-10936
론은	-10937
린거	-10938
망이	-10939
머지	-10940
메오	-10941
미와	-10942
밖엔	-10943
사진	-10944
상과	-10945
세지	-10946
슨은	-10947
안함	-10948
야오	-10949
어어	-10950
어쩔	-10951
없구	-10952
엇던	-10953
여도	-10954
여름	-10955
용이	-10956
워커	-10957
이것	-10958
이시	-10959
이와	-10960
작정	-10961
제왕	-10962
죽을	-10963
지로	-10964
질만	-10965
책을	-10966
탄이	-10967
테니	-10968
트에	-10969
트와	-10970
하든	-10971
항상	-10972
행을	-10973
회를	-10974
.,.	-10975
ant	-10976
ent	-10977
▁->	-10978
▁ᄀᄀ	-10979
▁각자	-10980
▁갑작	-10981
▁건너	-10982
▁게리	-10983
▁고래	-10984
▁고려	-10985
▁고로	-10986
▁고백	-10987
▁관점	-10988
▁기사	-10989
▁나빠	-10990
▁낳은	-10991
▁노는	-10992
▁놓친	-10993
▁닮은	-10994
▁더한	-10995
▁동일	-10996
▁뛰쳐	-10997
▁마츠	-10998
▁매년	-10999
▁목사	-11000
▁미리	-11001
▁미성	-11002
▁미칠	-11003
▁믿겨	-11004
▁믿음	-11005
▁발생	-11006
▁발휘	-11007
▁보임	-11008
▁부른	-11009
▁부여	-11010
▁비난	-11011
▁뽑아	-11012
▁서극	-11013
▁수애	-11014
▁슈렉	-11015
▁스탤	-11016
▁시민	-11017
▁실컷	-11018
▁씬은	-11019
▁악몽	-11020
▁안됐	-11021
▁안웃	-11022
▁암이	-11023
▁어둠	-11024
▁어의	-11025
▁얼른	-11026
▁에반	-11027
▁여진	-11028
▁영활	-11029
▁외화	-11030
▁유사	-11031
▁잇는	-11032
▁있으	-11033
▁재주	-11034
▁전환	-11035
▁줘서	-11036
▁진보	-11037
▁체험	-11038
▁출신	-11039
▁크고	-11040
▁터져	-11041
▁토요	-11042
▁파악	-11043
▁편이	-11044
▁표본	-11045
▁호텔	-11046
▁흔히	-11047
겁니까	-11048
기분이	-11049
된다는	-11050
드리고	-11051
몰라도	-11052
몰입도	-11053
무서운	-11054
버렸네	-11055
버렸음	-11056
상으로	-11057
아니야	-11058
어디서	-11059
왜이리	-11060
위해서	-11061
이면서	-11062
이상은	-11063
이하도	-11064
작품이	-11065
점수는	-11066
지금도	-11067
치도록	-11068
키드먼	-11069
하나의	-11070
하라고	-11071
할수록	-11072
훌륭한	-11073
,...	-11074
ᄃᄃᄃᄃ	-11075
▁CGV	-11076
▁and	-11077
▁kbs	-11078
▁가득찬	-11079
▁같기도	-11080
▁결론이	-11081
▁곳에서	-11082
▁김강우	-11083
▁김태희	-11084
▁김하늘	-11085
▁나이트	-11086
▁나중엔	-11087
▁납니다	-11088
▁냄새가	-11089
▁니들은	-11090
▁다같이	-11091
▁답답함	-11092
▁된다고	-11093
▁때리고	-11094
▁막장이	-11095
▁만큼은	-11096
▁말한다	-11097
▁망쳤다	-11098
▁맞추기	-11099
▁목숨을	-11100
▁몰입을	-11101
▁못된다	-11102
▁못생겼	-11103
▁무료로	-11104
▁뭐하냐	-11105
▁미국판	-11106
▁박평식	-11107
▁반전과	-11108
▁배경은	-11109
▁배우로	-11110
▁보기는	-11111
▁보여서	-11112
▁봤다니	-11113
▁비중이	-11114
▁빵터짐	-11115
▁새롭고	-11116
▁세계를	-11117
▁순간이	-11118
▁신기한	-11119
▁신나는	-11120
▁약간은	-11121
▁언제쯤	-11122
▁영화면	-11123
▁영화좀	-11124
▁예뻐요	-11125
▁와이프	-11126
▁외에는	-11127
▁욕하는	-11128
▁울었음	-11129
▁이동욱	-11130
▁이은주	-11131
▁이해는	-11132
▁인기가	-11133
▁일이다	-11134
▁잘생긴	-11135
▁재밌긴	-11136
▁전도연	-11137
▁주려고	-11138
▁중국의	-11139
▁찌질한	-11140
▁차승원	-11141
▁첨본다	-11142
▁초반의	-11143
▁치밀한	-11144
▁평점좀	-11145
▁한국은	-11146
▁한정된	-11147
▁후덜덜	-11148
▁힘들어	-11149
배우들도	-11150
스토리를	-11151
이라는걸	-11152
이영화를	-11153
재미있는	-11154
하는구나	-11155
하지않은	-11156
▁깨알같은	-11157
▁꺼버렸다	-11158
▁나에게는	-11159
▁누구에게	-11160
▁로드무비	-11161
▁리즈시절	-11162
▁마지막의	-11163
▁만들겠다	-11164
▁만들기도	-11165
▁못미치는	-11166
▁볼거리가	-11167
▁불편하다	-11168
▁불필요한	-11169
▁사랑스런	-11170
▁생각하지	-11171
▁생각해도	-11172
▁생생하게	-11173
▁수준이다	-11174
▁스타일이	-11175
▁시원하게	-11176
▁싶은건지	-11177
▁안쓰는데	-11178
▁알고보니	-11179
▁어떻게든	-11180
▁없었지만	-11181
▁엉망이고	-11182
▁에이리언	-11183
▁오글거려	-11184
▁왠만해선	-11185
▁이걸보고	-11186
▁이야기와	-11187
▁일어나는	-11188
▁있는것도	-11189
▁자극하는	-11190
▁작품성이	-11191
▁작품인데	-11192
▁잔인하게	-11193
▁저평가된	-11194
▁좋아한다	-11195
▁주인공도	-11196
▁파라노말	-11197
▁허무하다	-11198
▁허술하다	-11199
점준것중에	-11200
▁끝날때까지	-11201
▁드라마보다	-11202
▁드라마에요	-11203
▁마지막으로	-11204
▁몰입하면서	-11205
▁미안하지만	-11206
▁소름끼친다	-11207
▁수작입니다	-11208
▁쓰레기라고	-11209
▁없었습니다	-11210
▁영화인데도	-11211
▁잔잔하면서	-11212
▁페이크다큐	-11213
▁우리나라에서	-11214
ᄏᄏᄏᄏᄏᄏᄏᄏᄏᄏᄏ	-11215
ᄏᄏᄏᄏᄏᄏᄏᄏᄏᄏᄏᄏᄏ	-11216
22	-11217
56	-11218
>>	-11219
>_	-11220
CN	-11221
▁겸	-11222
▁눌	-11223
▁랩	-11224
▁잣	-11225
▁져	-11226
▁퉤	-11227
▁팽	-11228
가나	-11229
겁게	-11230
겠군	-11231
고에	-11232
깊게	-11233
는걸	-11234
는것	-11235
니잼	-11236
단다	-11237
되냐	-11238
랑이	-11239
론데	-11240
리온	-11241
마가	-11242
말은	-11243
무가	-11244
뭐가	-11245
밀리	-11246
바보	-11247
별점	-11248
본방	-11249
사냥	-11250
새벽	-11251
선물	-11252
세한	-11253
수다	-11254
수에	-11255
씬도	-11256
아담	-11257
안나	-11258
엉망	-11259
역에	-11260
워야	-11261
유미	-11262
이즈	-11263
자신	-11264
제는	-11265
졌고	-11266
주에	-11267
진지	-11268
질에	-11269
초등	-11270
타르	-11271
파괴	-11272
프다	-11273
하가	-11274
할게	-11275
행크	-11276
현재	-11277
훈이	-11278
?""	-11279
ain	-11280
▁my	-11281
▁no	-11282
▁re	-11283
▁가식	-11284
▁감당	-11285
▁고급	-11286
▁고현	-11287
▁교차	-11288
▁구매	-11289
▁귀에	-11290
▁극과	-11291
▁기도	-11292
▁깜찍	-11293
▁날이	-11294
▁넘겨	-11295
▁눈부	-11296
▁대략	-11297
▁대변	-11298
▁대형	-11299
▁돌이	-11300
▁동방	-11301
▁두개	-11302
▁라면	-11303
▁류의	-11304
▁마주	-11305
▁매튜	-11306
▁먼지	-11307
▁모냐	-11308
▁몸에	-11309
▁못볼	-11310
▁문근	-11311
▁미루	-11312
▁미흡	-11313
▁반가	-11314
▁부자	-11315
▁붙여	-11316
▁비틀	-11317
▁사막	-11318
▁상식	-11319
▁색다	-11320
▁서민	-11321
▁순정	-11322
▁신앙	-11323
▁싶게	-11324
▁싶네	-11325
▁쌍욕	-11326
▁쌍팔	-11327
▁아야	-11328
▁안고	-11329
▁안목	-11330
▁애를	-11331
▁여고	-11332
▁여지	-11333
▁오류	-11334
▁오르	-11335
▁완소	-11336
▁왜저	-11337
▁요구	-11338
▁원빈	-11339
▁유오	-11340
▁일방	-11341
▁잘된	-11342
▁적응	-11343
▁전국	-11344
▁제미	-11345
▁제법	-11346
▁조쉬	-11347
▁지존	-11348
▁참다	-11349
▁투표	-11350
▁파트	-11351
▁평은	-11352
▁피어	-11353
▁필수	-11354
▁하얀	-11355
▁한결	-11356
▁한달	-11357
▁한표	-11358
▁할거	-11359
▁해줄	-11360
▁화해	-11361
▁희한	-11362
가족이	-11363
갔으면	-11364
건강에	-11365
걸까요	-11366
국주의	-11367
남자가	-11368
년대의	-11369
마무리	-11370
만큼도	-11371
매니아	-11372
메이징	-11373
밖에는	-11374
배우도	-11375
봅시다	-11376
수밖에	-11377
아닌듯	-11378
아들이	-11379
알바들	-11380
영환데	-11381
오히려	-11382
왔지만	-11383
우주연	-11384
이쁘다	-11385
인트가	-11386
있어야	-11387
재미잇	-11388
점드림	-11389
좋았음	-11390
주고싶	-11391
쪽으로	-11392
크리스	-11393
픕니다	-11394
하시면	-11395
할영화	-11396
해서는	-11397
ᄋᄋᄋᄋ	-11398
▁가는줄	-11399
▁각본과	-11400
▁고통을	-11401
▁관계를	-11402
▁그것은	-11403
▁그리운	-11404
▁꺼버림	-11405
▁꼭봐라	-11406
▁나라를	-11407
▁나았다	-11408
▁나한테	-11409
▁나홀로	-11410
▁남편이	-11411
▁놀라울	-11412
▁놈들이	-11413
▁눈물도	-11414
▁눈빛이	-11415
▁느껴짐	-11416
▁단체로	-11417
▁돋보임	-11418
▁돌려줘	-11419
▁듣보잡	-11420
▁모두다	-11421
▁모습도	-11422
▁못하게	-11423
▁뭔가를	-11424
▁배경을	-11425
▁보고서	-11426
▁볼수가	-11427
▁봐야함	-11428
▁봤을땐	-11429
▁비추천	-11430
▁사로잡	-11431
▁생겨서	-11432
▁수준급	-11433
▁신파극	-11434
▁실망한	-11435
▁아닌거	-11436
▁안가고	-11437
▁어느새	-11438
▁어벤져	-11439
▁어지간	-11440
▁어째서	-11441
▁얼굴도	-11442
▁여성의	-11443
▁연기파	-11444
▁연출에	-11445
▁영화고	-11446
▁웃음도	-11447
▁원맨쇼	-11448
▁일본식	-11449
▁잘생김	-11450
▁전쟁이	-11451
▁전편에	-11452
▁졸았다	-11453
▁즐기는	-11454
▁지겨운	-11455
▁추악한	-11456
▁케이지	-11457
▁크루즈	-11458
▁클라스	-11459
▁터무니	-11460
▁파이팅	-11461
▁프레디	-11462
▁하나님	-11463
▁하는것	-11464
▁한예슬	-11465
▁한장면	-11466
▁황비홍	-11467
▁흔적이	-11468
▁흘러도	-11469
기때문에	-11470
다고생각	-11471
만든영화	-11472
만들어도	-11473
보여주는	-11474
쓰레기다	-11475
영화중에	-11476
임파서블	-11477
재밌는데	-11478
주인공의	-11479
지금까지	-11480
짜증난다	-11481
하하하하	-11482
▁2008	-11483
▁기준으로	-11484
▁드라마임	-11485
▁떠올리게	-11486
▁리얼하게	-11487
▁만드는지	-11488
▁멋있었다	-11489
▁몇번이고	-11490
▁못하지만	-11491
▁무의미한	-11492
▁배우들만	-11493
▁보았지만	-11494
▁분명하다	-11495
▁불편하고	-11496
▁사랑스러	-11497
▁심사위원	-11498
▁아메리칸	-11499
▁아이들을	-11500
▁안봤는데	-11501
▁않았는데	-11502
▁알바들이	-11503
▁액션으로	-11504
▁어울린다	-11505
▁없었다면	-11506
▁영화니까	-11507
▁영화인거	-11508
▁오그라들	-11509
▁잊을수가	-11510
▁잔잔하니	-11511
▁전문성우	-11512
▁졸업작품	-11513
▁진정으로	-11514
▁참신하고	-11515
▁최곱니다	-11516
▁캐릭터에	-11517
▁화가난다	-11518
점드립니다	-11519
좋아하는데	-11520
▁너무좋아요	-11521
▁생각하는데	-11522
▁않았습니다	-11523
▁연기자들의	-11524
▁이스트우드	-11525
▁재미가없다	-11526
▁중간중간에	-11527
▁처음입니다	-11528
▁프랑스영화	-11529
▁말이필요없는	-11530
▁ᄏᄏᄏᄏᄏᄏᄏᄏᄏᄏᄏᄏᄏ	-11531
./	-11532
▁닐	-11533
▁덩	-11534
▁밟	-11535
▁왈	-11536
▁텅	-11537
▁핫	-11538
걸린	-11539
게도	-11540
경은	-11541
고를	-11542
고요	-11543
글고	-11544
금지	-11545
기동	-11546
기스	-11547
길이	-11548
끼고	-11549
나지	-11550
날의	-11551
낮다	-11552
대결	-11553
대서	-11554
데기	-11555
동석	-11556
동엽	-11557
때의	-11558
력도	-11559
르다	-11560
림을	-11561
만옥	-11562
망한	-11563
모토	-11564
무라	-11565
물고	-11566
물도	-11567
보나	-11568
볼때	-11569
봤자	-11570
분히	-11571
뿐인	-11572
사기	-11573
생의	-11574
셜록	-11575
순위	-11576
스틸	-11577
써서	-11578
아자	-11579
없냐	-11580
왠지	-11581
우울	-11582
우치	-11583
운의	-11584
이웃	-11585
입견	-11586
입장	-11587
적일	-11588
전기	-11589
전설	-11590
제의	-11591
주로	-11592
즈는	-11593
증에	-11594
찍는	-11595
청춘	-11596
치콕	-11597
코의	-11598
콜릿	-11599
크를	-11600
타이	-11601
피니	-11602
필드	-11603
해여	-11604
허허	-11605
-.-	-11606
^^;	-11607
^_^	-11608
▁97	-11609
▁가미	-11610
▁갑갑	-11611
▁거대	-11612
▁건축	-11613
▁경이	-11614
▁고은	-11615
▁고정	-11616
▁금방	-11617
▁김보	-11618
▁껏다	-11619
▁꿈에	-11620
▁나눠	-11621
▁난감	-11622
▁녀석	-11623
▁녹화	-11624
▁다듬	-11625
▁단조	-11626
▁독백	-11627
▁되길	-11628
▁된게	-11629
▁등이	-11630
▁레드	-11631
▁로긴	-11632
▁마사	-11633
▁매회	-11634
▁멜깁	-11635
▁명곡	-11636
▁문학	-11637
▁뭐죠	-11638
▁미달	-11639
▁미사	-11640
▁배틀	-11641
▁보네	-11642
▁보실	-11643
▁사형	-11644
▁살릴	-11645
▁서인	-11646
▁수치	-11647
▁숨이	-11648
▁습작	-11649
▁심은	-11650
▁썩은	-11651
▁아키	-11652
▁악의	-11653
▁애정	-11654
▁야이	-11655
▁양산	-11656
▁어깨	-11657
▁어렷	-11658
▁없구	-11659
▁오마	-11660
▁옹호	-11661
▁유리	-11662
▁의존	-11663
▁이뤄	-11664
▁인한	-11665
▁자제	-11666
▁장쯔	-11667
▁재회	-11668
▁저의	-11669
▁전무	-11670
▁전통	-11671
▁죄를	-11672
▁쫄깃	-11673
▁참혹	-11674
▁창작	-11675
▁추잡	-11676
▁클라	-11677
▁태양	-11678
▁토이	-11679
▁트라	-11680
▁파란	-11681
▁프렌	-11682
▁하차	-11683
▁한건	-11684
▁해보	-11685
▁해적	-11686
▁획을	-11687
▁후진	-11688
▁훈련	-11689
간다는	-11690
감동을	-11691
날로그	-11692
녀유혼	-11693
다니고	-11694
대사가	-11695
더이상	-11696
만드나	-11697
성있는	-11698
야겠다	-11699
없으면	-11700
역으로	-11701
였다니	-11702
영화나	-11703
이없다	-11704
작가가	-11705
잔잔한	-11706
장면만	-11707
죽는줄	-11708
줄알고	-11709
친구가	-11710
하나는	-11711
하던가	-11712
해놓은	-11713
햇지만	-11714
good	-11715
▁각본이	-11716
▁감정의	-11717
▁거리가	-11718
▁것처럼	-11719
▁그녀는	-11720
▁그랬다	-11721
▁극적인	-11722
▁기대해	-11723
▁기억은	-11724
▁긴장을	-11725
▁김명민	-11726
▁끝나지	-11727
▁나라의	-11728
▁나쁘진	-11729
▁노래만	-11730
▁노력한	-11731
▁노무현	-11732
▁달달한	-11733
▁로보캅	-11734
▁만든것	-11735
▁많았다	-11736
▁말하려	-11737
▁말하지	-11738
▁멋있음	-11739
▁몰라서	-11740
▁못보겠	-11741
▁무책임	-11742
▁배우다	-11743
▁보네요	-11744
▁보러갔	-11745
▁복수가	-11746
▁분노의	-11747
▁산드라	-11748
▁성우를	-11749
▁성유리	-11750
▁소년의	-11751
▁시선을	-11752
▁실패한	-11753
▁싸우고	-11754
▁아들과	-11755
▁아쉽긴	-11756
▁알수가	-11757
▁애절한	-11758
▁어떨까	-11759
▁어려서	-11760
▁엄마와	-11761
▁없다면	-11762
▁엔딩곡	-11763
▁영혼을	-11764
▁완벽히	-11765
▁왔어요	-11766
▁외로운	-11767
▁유아용	-11768
▁이게왜	-11769
▁이러니	-11770
▁이뻐요	-11771
▁있는거	-11772
▁잘봤다	-11773
▁장면에	-11774
▁재밋어	-11775
▁조승우	-11776
▁존재가	-11777
▁좋아하	-11778
▁주말에	-11779
▁죽어서	-11780
▁죽을뻔	-11781
▁중딩때	-11782
▁즐겁다	-11783
▁지구를	-11784
▁지저분	-11785
▁지하철	-11786
▁집어넣	-11787
▁짧아서	-11788
▁차가운	-11789
▁초딩이	-11790
▁최선을	-11791
▁출연료	-11792
▁코믹한	-11793
▁펑펑울	-11794
▁피라냐	-11795
▁한국형	-11796
▁한다면	-11797
▁해리슨	-11798
▁했다는	-11799
▁했다면	-11800
▁행동이	-11801
▁후반에	-11802
▁흥해라	-11803
것같아서	-11804
기보다는	-11805
이라지만	-11806
이야기가	-11807
인거같다	-11808
할수밖에	-11809
?????	-11810
~!!!!	-11811
▁그래픽도	-11812
▁끝내준다	-11813
▁남자들의	-11814
▁능가하는	-11815
▁돌아가는	-11816
▁멋지네요	-11817
▁명작인데	-11818
▁무언가가	-11819
▁미국에서	-11820
▁미치겠다	-11821
▁미화하는	-11822
▁보여주지	-11823
▁샤론스톤	-11824
▁솔직하게	-11825
▁스릴러의	-11826
▁신선하다	-11827
▁아니에요	-11828
▁안나와서	-11829
▁안되네요	-11830
▁안봤으면	-11831
▁안봤지만	-11832
▁알면서도	-11833
▁어머니의	-11834
▁였습니다	-11835
▁영화일뿐	-11836
▁외계인이	-11837
▁욕나오는	-11838
▁유치뽕짝	-11839
▁인내심을	-11840
▁있어보이	-11841
▁주연으로	-11842
▁중에서도	-11843
▁캐스팅에	-11844
▁코미디를	-11845
▁크리스틴	-11846
▁했었는데	-11847
▁화끈하게	-11848
▁후반으로	-11849
▁후회하지	-11850
영화중에서	-11851
▁가면갈수록	-11852
▁공포영화의	-11853
▁기대합니다	-11854
▁나왔습니다	-11855
▁내용전개가	-11856
▁대단합니다	-11857
▁로그인하게	-11858
▁마이너스는	-11859
▁만들었네요	-11860
▁못봐주겠다	-11861
▁보면볼수록	-11862
▁스타일리쉬	-11863
▁시나리오와	-11864
▁아니었으면	-11865
▁아름다움을	-11866
▁억지스럽다	-11867
▁여주인공은	-11868
▁영화관가서	-11869
▁인상적이다	-11870
▁자연스럽고	-11871
▁적나라하게	-11872
▁추천해주고	-11873
▁캐릭터들의	-11874
▁평론가들은	-11875
▁할말이없다	-11876
▁행복해지는	-11877
쓰레기쓰레기	-11878
인줄알았는데	-11879
ᄏᄏᄏᄏᄏᄏᄏᄏᄏᄏᄏᄏ	-11880
▁ᄏᄏᄏᄏᄏᄏᄏᄏᄏᄏᄏᄏᄏᄏ	-11881
18	-11882
▁)	-11883
▁ᄁ	-11884
▁뽕	-11885
▁였	-11886
▁욱	-11887
▁쬐	-11888
▁츠	-11889
▁퀸	-11890
▁헨	-11891
▁흰	-11892
같지	-11893
개판	-11894
걸고	-11895
공의	-11896
공이	-11897
권을	-11898
그거	-11899
그닥	-11900
끄고	-11901
난이	-11902
남겨	-11903
남편	-11904
놔서	-11905
달러	-11906
대장	-11907
더의	-11908
도전	-11909
둘이	-11910
뒤로	-11911
드벤	-11912
디에	-11913
레드	-11914
려한	-11915
르의	-11916
리라	-11917
리브	-11918
리어	-11919
리자	-11920
리화	-11921
말에	-11922
맥스	-11923
맨이	-11924
멸의	-11925
몸매	-11926
무어	-11927
민서	-11928
반도	-11929
받았	-11930
비판	-11931
비하	-11932
산이	-11933
선가	-11934
스텝	-11935
슬픔	-11936
시노	-11937
시로	-11938
신듯	-11939
안습	-11940
야의	-11941
약간	-11942
오버	-11943
올린	-11944
우와	-11945
을꺼	-11946
이였	-11947
인한	-11948
일도	-11949
일체	-11950
잊혀	-11951
자랑	-11952
전거	-11953
정씨	-11954
져도	-11955
조절	-11956
조한	-11957
중인	-11958
지구	-11959
짓게	-11960
차고	-11961
찾기	-11962
카시	-11963
탄을	-11964
태규	-11965
텔링	-11966
투자	-11967
틀어	-11968
팬더	-11969
풀이	-11970
하트	-11971
행이	-11972
헌터	-11973
호화	-11974
홍콩	-11975
훈훈	-11976
흥행	-11977
ast	-11978
▁각인	-11979
▁간절	-11980
▁갈아	-11981
▁개떡	-11982
▁거침	-11983
▁괜춘	-11984
▁괴롭	-11985
▁구로	-11986
▁구원	-11987
▁그땐	-11988
▁끼어	-11989
▁낫지	-11990
▁낮추	-11991
▁낮춰	-11992
▁넘버	-11993
▁놈이	-11994
▁눈만	-11995
▁뉴스	-11996
▁달아	-11997
▁대리	-11998
▁댄스	-11999
▁데드	-12000
▁동정	-12001
▁동참	-12002
▁동호	-12003
▁되새	-12004
▁들었	-12005
▁디아	-12006
▁땀을	-12007
▁때론	-12008
▁똥폼	-12009
▁뚜렷	-12010
▁롯데	-12011
▁르네	-12012
▁말지	-12013
▁맛을	-12014
▁망쳤	-12015
▁메리	-12016
▁몰래	-12017
▁못지	-12018
▁무거	-12019
▁뭣도	-12020
▁바가	-12021
▁바뀐	-12022
▁박영	-12023
▁발랄	-12024
▁방식	-12025
▁보물	-12026
▁볼꺼	-12027
▁볼껄	-12028
▁봐요	-12029
▁부럽	-12030
▁부인	-12031
▁불꽃	-12032
▁불만	-12033
▁불사	-12034
▁사나	-12035
▁살기	-12036
▁삼국	-12037
▁선수	-12038
▁선전	-12039
▁설렘	-12040
▁세트	-12041
▁승화	-12042
▁시덥	-12043
▁실존	-12044
▁실종	-12045
▁쓰레	-12046
▁아랫	-12047
▁안죽	-12048
▁얄팍	-12049
▁어줍	-12050
▁에어	-12051
▁역을	-12052
▁역활	-12053
▁오다	-12054
▁온다	-12055
▁왜냐	-12056
▁운운	-12057
▁으아	-12058
▁이룬	-12059
▁이주	-12060
▁인식	-12061
▁자라	-12062
▁자존	-12063
▁잠든	-12064
▁정답	-12065
▁졸려	-12066
▁좌파	-12067
▁주면	-12068
▁줄은	-12069
▁청년	-12070
▁치명	-12071
▁타짜	-12072
▁탐욕	-12073
▁터짐	-12074
▁파리	-12075
▁하필	-12076
▁함정	-12077
▁했네	-12078
▁현빈	-12079
▁호감	-12080
▁혹평	-12081
▁활약	-12082
▁후유	-12083
▁흔해	-12084
것같고	-12085
나오면	-12086
남는다	-12087
남자의	-12088
났어요	-12089
년이나	-12090
년이지	-12091
되어야	-12092
라는거	-12093
라는데	-12094
뮤지컬	-12095
버려서	-12096
보지말	-12097
소재로	-12098
슬프고	-12099
십시오	-12100
아무튼	-12101
안되게	-12102
없는게	-12103
없었던	-12104
에게서	-12105
위에서	-12106
인데요	-12107
일까요	-12108
잘하고	-12109
점이면	-12110
점이지	-12111
점인데	-12112
졌는데	-12113
죽이는	-12114
줬는데	-12115
지는데	-12116
터지는	-12117
테이크	-12118
프랑스	-12119
해줘서	-12120
-_-;	-12121
9999	-12122
▁140	-12123
▁OCN	-12124
▁가네요	-12125
▁가만히	-12126
▁가슴찡	-12127
▁감독아	-12128
▁강호동	-12129
▁교훈이	-12130
▁그리스	-12131
▁극장서	-12132
▁급전개	-12133
▁나와라	-12134
▁납득이	-12135
▁내면의	-12136
▁다녀온	-12137
▁단언컨	-12138
▁당신을	-12139
▁당하고	-12140
▁당하는	-12141
▁대사들	-12142
▁더빙도	-12143
▁데려다	-12144
▁돈아깝	-12145
▁뒤집어	-12146
▁따라한	-12147
▁리얼한	-12148
▁몇년이	-12149
▁못하나	-12150
▁민망한	-12151
▁바보가	-12152
▁배우고	-12153
▁본인이	-12154
▁부끄럽	-12155
▁브레이	-12156
▁빡쳐서	-12157
▁사건을	-12158
▁사건의	-12159
▁사실에	-12160
▁사회를	-12161
▁서부극	-12162
▁서서히	-12163
▁소리를	-12164
▁속편이	-12165
▁스마트	-12166
▁시시한	-12167
▁신들린	-12168
▁신선함	-12169
▁아들의	-12170
▁아쉬워	-12171
▁아쉽네	-12172
▁아오이	-12173
▁아이도	-12174
▁안되요	-12175
▁안맞고	-12176
▁안성기	-12177
▁알아서	-12178
▁암울한	-12179
▁애니로	-12180
▁양조위	-12181
▁엄태웅	-12182
▁없더라	-12183
▁에로틱	-12184
▁역사의	-12185
▁연기나	-12186
▁연출로	-12187
▁연출한	-12188
▁영구와	-12189
▁영상을	-12190
▁요소는	-12191
▁음악의	-12192
▁이러한	-12193
▁이런데	-12194
▁이만큼	-12195
▁이모양	-12196
▁이작품	-12197
▁이후의	-12198
▁잃었다	-12199
▁자체를	-12200
▁잔잔함	-12201
▁장르에	-12202
▁재해석	-12203
▁제정신	-12204
▁조선족	-12205
▁졸작이	-12206
▁좋아라	-12207
▁찍어라	-12208
▁찾았다	-12209
▁천재다	-12210
▁최대한	-12211
▁톰행크	-12212
▁평가가	-12213
▁필요는	-12214
▁하는가	-12215
▁한국에	-12216
▁한사람	-12217
▁합시다	-12218
▁핸드폰	-12219
▁환상의	-12220
▁후에도	-12221
▁흐름을	-12222
▁흥행에	-12223
생각하게	-12224
이드라마	-12225
재미없네	-12226
재미있고	-12227
점이라도	-12228
....?	-12229
naver	-12230
▁Very	-12231
▁감동감동	-12232
▁감동으로	-12233
▁거슬린다	-12234
▁괜찮았고	-12235
▁그나저나	-12236
▁극단적인	-12237
▁기다리고	-12238
▁기분좋은	-12239
▁끊임없이	-12240
▁끝내주는	-12241
▁난해하다	-12242
▁내스타일	-12243
▁내용이나	-12244
▁다가오는	-12245
▁담담하게	-12246
▁떠오른다	-12247
▁만들었던	-12248
▁망한영화	-12249
▁망했는지	-12250
▁멋집니다	-12251
▁모두에게	-12252
▁물론이고	-12253
▁반성해라	-12254
▁반전까지	-12255
▁보기드문	-12256
▁보이네요	-12257
▁볼거리도	-12258
▁분위기의	-12259
▁사실적인	-12260
▁상상력을	-12261
▁스케일도	-12262
▁아날로그	-12263
▁아버지를	-12264
▁알겠으나	-12265
▁어땠을까	-12266
▁연출력도	-12267
▁영화다운	-12268
▁완성도는	-12269
▁용두사미	-12270
▁유쾌하다	-12271
▁이게뭐야	-12272
▁이정도는	-12273
▁인물들이	-12274
▁재밌었어	-12275
▁잼있었다	-12276
▁주옥같은	-12277
▁짱이에요	-12278
▁짱입니다	-12279
▁코미디로	-12280
▁한순간도	-12281
▁허무하고	-12282
▁훌륭했다	-12283
것도아니고	-12284
보고있어요	-12285
최악의영화	-12286
하지마세요	-12287
;;;;;;	-12288
▁개봉했을때	-12289
▁더럽게없다	-12290
▁드라마였다	-12291
▁먹먹해지는	-12292
▁실망스러운	-12293
▁어처구니가	-12294
▁의심스럽다	-12295
▁이런영화에	-12296
▁잔인하지도	-12297
▁재미없었던	-12298
▁최악입니다	-12299
▁무섭지도않고	-12300
▁무슨내용인지	-12301
▁애니메이션은	-12302
.'	-12303
ak	-12304
ff	-12305
um	-12306
~.	-12307
~7	-12308
▁ᅢ	-12309
▁↓	-12310
▁균	-12311
▁윈	-12312
▁쿡	-12313
▁펜	-12314
감각	-12315
겁고	-12316
계상	-12317
구난	-12318
그려	-12319
껴서	-12320
끝도	-12321
끝에	-12322
나잇	-12323
남녀	-12324
년후	-12325
니발	-12326
단의	-12327
단이	-12328
대표	-12329
돈다	-12330
등을	-12331
래야	-12332
래원	-12333
레미	-12334
로선	-12335
로얄	-12336
루니	-12337
르지	-12338
리얼	-12339
만원	-12340
맛에	-12341
메다	-12342
못미	-12343
뭐니	-12344
미남	-12345
미드	-12346
방을	-12347
별한	-12348
복이	-12349
비의	-12350
빠다	-12351
사로	-12352
생겼	-12353
설레	-12354
섹스	-12355
셔요	-12356
소사	-12357
쉽게	-12358
스탈	-12359
심과	-12360
아씨	-12361
아역	-12362
안쓰	-12363
않는	-12364
애기	-12365
야만	-12366
어렵	-12367
에효	-12368
요한	-12369
인표	-12370
일지	-12371
입은	-12372
자이	-12373
졸라	-12374
주니	-12375
주변	-12376
즈를	-12377
집중	-12378
차가	-12379
처리	-12380
천국	-12381
총사	-12382
탄은	-12383
탈리	-12384
편만	-12385
프트	-12386
햇던	-12387
햇음	-12388
현우	-12389
현지	-12390
희를	-12391
히히	-12392
.!!	-12393
ome	-12394
ust	-12395
▁1%	-12396
▁1.	-12397
▁2%	-12398
▁MC	-12399
▁vs	-12400
▁가게	-12401
▁각성	-12402
▁건진	-12403
▁걸레	-12404
▁구려	-12405
▁귀가	-12406
▁그딴	-12407
▁글구	-12408
▁기막	-12409
▁꼽을	-12410
▁끄는	-12411
▁나간	-12412
▁남김	-12413
▁네가	-12414
▁닌자	-12415
▁단점	-12416
▁당당	-12417
▁도박	-12418
▁독창	-12419
▁들을	-12420
▁리플	-12421
▁마크	-12422
▁망함	-12423
▁몇일	-12424
▁모델	-12425
▁못된	-12426
▁무덤	-12427
▁미군	-12428
▁밝고	-12429
▁밝은	-12430
▁배운	-12431
▁별이	-12432
▁보장	-12433
▁보호	-12434
▁봤어	-12435
▁비명	-12436
▁빼놓	-12437
▁사춘	-12438
▁성괴	-12439
▁속지	-12440
▁수식	-12441
▁수정	-12442
▁수퍼	-12443
▁스며	-12444
▁스틸	-12445
▁시바	-12446
▁싫음	-12447
▁써도	-12448
▁써라	-12449
▁알리	-12450
▁암살	-12451
▁애썼	-12452
▁어쩐	-12453
▁언급	-12454
▁언어	-12455
▁에니	-12456
▁연계	-12457
▁옥의	-12458
▁외엔	-12459
▁웬만	-12460
▁이슈	-12461
▁이슬	-12462
▁이웃	-12463
▁이질	-12464
▁일드	-12465
▁잃지	-12466
▁자는	-12467
▁정부	-12468
▁좋으	-12469
▁주원	-12470
▁줬다	-12471
▁지속	-12472
▁지식	-12473
▁지원	-12474
▁진주	-12475
▁진화	-12476
▁짠한	-12477
▁짱구	-12478
▁찡한	-12479
▁책도	-12480
▁치우	-12481
▁크리	-12482
▁큰일	-12483
▁택시	-12484
▁트루	-12485
▁포스	-12486
▁피가	-12487
▁한물	-12488
▁해학	-12489
▁허영	-12490
▁회사	-12491
▁히트	-12492
것이지	-12493
것인지	-12494
급이다	-12495
들과는	-12496
랍시고	-12497
로써는	-12498
리우드	-12499
마음을	-12500
배우는	-12501
보이고	-12502
본사람	-12503
비슷한	-12504
시킨다	-12505
았다는	-12506
연기와	-12507
예전에	-12508
올시다	-12509
이란걸	-12510
이상실	-12511
인들은	-12512
일라잇	-12513
일수도	-12514
저렇게	-12515
정도다	-12516
지않을	-12517
척하는	-12518
페이지	-12519
편보고	-12520
하던지	-12521
하진않	-12522
해버린	-12523
했었다	-12524
ight	-12525
▁120	-12526
▁mbc	-12527
▁감정선	-12528
▁강혜정	-12529
▁같다는	-12530
▁관계가	-12531
▁그때는	-12532
▁그런건	-12533
▁기괴한	-12534
▁끝나네	-12535
▁끝내주	-12536
▁끝으로	-12537
▁나라가	-12538
▁넘치고	-12539
▁높네요	-12540
▁눈뜨고	-12541
▁눈요기	-12542
▁다음에	-12543
▁대하여	-12544
▁더빙을	-12545
▁돌리도	-12546
▁동심을	-12547
▁되는거	-12548
▁된다면	-12549
▁따듯한	-12550
▁때부터	-12551
▁때우기	-12552
▁멋있게	-12553
▁멋있어	-12554
▁모두들	-12555
▁모두를	-12556
▁박신양	-12557
▁방식이	-12558
▁버리는	-12559
▁보지만	-12560
▁봤으니	-12561
▁소녀의	-12562
▁슈스케	-12563
▁스릴은	-12564
▁슬픔을	-12565
▁시스템	-12566
▁신민아	-12567
▁싫어서	-12568
▁심했다	-12569
▁씹노잼	-12570
▁아니란	-12571
▁아들을	-12572
▁아마도	-12573
▁아픔이	-12574
▁알려주	-12575
▁약하고	-12576
▁어리석	-12577
▁엄마는	-12578
▁없구만	-12579
▁엉덩이	-12580
▁여자와	-12581
▁역할이	-12582
▁와이어	-12583
▁완전한	-12584
▁왜이럼	-12585
▁용서가	-12586
▁위로가	-12587
▁음악만	-12588
▁이런것	-12589
▁이전에	-12590
▁일어난	-12591
▁일점도	-12592
▁있었나	-12593
▁작품도	-12594
▁작품들	-12595
▁잔잔히	-12596
▁잠수함	-12597
▁장만옥	-12598
▁전설이	-12599
▁정치적	-12600
▁조아요	-12601
▁조재현	-12602
▁좋아함	-12603
▁좋았어	-12604
▁죽음의	-12605
▁차원이	-12606
▁철없는	-12607
▁촌스럽	-12608
▁최고지	-12609
▁최민수	-12610
▁친구를	-12611
▁캐서린	-12612
▁폴워커	-12613
▁표현을	-12614
▁하나를	-12615
▁하니까	-12616
▁행복해	-12617
▁확실한	-12618
▁후회할	-12619
그레이드	-12620
봣습니다	-12621
사람들의	-12622
영화이다	-12623
이라는거	-12624
이었다는	-12625
재밌네요	-12626
좋아해서	-12627
지않았다	-12628
하자마자	-12629
▁개봉하는	-12630
▁개봉하지	-12631
▁계속해서	-12632
▁고마워요	-12633
▁괜찮던데	-12634
▁기분이다	-12635
▁기억하는	-12636
▁깨달았다	-12637
▁맥라이언	-12638
▁몇안되는	-12639
▁몰입감이	-12640
▁몰입도는	-12641
▁무서운거	-12642
▁무섭다고	-12643
▁밋밋하고	-12644
▁배우들로	-12645
▁보다보면	-12646
▁보여줬다	-12647
▁비슷하게	-12648
▁비현실적	-12649
▁사랑하게	-12650
▁생각지도	-12651
▁숨막히는	-12652
▁스펙타클	-12653
▁신기하다	-12654
▁실화라고	-12655
▁실화라는	-12656
▁심심할때	-12657
▁아무래도	-12658
▁아쉬웠다	-12659
▁아이리스	-12660
▁안된다는	-12661
▁어메이징	-12662
▁어중간한	-12663
▁억지스럽	-12664
▁엑스트라	-12665
▁연기력을	-12666
▁영화에선	-12667
▁영화처럼	-12668
▁와닿는다	-12669
▁완성도를	-12670
▁원작보다	-12671
▁이름으로	-12672
▁이미지가	-12673
▁일본애니	-12674
▁있었어요	-12675
▁작품으로	-12676
▁좋아하면	-12677
▁지루해요	-12678
▁촌스럽고	-12679
▁최고였음	-12680
▁틀림없다	-12681
▁팬이라서	-12682
▁풋풋하고	-12683
▁프레데터	-12684
▁하기에는	-12685
감동적이고	-12686
보고있는데	-12687
이런영화가	-12688
▁강추입니다	-12689
▁니콜키드먼	-12690
▁다르겠지만	-12691
▁대단하네요	-12692
▁대박입니다	-12693
▁대한민국의	-12694
▁만들었는데	-12695
▁모르겠어요	-12696
▁스크린으로	-12697
▁여자친구랑	-12698
▁영화이지만	-12699
▁오랜만이다	-12700
▁이영화에서	-12701
▁재미있던데	-12702
▁정신건강에	-12703
▁좋아합니다	-12704
▁좋아했는데	-12705
▁지루하네요	-12706
▁지루하다고	-12707
▁지루하지도	-12708
▁초등학생때	-12709
▁캐릭터들도	-12710
▁브루스윌리스	-12711
▁영화보는내내	-12712
▁행복했습니다	-12713
▁흥미진진하고	-12714
▁감동적이었어요	-12715
...............	-12716
ee	-12717
ir	-12718
lt	-12719
us	-12720
ᄅᄀ	-12721
▁닉	-12722
▁롭	-12723
▁믹	-12724
▁밸	-12725
▁삭	-12726
▁쟁	-12727
▁킥	-12728
갖고	-12729
같애	-12730
겟지	-12731
경의	-12732
관리	-12733
괴물	-12734
구로	-12735
그지	-12736
금이	-12737
년들	-12738
년은	-12739
느님	-12740
다를	-12741
단순	-12742
대본	-12743
대작	-12744
동물	-12745
됬다	-12746
두개	-12747
따윈	-12748
락이	-12749
레쉬	-12750
렸어	-12751
령이	-12752
로게	-12753
류가	-12754
린지	-12755
릴라	-12756
마에	-12757
마의	-12758
만나	-12759
만함	-12760
맞아	-12761
맨날	-12762
모루	-12763
물어	-12764
바뀌	-12765
방에	-12766
병이	-12767
분장	-12768
빠이	-12769
설명	-12770
순례	-12771
스오	-12772
스파	-12773
시장	-12774
씁쓸	-12775
아픈	-12776
알게	-12777
알려	-12778
애를	-12779
엔틴	-12780
외국	-12781
운동	-12782
웃겼	-12783
의사	-12784
이드	-12785
인칭	-12786
자유	-12787
적도	-12788
점임	-12789
젝트	-12790
조의	-12791
죽음	-12792
진씨	-12793
짝퉁	-12794
쩌네	-12795
쩌는	-12796
착한	-12797
키의	-12798
탄탄	-12799
평범	-12800
포로	-12801
1,2	-12802
▁ᅮᅲ	-12803
▁가위	-12804
▁강시	-12805
▁강철	-12806
▁거리	-12807
▁걸어	-12808
▁고수	-12809
▁과한	-12810
▁광팬	-12811
▁광해	-12812
▁괴작	-12813
▁극을	-12814
▁극의	-12815
▁근육	-12816
▁금지	-12817
▁꾸준	-12818
▁나갈	-12819
▁낚임	-12820
▁남음	-12821
▁낯선	-12822
▁농락	-12823
▁높냐	-12824
▁느꼇	-12825
▁늙어	-12826
▁되었	-12827
▁될까	-12828
▁둘러	-12829
▁드립	-12830
▁들려	-12831
▁떠난	-12832
▁맞은	-12833
▁맞음	-12834
▁먹을	-12835
▁메인	-12836
▁명예	-12837
▁목표	-12838
▁무려	-12839
▁무성	-12840
▁박한	-12841
▁반짝	-12842
▁발톱	-12843
▁밥먹	-12844
▁버티	-12845
▁법칙	-12846
▁베낀	-12847
▁별을	-12848
▁복제	-12849
▁본후	-12850
▁볼걸	-12851
▁볼땐	-12852
▁분석	-12853
▁비비	-12854
▁빌리	-12855
▁생겨	-12856
▁서정	-12857
▁선교	-12858
▁선배	-12859
▁성숙	-12860
▁소문	-12861
▁소외	-12862
▁속상	-12863
▁스탈	-12864
▁스톤	-12865
▁스파	-12866
▁신뢰	-12867
▁신부	-12868
▁썩어	-12869
▁씬이	-12870
▁아웃	-12871
▁아일	-12872
▁악평	-12873
▁안의	-12874
▁안질	-12875
▁압축	-12876
▁약해	-12877
▁어서	-12878
▁언론	-12879
▁옹박	-12880
▁왕따	-12881
▁원망	-12882
▁원초	-12883
▁윌스	-12884
▁유역	-12885
▁이길	-12886
▁이문	-12887
▁인공	-12888
▁있죠	-12889
▁자격	-12890
▁잘난	-12891
▁잘한	-12892
▁장치	-12893
▁전성	-12894
▁절라	-12895
▁정점	-12896
▁제한	-12897
▁조디	-12898
▁조명	-12899
▁조커	-12900
▁주체	-12901
▁지도	-12902
▁지우	-12903
▁질문	-12904
▁초라	-12905
▁총질	-12906
▁칼로	-12907
▁통찰	-12908
▁파멸	-12909
▁팬티	-12910
▁평정	-12911
▁플래	-12912
▁필모	-12913
▁한때	-12914
▁헐크	-12915
▁훼손	-12916
거리며	-12917
게스트	-12918
결말도	-12919
그렇지	-12920
났는데	-12921
놈들아	-12922
던영화	-12923
때까지	-12924
로버츠	-12925
만들지	-12926
맙소사	-12927
명이서	-12928
바이벌	-12929
밖에안	-12930
보았다	-12931
분들도	-12932
소재를	-12933
스파이	-12934
액션도	-12935
없다는	-12936
엇지만	-12937
에비해	-12938
여년전	-12939
영상미	-12940
영화만	-12941
요소가	-12942
우리가	-12943
으라면	-12944
읍니다	-12945
이기도	-12946
이어서	-12947
자들을	-12948
자마자	-12949
작가의	-12950
정도가	-12951
지는게	-12952
지못한	-12953
질않나	-12954
출연진	-12955
카메라	-12956
테스크	-12957
편보단	-12958
하네여	-12959
*^^*	-12960
...2	-12961
..10	-12962
▁것으로	-12963
▁공감은	-12964
▁괜찮을	-12965
▁괴물이	-12966
▁구하기	-12967
▁그녀가	-12968
▁그래두	-12969
▁그러면	-12970
▁그러지	-12971
▁그림이	-12972
▁기타노	-12973
▁끔찍한	-12974
▁끝났다	-12975
▁나오길	-12976
▁나오니	-12977
▁나왔을	-12978
▁남아돌	-12979
▁남자들	-12980
▁내보내	-12981
▁노래와	-12982
▁노출이	-12983
▁뇌리에	-12984
▁누구냐	-12985
▁느끼지	-12986
▁당시의	-12987
▁따라서	-12988
▁라디오	-12989
▁로멘틱	-12990
▁로버츠	-12991
▁마음속	-12992
▁말이야	-12993
▁말이죠	-12994
▁망치는	-12995
▁모니터	-12996
▁못되는	-12997
▁무삭제	-12998
▁미국에	-12999
▁미쳤다	-13000
▁바라며	-13001
▁바보로	-13002
▁보니깐	-13003
▁본질을	-13004
▁불쌍함	-13005
▁빈디젤	-13006
▁뿐이고	-13007
▁선입견	-13008
▁설레는	-13009
▁속편은	-13010
▁수작임	-13011
▁스릴감	-13012
▁싶다는	-13013
▁안나와	-13014
▁안드로	-13015
▁앞뒤가	-13016
▁어느것	-13017
▁어드벤	-13018
▁어떨지	-13019
▁어쩌고	-13020
▁얼굴만	-13021
▁없을듯	-13022
▁없잖아	-13023
▁여실히	-13024
▁여주는	-13025
▁역부족	-13026
▁연결이	-13027
▁영상물	-13028
▁예술을	-13029
▁예전의	-13030
▁오드리	-13031
▁욕하고	-13032
▁운명을	-13033
▁웃기긴	-13034
▁이건머	-13035
▁이나영	-13036
▁이라고	-13037
▁이민기	-13038
▁이범수	-13039
▁이성재	-13040
▁이종석	-13041
▁익숙한	-13042
▁인내심	-13043
▁인셉션	-13044
▁인피니	-13045
▁일본판	-13046
▁잘모르	-13047
▁장난해	-13048
▁재미난	-13049
▁제목도	-13050
▁좀비물	-13051
▁좋다는	-13052
▁좋은거	-13053
▁주변에	-13054
▁중구난	-13055
▁중반부	-13056
▁지브리	-13057
▁지상파	-13058
▁처절한	-13059
▁철저히	-13060
▁초반은	-13061
▁초콜릿	-13062
▁최고작	-13063
▁최민식	-13064
▁최진실	-13065
▁출연자	-13066
▁카타르	-13067
▁특히나	-13068
▁평소에	-13069
▁평점만	-13070
▁하늘을	-13071
▁하시는	-13072
▁한국이	-13073
▁허무함	-13074
▁허접함	-13075
▁화난다	-13076
▁후속편	-13077
▁흔하디	-13078
▁흥미가	-13079
나오는거	-13080
나왔으면	-13081
났습니다	-13082
아닌가요	-13083
아무것도	-13084
영화라니	-13085
점이라니	-13086
처음부터	-13087
하더군요	-13088
▁1000	-13089
▁가족끼리	-13090
▁감독님이	-13091
▁감성적인	-13092
▁개연성은	-13093
▁관대하다	-13094
▁괜찮지만	-13095
▁기억하고	-13096
▁나오면서	-13097
▁너무하다	-13098
▁다가온다	-13099
▁담겨있는	-13100
▁대작이다	-13101
▁돋보였던	-13102
▁돌아가고	-13103
▁디테일한	-13104
▁따뜻하다	-13105
▁로맨스를	-13106
▁메시지는	-13107
▁못했지만	-13108
▁반전영화	-13109
▁벌어지는	-13110
▁별하나도	-13111
▁보는듯한	-13112
▁생각해요	-13113
▁선생님이	-13114
▁손꼽히는	-13115
▁시간여행	-13116
▁시리즈로	-13117
▁식상하고	-13118
▁신비로운	-13119
▁싶어지는	-13120
▁쌍팔년도	-13121
▁쓰레기도	-13122
▁아이들도	-13123
▁안타까울	-13124
▁알수있는	-13125
▁액션씬이	-13126
▁어디선가	-13127
▁어릴적에	-13128
▁어벤져스	-13129
▁어이없네	-13130
▁여자들은	-13131
▁영화까지	-13132
▁영화들을	-13133
▁영화보면	-13134
▁오래오래	-13135
▁으리으리	-13136
▁이야기로	-13137
▁인상깊은	-13138
▁재밌게봄	-13139
▁재밌겠다	-13140
▁전하고자	-13141
▁조잡하고	-13142
▁주인공과	-13143
▁줄거리는	-13144
▁천녀유혼	-13145
▁판타지를	-13146
▁필요할까	-13147
▁하루종일	-13148
▁현실성도	-13149
뻔한스토리	-13150
영화보면서	-13151
▁괜찮았어요	-13152
▁그렇다치고	-13153
▁기대하면서	-13154
▁내용이지만	-13155
▁뒤로갈수록	-13156
▁드라마에서	-13157
▁모르겠으나	-13158
▁볼만하던데	-13159
▁사람으로서	-13160
▁스토리라인	-13161
▁억지스러움	-13162
▁인상깊었다	-13163
▁작품이라고	-13164
▁재미없던데	-13165
▁지루합니다	-13166
▁최악이었다	-13167
▁해피엔딩이	-13168
▁감사드립니다	-13169
▁애니메이션을	-13170
▁최고의드라마	-13171
EC	-13172
_=	-13173
ᄀᄀ	-13174
▁ᅡ	-13175
▁귓	-13176
▁랭	-13177
▁밧	-13178
▁뷰	-13179
▁샀	-13180
▁숫	-13181
▁좁	-13182
▁챔	-13183
▁펄	-13184
가끔	-13185
개월	-13186
검색	-13187
겟음	-13188
계에	-13189
고어	-13190
관에	-13191
기리	-13192
끝이	-13193
낮게	-13194
년생	-13195
노무	-13196
노키	-13197
느낀	-13198
다메	-13199
단지	-13200
대신	-13201
더블	-13202
도못	-13203
동일	-13204
된게	-13205
러리	-13206
력과	-13207
로가	-13208
론을	-13209
리던	-13210
린데	-13211
먼이	-13212
면도	-13213
모자	-13214
무협	-13215
민을	-13216
받지	-13217
밤에	-13218
버렷	-13219
보냐	-13220
본듯	-13221
볼타	-13222
부대	-13223
분열	-13224
브로	-13225
비한	-13226
사상	-13227
살짝	-13228
상관	-13229
상식	-13230
세트	-13231
소니	-13232
수한	-13233
슬링	-13234
시윤	-13235
시즘	-13236
신경	-13237
신과	-13238
실한	-13239
어낸	-13240
어주	-13241
에여	-13242
여친	-13243
예상	-13244
와라	-13245
유천	-13246
으다	-13247
은이	-13248
이군	-13249
인기	-13250
장창	-13251
줬음	-13252
짜고	-13253
찍고	-13254
찍은	-13255
최강	-13256
침을	-13257
타닉	-13258
포스	-13259
포장	-13260
피의	-13261
현이	-13262
황당	-13263
..3	-13264
///	-13265
500	-13266
uck	-13267
▁22	-13268
▁PD	-13269
▁강예	-13270
▁개빡	-13271
▁경쟁	-13272
▁고고	-13273
▁고향	-13274
▁골든	-13275
▁공개	-13276
▁과감	-13277
▁구할	-13278
▁그중	-13279
▁김규	-13280
▁김창	-13281
▁나나	-13282
▁남지	-13283
▁놀랄	-13284
▁높고	-13285
▁놓칠	-13286
▁다는	-13287
▁다죽	-13288
▁대다	-13289
▁되냐	-13290
▁드릅	-13291
▁드릴	-13292
▁마땅	-13293
▁많지	-13294
▁맞고	-13295
▁먹어	-13296
▁미워	-13297
▁바꿀	-13298
▁배슬	-13299
▁백미	-13300
▁밴드	-13301
▁봣다	-13302
▁분신	-13303
▁빨아	-13304
▁산다	-13305
▁상당	-13306
▁샤말	-13307
▁서사	-13308
▁서세	-13309
▁선율	-13310
▁소오	-13311
▁손오	-13312
▁스탠	-13313
▁스탭	-13314
▁신성	-13315
▁아따	-13316
▁아시	-13317
▁아휴	-13318
▁안듬	-13319
▁안전	-13320
▁압박	-13321
▁약을	-13322
▁어긋	-13323
▁얻은	-13324
▁오덕	-13325
▁우월	-13326
▁유전	-13327
▁윤아	-13328
▁의아	-13329
▁인과	-13330
▁인듯	-13331
▁인연	-13332
▁인줄	-13333
▁임팩	-13334
▁자매	-13335
▁작업	-13336
▁작작	-13337
▁작정	-13338
▁잡은	-13339
▁저딴	-13340
▁적합	-13341
▁정글	-13342
▁제공	-13343
▁졸립	-13344
▁좋구	-13345
▁좌절	-13346
▁중심	-13347
▁지네	-13348
▁징그	-13349
▁짱나	-13350
▁채우	-13351
▁책이	-13352
▁쳐다	-13353
▁최종	-13354
▁취급	-13355
▁치곤	-13356
▁치닫	-13357
▁친절	-13358
▁키워	-13359
▁터지	-13360
▁통한	-13361
▁파헤	-13362
▁피디	-13363
▁한몫	-13364
▁한쪽	-13365
▁할듯	-13366
▁합쳐	-13367
▁했어	-13368
▁형태	-13369
▁흡사	-13370
개연성	-13371
귀여워	-13372
극장판	-13373
들과의	-13374
들이여	-13375
렸지만	-13376
리는게	-13377
만해도	-13378
무서워	-13379
박하고	-13380
버리네	-13381
본건데	-13382
봤을때	-13383
부분만	-13384
분들께	-13385
사회의	-13386
생각해	-13387
소재는	-13388
수없다	-13389
스트너	-13390
쒸레기	-13391
애들도	-13392
없었음	-13393
연기자	-13394
연출이	-13395
왜이래	-13396
원작을	-13397
인건가	-13398
점수를	-13399
정신이	-13400
주는거	-13401
중인데	-13402
편이나	-13403
평점에	-13404
할머니	-13405
했었던	-13406
화부터	-13407
----	-13408
▁6.5	-13409
▁가운데	-13410
▁가치는	-13411
▁각각의	-13412
▁개실망	-13413
▁고딩때	-13414
▁고맙다	-13415
▁구리고	-13416
▁귀요미	-13417
▁그러니	-13418
▁급하게	-13419
▁기회를	-13420
▁꽃보다	-13421
▁나같은	-13422
▁나타난	-13423
▁나혼자	-13424
▁내평점	-13425
▁놀래키	-13426
▁다루는	-13427
▁다문화	-13428
▁당할순	-13429
▁대단함	-13430
▁돌아온	-13431
▁또다시	-13432
▁똑같다	-13433
▁리스트	-13434
▁맞지만	-13435
▁먹칠을	-13436
▁몰랐던	-13437
▁무리수	-13438
▁무작정	-13439
▁뭔내용	-13440
▁미국은	-13441
▁미래의	-13442
▁밑에분	-13443
▁바뀌고	-13444
▁발견한	-13445
▁보고또	-13446
▁보시는	-13447
▁보였다	-13448
▁봤는대	-13449
▁부실한	-13450
▁불멸의	-13451
▁빠르고	-13452
▁사랑할	-13453
▁살아갈	-13454
▁새로울	-13455
▁색감이	-13456
▁생각과	-13457
▁생각남	-13458
▁생뚱맞	-13459
▁생생한	-13460
▁시키는	-13461
▁신기할	-13462
▁실력이	-13463
▁실망을	-13464
▁아팠다	-13465
▁안나올	-13466
▁안들어	-13467
▁약빨고	-13468
▁어울릴	-13469
▁언니가	-13470
▁얼굴을	-13471
▁없는지	-13472
▁없으며	-13473
▁역량이	-13474
▁영혼이	-13475
▁예술가	-13476
▁오늘은	-13477
▁이감독	-13478
▁이것을	-13479
▁이러지	-13480
▁이름만	-13481
▁이쁘네	-13482
▁이자벨	-13483
▁있겠다	-13484
▁있기에	-13485
▁있는것	-13486
▁있었지	-13487
▁자체로	-13488
▁장근석	-13489
▁장애인	-13490
▁재미업	-13491
▁전개를	-13492
▁조금더	-13493
▁조악한	-13494
▁주제곡	-13495
▁죽어도	-13496
▁지독한	-13497
▁진하게	-13498
▁짜여진	-13499
▁짧지만	-13500
▁찍어도	-13501
▁추천함	-13502
▁충무로	-13503
▁친구와	-13504
▁친일파	-13505
▁콘서트	-13506
▁타이밍	-13507
▁팬인데	-13508
▁피터팬	-13509
▁하시길	-13510
▁하야오	-13511
▁하여금	-13512
▁한국식	-13513
▁해줘서	-13514
▁했어야	-13515
▁히치콕	-13516
▁히틀러	-13517
그렇다고	-13518
남는영화	-13519
노잼노잼	-13520
만으로는	-13521
시리즈중	-13522
인것같다	-13523
점줍니다	-13524
주고싶다	-13525
캐릭터가	-13526
하기에는	-13527
▁-_-;	-13528
▁2002	-13529
▁2006	-13530
▁2009	-13531
▁감동까지	-13532
▁결혼하고	-13533
▁관점에서	-13534
▁그러니까	-13535
▁꼭보시길	-13536
▁나오지만	-13537
▁남는영화	-13538
▁네이버는	-13539
▁눈물난다	-13540
▁다시보면	-13541
▁달달하고	-13542
▁드림웍스	-13543
▁들어가는	-13544
▁만드는게	-13545
▁말하려고	-13546
▁매끄럽지	-13547
▁먹먹하고	-13548
▁보는사람	-13549
▁보이는데	-13550
▁본시리즈	-13551
▁본영화중	-13552
▁볼만하고	-13553
▁브라이언	-13554
▁사라지고	-13555
▁생각해볼	-13556
▁섬세하고	-13557
▁성장영화	-13558
▁스릴러도	-13559
▁신선했다	-13560
▁아까운데	-13561
▁아름다워	-13562
▁아버지와	-13563
▁안됩니다	-13564
▁안보는데	-13565
▁알았네요	-13566
▁알았지만	-13567
▁압권이다	-13568
▁엔딩까지	-13569
▁연출이나	-13570
▁열받아서	-13571
▁엽기적인	-13572
▁올레티비	-13573
▁옴니버스	-13574
▁왜이러냐	-13575
▁왜이러지	-13576
▁욕하면서	-13577
▁유치원생	-13578
▁이유없이	-13579
▁있는영화	-13580
▁있었을까	-13581
▁잔잔하다	-13582
▁재밌지만	-13583
▁잼있는데	-13584
▁잼있었음	-13585
▁줄거리도	-13586
▁줄거리에	-13587
▁중국영화	-13588
▁지금보니	-13589
▁지루함과	-13590
▁질질끌고	-13591
▁집중하게	-13592
▁처음보는	-13593
▁풀어가는	-13594
▁하루하루	-13595
▁하지말고	-13596
▁한번보고	-13597
재미도없고	-13598
...!!!	-13599
▁너무재미있	-13600
▁네이버에서	-13601
▁떨어지지만	-13602
▁리메이크작	-13603
▁만들어내는	-13604
▁만들었다면	-13605
▁소름돋는다	-13606
▁스토리텔링	-13607
▁아담샌들러	-13608
▁아쉽습니다	-13609
▁알았습니다	-13610
▁여주인공도	-13611
▁이런쓰레기	-13612
▁잊혀지지가	-13613
▁잔인하기만	-13614
▁조금이라도	-13615
▁좋은영화다	-13616
▁죽여버리고	-13617
▁충격적이다	-13618
▁감동적이예요	-13619
▁기대이상으로	-13620
▁내인생최고의	-13621
▁등장인물들이	-13622
▁무슨생각으로	-13623
▁미션임파서블	-13624
▁해피엔딩으로	-13625
▁수고하셨습니다	-13626
?.	-13627
SF	-13628
av	-13629
ge	-13630
gt	-13631
▁꺄	-13632
▁꽂	-13633
▁낄	-13634
▁띠	-13635
▁래	-13636
▁샹	-13637
▁셰	-13638
▁쩜	-13639
▁쭈	-13640
▁펑	-13641
▁험	-13642
▁헝	-13643
개뿔	-13644
겹고	-13645
고만	-13646
광수	-13647
국을	-13648
군데	-13649
그대	-13650
그럴	-13651
긴데	-13652
꺼임	-13653
껀데	-13654
날에	-13655
닥터	-13656
대요	-13657
대인	-13658
되었	-13659
등이	-13660
딩이	-13661
딱지	-13662
라구	-13663
레터	-13664
르르	-13665
리암	-13666
마라	-13667
뭐임	-13668
배가	-13669
봤어	-13670
부부	-13671
비행	-13672
산다	-13673
색이	-13674
생크	-13675
세번	-13676
소문	-13677
쉬는	-13678
스랑	-13679
슴다	-13680
시걸	-13681
신지	-13682
쏘는	-13683
씬을	-13684
안이	-13685
양반	-13686
어려	-13687
연습	-13688
올려	-13689
우성	-13690
웃고	-13691
위는	-13692
이연	-13693
일로	-13694
자극	-13695
잔아	-13696
죽은	-13697
지노	-13698
지상	-13699
츠의	-13700
퍼스	-13701
포기	-13702
포드	-13703
폭행	-13704
피가	-13705
할순	-13706
해질	-13707
호는	-13708
확인	-13709
힐링	-13710
art	-13711
▁AV	-13712
▁up	-13713
▁ᄂᄂ	-13714
▁ᄌᄅ	-13715
▁감싸	-13716
▁개망	-13717
▁경기	-13718
▁계시	-13719
▁고집	-13720
▁공격	-13721
▁곽지	-13722
▁국뽕	-13723
▁귀한	-13724
▁균형	-13725
▁근거	-13726
▁금치	-13727
▁급급	-13728
▁기반	-13729
▁깨우	-13730
▁나지	-13731
▁남한	-13732
▁너도	-13733
▁놀람	-13734
▁놀이	-13735
▁눈감	-13736
▁당췌	-13737
▁대구	-13738
▁대여	-13739
▁독재	-13740
▁동의	-13741
▁두뇌	-13742
▁두서	-13743
▁따지	-13744
▁딴짓	-13745
▁딸을	-13746
▁마르	-13747
▁며칠	-13748
▁면도	-13749
▁몰고	-13750
▁몰려	-13751
▁무뇌	-13752
▁무방	-13753
▁뭐든	-13754
▁뭘말	-13755
▁박용	-13756
▁박철	-13757
▁반항	-13758
▁배제	-13759
▁백만	-13760
▁벌레	-13761
▁법한	-13762
▁벗고	-13763
▁베르	-13764
▁베일	-13765
▁변명	-13766
▁분은	-13767
▁빠졌	-13768
▁사정	-13769
▁살았	-13770
▁살지	-13771
▁성지	-13772
▁셜록	-13773
▁소비	-13774
▁속아	-13775
▁수영	-13776
▁아리	-13777
▁아자	-13778
▁안티	-13779
▁알맹	-13780
▁야마	-13781
▁야쿠	-13782
▁양반	-13783
▁어필	-13784
▁에스	-13785
▁에혀	-13786
▁오줌	-13787
▁욕할	-13788
▁우마	-13789
▁우베	-13790
▁울었	-13791
▁유니	-13792
▁유작	-13793
▁윤제	-13794
▁의식	-13795
▁이모	-13796
▁이시	-13797
▁일제	-13798
▁잃어	-13799
▁자료	-13800
▁자빠	-13801
▁작살	-13802
▁잘라	-13803
▁잠만	-13804
▁잠재	-13805
▁잡을	-13806
▁장기	-13807
▁장편	-13808
▁재연	-13809
▁재일	-13810
▁적어	-13811
▁전범	-13812
▁조롱	-13813
▁종결	-13814
▁주네	-13815
▁주장	-13816
▁중고	-13817
▁지날	-13818
▁지능	-13819
▁질러	-13820
▁짜고	-13821
▁짧고	-13822
▁추상	-13823
▁쿠바	-13824
▁탈을	-13825
▁트와	-13826
▁특집	-13827
▁포커	-13828
▁호강	-13829
▁홀로	-13830
▁획기	-13831
▁효민	-13832
▁힘듬	-13833
각기동	-13834
개드림	-13835
겟어요	-13836
넘치고	-13837
노래도	-13838
는다면	-13839
달리는	-13840
데리고	-13841
배우를	-13842
보는거	-13843
본다면	-13844
부일체	-13845
분들의	-13846
빠지고	-13847
뻔하고	-13848
설정이	-13849
쇄살인	-13850
아름다	-13851
았다고	-13852
어주는	-13853
열심히	-13854
예쁘고	-13855
으려나	-13856
으려다	-13857
이구나	-13858
이나마	-13859
이런걸	-13860
일지도	-13861
자신을	-13862
자체도	-13863
코드가	-13864
티비티	-13865
할말이	-13866
할수있	-13867
회까지	-13868
bbbb	-13869
zzzz	-13870
▁197	-13871
▁Bad	-13872
▁가지게	-13873
▁감동에	-13874
▁갑이다	-13875
▁강하다	-13876
▁개봉작	-13877
▁개성이	-13878
▁개인적	-13879
▁개짜증	-13880
▁공포의	-13881
▁과거에	-13882
▁과하게	-13883
▁그걸로	-13884
▁그녀를	-13885
▁그러고	-13886
▁김남길	-13887
▁까메오	-13888
▁꼬라지	-13889
▁내리는	-13890
▁넘친다	-13891
▁노력은	-13892
▁능력이	-13893
▁다가오	-13894
▁대박나	-13895
▁돋는다	-13896
▁되는지	-13897
▁드릅게	-13898
▁드리고	-13899
▁들어오	-13900
▁들었음	-13901
▁마피아	-13902
▁말대로	-13903
▁매력도	-13904
▁멋졌다	-13905
▁모처럼	-13906
▁못한게	-13907
▁뭐하러	-13908
▁바람피	-13909
▁밖에는	-13910
▁발전이	-13911
▁보다도	-13912
▁볼만은	-13913
▁봉태규	-13914
▁봤어도	-13915
▁봤으나	-13916
▁분들께	-13917
▁빠르게	-13918
▁사소한	-13919
▁사실은	-13920
▁상황과	-13921
▁소설의	-13922
▁소설이	-13923
▁수준도	-13924
▁시선이	-13925
▁시절이	-13926
▁신동엽	-13927
▁심장을	-13928
▁싶었음	-13929
▁쓸쓸한	-13930
▁아시는	-13931
▁아직은	-13932
▁아픔과	-13933
▁악역이	-13934
▁애들용	-13935
▁야동을	-13936
▁어렵게	-13937
▁어색함	-13938
▁어울려	-13939
▁엉망인	-13940
▁엉성함	-13941
▁여고생	-13942
▁여운과	-13943
▁예술이	-13944
▁오래전	-13945
▁욕심이	-13946
▁용기를	-13947
▁우정이	-13948
▁유머와	-13949
▁이러냐	-13950
▁이선균	-13951
▁이순신	-13952
▁이지만	-13953
▁인간에	-13954
▁임수정	-13955
▁있을듯	-13956
▁자체의	-13957
▁장난이	-13958
▁잼있고	-13959
▁전쟁에	-13960
▁제작한	-13961
▁조용한	-13962
▁주는거	-13963
▁주셔서	-13964
▁주지훈	-13965
▁죽었다	-13966
▁처음봄	-13967
▁초점을	-13968
▁초호화	-13969
▁최강의	-13970
▁추억돋	-13971
▁추억에	-13972
▁코믹물	-13973
▁쿠엔틴	-13974
▁투자한	-13975
▁티비에	-13976
▁퍼펙트	-13977
▁포기한	-13978
▁포장한	-13979
▁하여간	-13980
▁한방에	-13981
▁한번에	-13982
▁했다고	-13983
▁헛소리	-13984
▁현재의	-13985
꼭보세요	-13986
다는건지	-13987
보고싶은	-13988
봤는데도	-13989
사랑해요	-13990
스오피스	-13991
신분들은	-13992
아이들이	-13993
액션영화	-13994
에서부터	-13995
이라이트	-13996
이야기를	-13997
잘봤어요	-13998
적으로도	-13999
채널에서	-14000
하기만한	-14001
하셨어요	-14002
한국영화	-14003
해야하나	-14004
했을텐데	-14005
.,.,.	-14006
▁2007	-14007
▁love	-14008
▁가슴으로	-14009
▁궁금하게	-14010
▁귀엽네요	-14011
▁극장개봉	-14012
▁기대보다	-14013
▁기분나쁜	-14014
▁나오는게	-14015
▁남습니다	-14016
▁내취향은	-14017
▁너무재밋	-14018
▁노잼이다	-14019
▁느끼는게	-14020
▁늘어지는	-14021
▁단순하고	-14022
▁도대체가	-14023
▁로맨스도	-14024
▁명작중의	-14025
▁몰입도를	-14026
▁무시하고	-14027
▁민주주의	-14028
▁반복되는	-14029
▁별로지만	-14030
▁볼거리는	-14031
▁볼까말까	-14032
▁봤을때는	-14033
▁불가능한	-14034
▁빠져들어	-14035
▁상업영화	-14036
▁상영시간	-14037
▁상황에서	-14038
▁생각된다	-14039
▁생생하다	-14040
▁샤를리즈	-14041
▁슈퍼액션	-14042
▁스토리만	-14043
▁시간아깝	-14044
▁시청자가	-14045
▁안젤리나	-14046
▁않았어요	-14047
▁암걸리는	-14048
▁어이없게	-14049
▁여고괴담	-14050
▁예상되는	-14051
▁오유에서	-14052
▁우울하고	-14053
▁웃기려고	-14054
▁이딴영화	-14055
▁이때까지	-14056
▁이쁘네요	-14057
▁인상깊다	-14058
▁임팩트가	-14059
▁있어야지	-14060
▁있었으나	-14061
▁재미까지	-14062
▁재밌게봤	-14063
▁제목부터	-14064
▁존재한다	-14065
▁중요한건	-14066
▁쥬라기공	-14067
▁즐거웠다	-14068
▁코미디의	-14069
▁크리스마	-14070
▁평점테러	-14071
▁표정연기	-14072
▁현실에서	-14073
▁흥미롭다	-14074
본영화중에	-14075
재밌었는데	-14076
추천합니다	-14077
▁1,2,3	-14078
▁감동이네요	-14079
▁개연성없는	-14080
▁궁금하네요	-14081
▁모든면에서	-14082
▁뭔내용인지	-14083
▁생각해보면	-14084
▁싶을정도로	-14085
▁아이디어가	-14086
▁안타깝지만	-14087
▁영화였네요	-14088
▁있었을텐데	-14089
▁친구들이랑	-14090
▁킬링타임도	-14091
▁테러리스트	-14092
▁모르겠습니다	-14093
ᅲᅲᅲᅲᅲᅲᅲᅲᅲᅲᅲᅲᅲᅲᅲᅲ	-14094
▁ᄏᄏᄏᄏᄏᄏᄏᄏᄏᄏᄏᄏᄏᄏᄏ	-14095
0^	-14096
bl	-14097
gm	-14098
~6	-14099
~?	-14100
~^	-14101
▁z	-14102
▁‘	-14103
▁껍	-14104
▁뤽	-14105
▁르	-14106
▁릴	-14107
▁벙	-14108
▁쉰	-14109
▁앗	-14110
▁훗	-14111
결이	-14112
국가	-14113
기전	-14114
길바	-14115
남고	-14116
났네	-14117
낼수	-14118
님도	-14119
당신	-14120
데가	-14121
돼지	-14122
되야	-14123
된거	-14124
둘다	-14125
드릴	-14126
디스	-14127
란의	-14128
런스	-14129
력은	-14130
류에	-14131
리뷰	-14132
릴수	-14133
마니	-14134
만치	-14135
많아	-14136
먹어	-14137
면에	-14138
뭉클	-14139
뭐라	-14140
미달	-14141
변화	-14142
불편	-14143
블록	-14144
블리	-14145
비밀	-14146
삶을	-14147
상처	-14148
서로	-14149
선징	-14150
성만	-14151
성형	-14152
수종	-14153
시킴	-14154
식상	-14155
심리	-14156
심심	-14157
아놔	-14158
안보	-14159
앓이	-14160
앤더	-14161
어져	-14162
역이	-14163
연씨	-14164
영원	-14165
올리	-14166
욕이	-14167
우월	-14168
울고	-14169
유루	-14170
이럴	-14171
잇음	-14172
있었	-14173
자매	-14174
자살	-14175
잔데	-14176
잤다	-14177
조선	-14178
종교	-14179
죽이	-14180
지경	-14181
지난	-14182
지던	-14183
지라	-14184
진한	-14185
질뻔	-14186
쩔어	-14187
쯤은	-14188
차게	-14189
차기	-14190
참나	-14191
천만	-14192
축구	-14193
출신	-14194
코비	-14195
크래	-14196
클럽	-14197
탐정	-14198
터져	-14199
토가	-14200
통쾌	-14201
파리	-14202
폐지	-14203
프가	-14204
했냐	-14205
.25	-14206
▁-1	-14207
▁44	-14208
▁av	-14209
▁sm	-14210
▁ᄉᄀ	-14211
▁ᄉᄉ	-14212
▁가요	-14213
▁강남	-14214
▁거친	-14215
▁건달	-14216
▁곁에	-14217
▁계단	-14218
▁고루	-14219
▁고쳐	-14220
▁곳에	-14221
▁관찰	-14222
▁그레	-14223
▁그릇	-14224
▁그후	-14225
▁근본	-14226
▁기어	-14227
▁기원	-14228
▁긴급	-14229
▁끊어	-14230
▁나른	-14231
▁날카	-14232
▁노인	-14233
▁높음	-14234
▁누워	-14235
▁늦은	-14236
▁니미	-14237
▁님들	-14238
▁덕후	-14239
▁도움	-14240
▁돋는	-14241
▁동경	-14242
▁동원	-14243
▁디지	-14244
▁딸의	-14245
▁마련	-14246
▁말길	-14247
▁말까	-14248
▁망상	-14249
▁먹은	-14250
▁메릴	-14251
▁명량	-14252
▁모건	-14253
▁모래	-14254
▁무미	-14255
▁무어	-14256
▁반개	-14257
▁발암	-14258
▁배두	-14259
▁버림	-14260
▁변함	-14261
▁본드	-14262
▁불우	-14263
▁비가	-14264
▁비긴	-14265
▁빨려	-14266
▁사례	-14267
▁사장	-14268
▁산타	-14269
▁삼천	-14270
▁새드	-14271
▁서글	-14272
▁성질	-14273
▁손을	-14274
▁수다	-14275
▁수호	-14276
▁시점	-14277
▁시킨	-14278
▁썰렁	-14279
▁쓰면	-14280
▁쓴다	-14281
▁안달	-14282
▁얘네	-14283
▁얻을	-14284
▁없죠	-14285
▁에디	-14286
▁엠비	-14287
▁여군	-14288
▁와나	-14289
▁왜들	-14290
▁외에	-14291
▁요란	-14292
▁욕설	-14293
▁용의	-14294
▁웃다	-14295
▁워킹	-14296
▁웬지	-14297
▁유준	-14298
▁으으	-14299
▁이랬	-14300
▁이명	-14301
▁이브	-14302
▁입고	-14303
▁잉여	-14304
▁잼남	-14305
▁저건	-14306
▁저격	-14307
▁점도	-14308
▁제주	-14309
▁종북	-14310
▁종종	-14311
▁좌빨	-14312
▁좌좀	-14313
▁죄책	-14314
▁주의	-14315
▁지껄	-14316
▁지내	-14317
▁지닌	-14318
▁지리	-14319
▁질이	-14320
▁쩔고	-14321
▁청소	-14322
▁춤을	-14323
▁충족	-14324
▁튀어	-14325
▁폭파	-14326
▁피로	-14327
▁한듯	-14328
▁해병	-14329
▁해운	-14330
▁회복	-14331
▁후려	-14332
▁희극	-14333
가보다	-14334
가치가	-14335
같지만	-14336
게리온	-14337
겠구나	-14338
결말은	-14339
고있는	-14340
기대를	-14341
나는데	-14342
내인생	-14343
대에서	-14344
더구만	-14345
되는게	-14346
된다고	-14347
드래곤	-14348
때리고	-14349
떄문에	-14350
릅니다	-14351
만들기	-14352
만이쁨	-14353
모로우	-14354
못한다	-14355
무섭다	-14356
미니즘	-14357
보게되	-14358
보니깐	-14359
보여주	-14360
봤을까	-14361
분까지	-14362
새로운	-14363
선징악	-14364
소설을	-14365
스라엘	-14366
스럽네	-14367
시기를	-14368
십니까	-14369
안나오	-14370
안나옴	-14371
어나서	-14372
어이가	-14373
역사상	-14374
였다는	-14375
으므로	-14376
인이다	-14377
일텐데	-14378
자신이	-14379
정말로	-14380
제목이	-14381
좋았던	-14382
케이블	-14383
하려다	-14384
해야만	-14385
핵노잼	-14386
OOOO	-14387
oooo	-14388
▁(10	-14389
▁^-^	-14390
▁가깝다	-14391
▁가는데	-14392
▁강력한	-14393
▁개명작	-14394
▁것들은	-14395
▁결말의	-14396
▁관람가	-14397
▁구석이	-14398
▁그래요	-14399
▁그런게	-14400
▁그정도	-14401
▁근래에	-14402
▁기분나	-14403
▁기억남	-14404
▁기존의	-14405
▁꼽히는	-14406
▁끌리는	-14407
▁끝나면	-14408
▁나가고	-14409
▁나오나	-14410
▁나와는	-14411
▁나이를	-14412
▁남아도	-14413
▁낫다고	-14414
▁내생의	-14415
▁놀라게	-14416
▁놀라고	-14417
▁담겨져	-14418
▁대기업	-14419
▁대사에	-14420
▁돋보인	-14421
▁되겠다	-14422
▁되다니	-14423
▁되버린	-14424
▁두가지	-14425
▁맙소사	-14426
▁모를까	-14427
▁묘사가	-14428
▁무개념	-14429
▁뭐하자	-14430
▁미개한	-14431
▁미성년	-14432
▁미치지	-14433
▁배우에	-14434
▁베리굿	-14435
▁별로네	-14436
▁별론데	-14437
▁별점은	-14438
▁보라는	-14439
▁보시고	-14440
▁본다는	-14441
▁봤건만	-14442
▁부성애	-14443
▁비교도	-14444
▁비오는	-14445
▁뽀로로	-14446
▁사건이	-14447
▁사나이	-14448
▁살인자	-14449
▁생각날	-14450
▁설명은	-14451
▁설정도	-14452
▁세번째	-14453
▁쇼생크	-14454
▁슬로우	-14455
▁시작한	-14456
▁시절을	-14457
▁아까웠	-14458
▁안되게	-14459
▁앞서간	-14460
▁애틋한	-14461
▁어쨋든	-14462
▁없는거	-14463
▁없는것	-14464
▁여동생	-14465
▁여름에	-14466
▁역겹고	-14467
▁열정과	-14468
▁오페라	-14469
▁올만에	-14470
▁왜그러	-14471
▁외모가	-14472
▁요즘엔	-14473
▁욕나옴	-14474
▁용가리	-14475
▁우리를	-14476
▁우리와	-14477
▁우리집	-14478
▁원작도	-14479
▁은은한	-14480
▁이러면	-14481
▁이수근	-14482
▁이슬람	-14483
▁이용해	-14484
▁이준기	-14485
▁일반인	-14486
▁있다가	-14487
▁있을때	-14488
▁자체다	-14489
▁조연들	-14490
▁좋으면	-14491
▁좋은듯	-14492
▁진리다	-14493
▁진수를	-14494
▁진실은	-14495
▁짜증날	-14496
▁차인표	-14497
▁채널을	-14498
▁첫장면	-14499
▁클로즈	-14500
▁테스트	-14501
▁투성이	-14502
▁평가할	-14503
▁포스가	-14504
▁하나다	-14505
▁하더라	-14506
▁한번만	-14507
▁해보고	-14508
▁행동을	-14509
▁향수를	-14510
▁흥행을	-14511
게만드는	-14512
나는영화	-14513
다고해서	-14514
드라마의	-14515
들때문에	-14516
무엇보다	-14517
보지마셈	-14518
본방사수	-14519
사랑하는	-14520
생각하고	-14521
아버지가	-14522
용으로도	-14523
이었다면	-14524
인줄알고	-14525
재밌었다	-14526
재밌었음	-14527
잼있어요	-14528
하긴한데	-14529
할때마다	-14530
해야한다	-14531
해지네요	-14532
,,,,,	-14533
ᅲᅲᅲᅲᅲ	-14534
▁감독이나	-14535
▁감정표현	-14536
▁개나소나	-14537
▁개성있는	-14538
▁것입니다	-14539
▁괜찮다고	-14540
▁그런대로	-14541
▁그이하도	-14542
▁기다리는	-14543
▁기대하게	-14544
▁기발하고	-14545
▁나올법한	-14546
▁난무하는	-14547
▁남주인공	-14548
▁너무좋다	-14549
▁네이버에	-14550
▁녹아있는	-14551
▁느낄수있	-14552
▁댓글알바	-14553
▁뛰어나다	-14554
▁로드리게	-14555
▁만드는데	-14556
▁말도안돼	-14557
▁맘에든다	-14558
▁몇년전에	-14559
▁미화시킨	-14560
▁발연기가	-14561
▁버금가는	-14562
▁보지말고	-14563
▁봤는데요	-14564
▁봤던건데	-14565
▁분위기만	-14566
▁블루레이	-14567
▁비슷해서	-14568
▁빠져든다	-14569
▁섬세하게	-14570
▁소소하게	-14571
▁순간순간	-14572
▁스릴러는	-14573
▁시간아까	-14574
▁시사회로	-14575
▁식스센스	-14576
▁실망스러	-14577
▁안나오나	-14578
▁안무서움	-14579
▁안무섭다	-14580
▁어색하지	-14581
▁어정쩡한	-14582
▁연기들이	-14583
▁연예인이	-14584
▁영상미에	-14585
▁영화ᄏᄏ	-14586
▁영화로만	-14587
▁영화보단	-14588
▁왔다갔다	-14589
▁웃기기도	-14590
▁유치하기	-14591
▁음악까지	-14592
▁이리저리	-14593
▁이스라엘	-14594
▁있다는걸	-14595
▁있을까요	-14596
▁재미있었	-14597
▁전혀없는	-14598
▁제목처럼	-14599
▁제외하면	-14600
▁조폭영화	-14601
▁좋았네요	-14602
▁주인공인	-14603
▁줄거리를	-14604
▁중구난방	-14605
▁중심으로	-14606
▁지루했던	-14607
▁진지하고	-14608
▁찍었을까	-14609
▁찾아가는	-14610
▁천재적인	-14611
▁최악이네	-14612
▁치밀하고	-14613
▁편안하게	-14614
▁포스터를	-14615
▁형편없다	-14616
▁흥미롭지	-14617
영화제에서	-14618
재밌었어요	-14619
~~~~~~	-14620
▁감동이에요	-14621
▁고등학교때	-14622
▁그로테스크	-14623
▁내용도없고	-14624
▁너무재밌게	-14625
▁너무하네요	-14626
▁누구에게나	-14627
▁느껴지네요	-14628
▁대단하다고	-14629
▁드라마인데	-14630
▁보여줬는데	-14631
▁볼만한영화	-14632
▁사람들에겐	-14633
▁실망입니다	-14634
▁아기자기한	-14635
▁영화보다는	-14636
▁이건아니다	-14637
▁이딴영화가	-14638
▁일본영화가	-14639
▁재미없는데	-14640
▁전달하고자	-14641
▁조금이나마	-14642
▁토이스토리	-14643
▁트와일라잇	-14644
▁프로그램이	-14645
▁다시보고싶은	-14646
▁말이필요없음	-14647
▁좋은영화입니다	-14648
!!!!!!!!!!!	-14649
.~	-14650
/2	-14651
df	-14652
~3	-14653
ᄉᄋ	-14654
ᅳᅮ	-14655
▁괘	-14656
▁껄	-14657
▁껴	-14658
▁낡	-14659
▁돕	-14660
▁떳	-14661
▁란	-14662
▁룰	-14663
▁얕	-14664
▁왼	-14665
▁즈	-14666
▁쯔	-14667
▁탔	-14668
▁톡	-14669
▁틴	-14670
▁훅	-14671
감성	-14672
값이	-14673
걸음	-14674
겁다	-14675
고리	-14676
구구	-14677
그가	-14678
기네	-14679
기발	-14680
꿈을	-14681
끈다	-14682
나나	-14683
남친	-14684
났고	-14685
노소	-14686
느꼈	-14687
니를	-14688
니콜	-14689
데스	-14690
들게	-14691
들인	-14692
디다	-14693
뜬금	-14694
라드	-14695
락을	-14696
란게	-14697
러지	-14698
레알	-14699
렸을	-14700
마를	-14701
매일	-14702
먹음	-14703
몇번	-14704
모델	-14705
모도	-14706
무한	-14707
물가	-14708
미야	-14709
바꿔	-14710
발로	-14711
백한	-14712
법을	-14713
베스	-14714
브이	-14715
빈이	-14716
사무	-14717
사투	-14718
생명	-14719
서를	-14720
세대	-14721
세월	-14722
세의	-14723
소서	-14724
습니	-14725
시각	-14726
애씨	-14727
애의	-14728
어쩜	-14729
에의	-14730
연결	-14731
왜케	-14732
외엔	-14733
우석	-14734
은지	-14735
응원	-14736
의도	-14737
일드	-14738
자다	-14739
장군	-14740
정돈	-14741
제국	-14742
졸잼	-14743
주혁	-14744
진리	-14745
진부	-14746
질러	-14747
천히	-14748
치며	-14749
치지	-14750
캐리	-14751
캔들	-14752
쿠삭	-14753
키드	-14754
탄생	-14755
통을	-14756
튼의	-14757
파는	-14758
포트	-14759
해낸	-14760
호구	-14761
환의	-14762
황후	-14763
흘러	-14764
OOD	-14765
her	-14766
▁It	-14767
▁No	-14768
▁XX	-14769
▁on	-14770
▁가다	-14771
▁갈릴	-14772
▁강박	-14773
▁개가	-14774
▁건드	-14775
▁걷는	-14776
▁걸려	-14777
▁걸릴	-14778
▁것의	-14779
▁고만	-14780
▁골라	-14781
▁곳이	-14782
▁공산	-14783
▁구림	-14784
▁그룹	-14785
▁글래	-14786
▁금성	-14787
▁긍정	-14788
▁기절	-14789
▁김상	-14790
▁꾸밈	-14791
▁꾸역	-14792
▁낄낄	-14793
▁남이	-14794
▁낫네	-14795
▁낯설	-14796
▁누굴	-14797
▁눈도	-14798
▁눈은	-14799
▁대립	-14800
▁돈에	-14801
▁되요	-14802
▁될것	-14803
▁될지	-14804
▁두렵	-14805
▁디비	-14806
▁따른	-14807
▁똥칠	-14808
▁뜻이	-14809
▁리부	-14810
▁리브	-14811
▁마술	-14812
▁만듦	-14813
▁멸망	-14814
▁명절	-14815
▁무모	-14816
▁무튼	-14817
▁물리	-14818
▁미셸	-14819
▁민간	-14820
▁밍밍	-14821
▁바램	-14822
▁반의	-14823
▁변질	-14824
▁보냐	-14825
▁보수	-14826
▁보편	-14827
▁부재	-14828
▁브금	-14829
▁비포	-14830
▁뻔함	-14831
▁사서	-14832
▁삼각	-14833
▁서영	-14834
▁서유	-14835
▁서태	-14836
▁솔찍	-14837
▁쇼킹	-14838
▁숀펜	-14839
▁수목	-14840
▁수술	-14841
▁수습	-14842
▁슬플	-14843
▁안믿	-14844
▁안성	-14845
▁애는	-14846
▁애쓰	-14847
▁양키	-14848
▁영호	-14849
▁오리	-14850
▁울려	-14851
▁울음	-14852
▁이뿌	-14853
▁이와	-14854
▁인위	-14855
▁일은	-14856
▁작렬	-14857
▁잡다	-14858
▁장선	-14859
▁재벌	-14860
▁잭슨	-14861
▁잼따	-14862
▁잼이	-14863
▁적인	-14864
▁전파	-14865
▁접한	-14866
▁조미	-14867
▁조성	-14868
▁존스	-14869
▁죽임	-14870
▁줄줄	-14871
▁진자	-14872
▁짙은	-14873
▁찌푸	-14874
▁추적	-14875
▁축하	-14876
▁침략	-14877
▁킬빌	-14878
▁타입	-14879
▁태극	-14880
▁토르	-14881
▁편히	-14882
▁프랭	-14883
▁학원	-14884
▁했고	-14885
▁행운	-14886
▁형성	-14887
▁호평	-14888
▁호화	-14889
▁휴가	-14890
▁휴지	-14891
▁흠뻑	-14892
▁히스	-14893
♡♡♡	-14894
감독과	-14895
감으로	-14896
개막장	-14897
거같고	-14898
관람가	-14899
귀엽고	-14900
끝날때	-14901
남네요	-14902
내시간	-14903
내용에	-14904
느낌의	-14905
는건지	-14906
동영상	-14907
되는거	-14908
되는지	-14909
드럽게	-14910
들었다	-14911
들인가	-14912
레이터	-14913
렸을때	-14914
만들면	-14915
만한데	-14916
무서움	-14917
받아야	-14918
보라고	-14919
사랑해	-14920
산으로	-14921
세계를	-14922
시디어	-14923
실에서	-14924
싶네요	-14925
어야할	-14926
역시나	-14927
였는지	-14928
완성도	-14929
요일이	-14930
우면서	-14931
을거다	-14932
인거지	-14933
잇어요	-14934
있다고	-14935
자에게	-14936
전개도	-14937
주의에	-14938
지금은	-14939
지마요	-14940
지모르	-14941
진짜로	-14942
차이가	-14943
치면서	-14944
터지고	-14945
투성이	-14946
폰으로	-14947
필요가	-14948
하는걸	-14949
하셔서	-14950
했구나	-14951
했던거	-14952
!!^^	-14953
...)	-14954
▁sbs	-14955
▁ᄊᄅᄀ	-14956
▁가문의	-14957
▁가족은	-14958
▁각본을	-14959
▁감성에	-14960
▁감정에	-14961
▁갔다가	-14962
▁걸작을	-14963
▁겁나게	-14964
▁경찰이	-14965
▁고마워	-14966
▁관객은	-14967
▁그려진	-14968
▁극대화	-14969
▁극치를	-14970
▁금요일	-14971
▁긴박감	-14972
▁김수로	-14973
▁김정은	-14974
▁깨달음	-14975
▁나라는	-14976
▁나온게	-14977
▁나올수	-14978
▁나타내	-14979
▁남동생	-14980
▁남들이	-14981
▁노다메	-14982
▁놀라움	-14983
▁높은거	-14984
▁놓치지	-14985
▁누구를	-14986
▁눈물샘	-14987
▁느껴야	-14988
▁느낌과	-14989
▁다큐의	-14990
▁단어가	-14991
▁담아내	-14992
▁대박임	-14993
▁데이트	-14994
▁두려움	-14995
▁두려워	-14996
▁뒤돌아	-14997
▁마동석	-14998
▁마모루	-14999
▁막무가	-15000
▁만큼의	-15001
▁맛있는	-15002
▁매력과	-15003
▁멀쩡한	-15004
▁모니카	-15005
▁목적이	-15006
▁몸매가	-15007
▁몸부림	-15008
▁못봤다	-15009
▁무난한	-15010
▁무리가	-15011
▁무표정	-15012
▁미묘한	-15013
▁믿을수	-15014
▁바꿔라	-15015
▁바치는	-15016
▁박신혜	-15017
▁박유천	-15018
▁변하는	-15019
▁보는건	-15020
▁보아야	-15021
▁부분에	-15022
▁불편함	-15023
▁비극을	-15024
▁비참한	-15025
▁생각안	-15026
▁설정을	-15027
▁성격이	-15028
▁소방관	-15029
▁슬픔과	-15030
▁시걸의	-15031
▁시작해	-15032
▁시청율	-15033
▁신은경	-15034
▁심하네	-15035
▁싱크로	-15036
▁씨리즈	-15037
▁아는데	-15038
▁안되지	-15039
▁않다는	-15040
▁않은가	-15041
▁애잔한	-15042
▁양심도	-15043
▁어울림	-15044
▁얼굴에	-15045
▁없이도	-15046
▁엉뚱한	-15047
▁엔딩도	-15048
▁여진구	-15049
▁역사는	-15050
▁연기들	-15051
▁오디션	-15052
▁와진짜	-15053
▁우리도	-15054
▁월드컵	-15055
▁웨슬리	-15056
▁유아인	-15057
▁유익한	-15058
▁음모론	-15059
▁의지가	-15060
▁이기는	-15061
▁이렇다	-15062
▁이루는	-15063
▁이유도	-15064
▁일상의	-15065
▁자기만	-15066
▁자리를	-15067
▁자막이	-15068
▁자연의	-15069
▁잔인함	-15070
▁잘봤음	-15071
▁재밋네	-15072
▁재밌냐	-15073
▁전개로	-15074
▁전작을	-15075
▁전체를	-15076
▁절묘한	-15077
▁정재영	-15078
▁정확한	-15079
▁제레미	-15080
▁주는데	-15081
▁즐거워	-15082
▁지겹고	-15083
▁지금이	-15084
▁짠하고	-15085
▁짱인듯	-15086
▁찌질이	-15087
▁찍어서	-15088
▁채민서	-15089
▁철학이	-15090
▁최후의	-15091
▁코믹도	-15092
▁키드먼	-15093
▁토할뻔	-15094
▁파치노	-15095
▁팬이라	-15096
▁풍부한	-15097
▁필요도	-15098
▁하고자	-15099
▁하나경	-15100
▁하나씩	-15101
▁행복은	-15102
▁허니잼	-15103
▁홍진호	-15104
▁화면도	-15105
▁화면에	-15106
답답하고	-15107
대한민국	-15108
생각나서	-15109
생각보다	-15110
시리즈는	-15111
아니지만	-15112
아아아아	-15113
이었는데	-15114
적이었다	-15115
점준거중	-15116
▁1990	-15117
▁9~10	-15118
▁this	-15119
▁견자단이	-15120
▁그럴듯한	-15121
▁그려냈다	-15122
▁그립네요	-15123
▁기대하며	-15124
▁기본적인	-15125
▁기억속에	-15126
▁나오길래	-15127
▁나중에는	-15128
▁내용없는	-15129
▁내인생에	-15130
▁넘어가는	-15131
▁느껴져서	-15132
▁느낌으로	-15133
▁다른사람	-15134
▁담백하게	-15135
▁돈아까운	-15136
▁돈아까움	-15137
▁돈아깝고	-15138
▁동생이랑	-15139
▁들었는데	-15140
▁떨어져서	-15141
▁롱테이크	-15142
▁만들었지	-15143
▁명작이지	-15144
▁목소리는	-15145
▁무서웠음	-15146
▁무협영화	-15147
▁방황하는	-15148
▁배우들과	-15149
▁벗어나지	-15150
▁별로였던	-15151
▁보석같은	-15152
▁봤던영화	-15153
▁부담없이	-15154
▁부족함이	-15155
▁상관없이	-15156
▁생각밖에	-15157
▁생각하니	-15158
▁서스펜스	-15159
▁섹시하고	-15160
▁순수하게	-15161
▁순수함을	-15162
▁숨어있는	-15163
▁스포일러	-15164
▁시원시원	-15165
▁신기하고	-15166
▁아저씨가	-15167
▁애들한테	-15168
▁어거지로	-15169
▁어색해서	-15170
▁어이없어	-15171
▁어찌보면	-15172
▁여자애가	-15173
▁연기들도	-15174
▁영화로써	-15175
▁영화사에	-15176
▁영화평점	-15177
▁유머러스	-15178
▁유치하게	-15179
▁이제그만	-15180
▁있었네요	-15181
▁자막으로	-15182
▁자신에게	-15183
▁재밋던데	-15184
▁정신없이	-15185
▁제목으로	-15186
▁지나가는	-15187
▁촌스럽지	-15188
▁친구에게	-15189
▁타이타닉	-15190
▁파격적인	-15191
▁평점너무	-15192
▁하는구나	-15193
▁해주길래	-15194
▁확실하게	-15195
▁후반부는	-15196
▁후회한다	-15197
▁흡입력이	-15198
감동적이다	-15199
만이쁨여주	-15200
보고싶어요	-15201
스럽습니다	-15202
영화라지만	-15203
최고입니다	-15204
하긴하지만	-15205
!!♥!!♥	-15206
▁나도모르게	-15207
▁드라마중에	-15208
▁매력적이고	-15209
▁사랑과전쟁	-15210
▁사랑입니다	-15211
▁생각한다면	-15212
▁시간아까운	-15213
▁시사회에서	-15214
▁심리묘사가	-15215
▁아니더라도	-15216
▁어쩔수없이	-15217
▁에니메이션	-15218
▁에반게리온	-15219
▁인터스텔라	-15220
▁자극적이고	-15221
▁주인공으로	-15222
▁지루하기도	-15223
▁하이라이트	-15224
▁한국영화를	-15225
▁흥미진진하게	-15226
▁재밌게봤습니다	-15227
▁기대안하고봤는데	-15228
!"	-15229
).	-15230
-)	-15231
-_	-15232
>.	-15233
?(	-15234
ma	-15235
ry	-15236
th	-15237
▁ᄎ	-15238
▁“	-15239
▁굵	-15240
▁꽥	-15241
▁닫	-15242
▁댓	-15243
▁랜	-15244
▁몹	-15245
▁빤	-15246
▁샬	-15247
▁솟	-15248
▁썻	-15249
▁엎	-15250
▁줫	-15251
▁촉	-15252
▁퀄	-15253
▁펠	-15254
가까	-15255
가득	-15256
갈수	-15257
겠니	-15258
고의	-15259
공간	-15260
공을	-15261
관념	-15262
관은	-15263
구여	-15264
굳굳	-15265
귀가	-15266
그걸	-15267
그로	-15268
기들	-15269
깊이	-15270
꼬박	-15271
꾸역	-15272
끈한	-15273
나입	-15274
내놔	-15275
내라	-15276
넘어	-15277
놓는	-15278
눈빛	-15279
다녀	-15280
다섯	-15281
다이	-15282
댄스	-15283
드류	-15284
랜든	-15285
런지	-15286
려구	-15287
력의	-15288
련한	-15289
마부	-15290
막극	-15291
만난	-15292
만남	-15293
많네	-15294
먹기	-15295
묘사	-15296
밀라	-15297
밖의	-15298
배를	-15299
번의	-15300
범인	-15301
부짖	-15302
북한	-15303
빵빵	-15304
사장	-15305
생긴	-15306
세용	-15307
셨다	-15308
수현	-15309
신다	-15310
신히	-15311
아웃	-15312
안감	-15313
양은	-15314
어릴	-15315
언젠	-15316
에나	-15317
예전	-15318
옥빈	-15319
요원	-15320
욕을	-15321
용석	-15322
우우	-15323
울이	-15324
으루	-15325
이뻐	-15326
인디	-15327
인터	-15328
잇게	-15329
자본	-15330
잡이	-15331
전과	-15332
전도	-15333
전투	-15334
조각	-15335
조작	-15336
좀더	-15337
종의	-15338
좋앗	-15339
중심	-15340
춰진	-15341
칙칙	-15342
칼립	-15343
크는	-15344
키가	-15345
트랙	-15346
표절	-15347
프만	-15348
피디	-15349
피언	-15350
하심	-15351
합이	-15352
호강	-15353
혹한	-15354
환을	-15355
환이	-15356
흑흑	-15357
--;	-15358
..'	-15359
^.^	-15360
ᄒᄃᄃ	-15361
▁27	-15362
▁3.	-15363
▁93	-15364
▁go	-15365
▁ᄆᄎ	-15366
▁간접	-15367
▁견뎌	-15368
▁관능	-15369
▁관리	-15370
▁구석	-15371
▁그곳	-15372
▁근친	-15373
▁기계	-15374
▁기부	-15375
▁김두	-15376
▁김아	-15377
▁깊다	-15378
▁끄고	-15379
▁끌려	-15380
▁넘잼	-15381
▁넣고	-15382
▁네이	-15383
▁농구	-15384
▁느려	-15385
▁대로	-15386
▁더해	-15387
▁동심	-15388
▁되네	-15389
▁되니	-15390
▁두분	-15391
▁딸과	-15392
▁뗄수	-15393
▁리더	-15394
▁말론	-15395
▁멈출	-15396
▁모범	-15397
▁못잡	-15398
▁묘미	-15399
▁무릎	-15400
▁무명	-15401
▁뭘본	-15402
▁박상	-15403
▁박재	-15404
▁박힌	-15405
▁발악	-15406
▁법을	-15407
▁보인	-15408
▁복귀	-15409
▁본적	-15410
▁비둘	-15411
▁사연	-15412
▁살해	-15413
▁생길	-15414
▁서른	-15415
▁서우	-15416
▁세대	-15417
▁소나	-15418
▁소수	-15419
▁수업	-15420
▁수위	-15421
▁수학	-15422
▁스콜	-15423
▁스턴	-15424
▁스테	-15425
▁시망	-15426
▁시퀀	-15427
▁싶고	-15428
▁싸이	-15429
▁써야	-15430
▁쓸모	-15431
▁안줄	-15432
▁안함	-15433
▁않길	-15434
▁알면	-15435
▁알앗	-15436
▁앵글	-15437
▁언더	-15438
▁연구	-15439
▁연령	-15440
▁예정	-15441
▁완존	-15442
▁요한	-15443
▁웅장	-15444
▁위선	-15445
▁유년	-15446
▁유도	-15447
▁유산	-15448
▁유선	-15449
▁유튜	-15450
▁육체	-15451
▁은행	-15452
▁이가	-15453
▁이입	-15454
▁이집	-15455
▁일대	-15456
▁입을	-15457
▁잘짜	-15458
▁잡지	-15459
▁장백	-15460
▁장인	-15461
▁장화	-15462
▁재활	-15463
▁저능	-15464
▁전의	-15465
▁절절	-15466
▁조건	-15467
▁조악	-15468
▁죄악	-15469
▁주려	-15470
▁주식	-15471
▁주저	-15472
▁준수	-15473
▁중딩	-15474
▁지역	-15475
▁지쳐	-15476
▁지친	-15477
▁진작	-15478
▁집안	-15479
▁짓을	-15480
▁쫓아	-15481
▁창문	-15482
▁찾게	-15483
▁책은	-15484
▁책읽	-15485
▁청순	-15486
▁최신	-15487
▁최우	-15488
▁추석	-15489
▁치면	-15490
▁침몰	-15491
▁케미	-15492
▁크라	-15493
▁퇴마	-15494
▁퇴폐	-15495
▁파일	-15496
▁패스	-15497
▁필립	-15498
▁한회	-15499
▁해군	-15500
▁해설	-15501
▁했지	-15502
▁허우	-15503
▁허준	-15504
▁형식	-15505
▁홍경	-15506
▁활동	-15507
가에서	-15508
감정이	-15509
같았다	-15510
거기다	-15511
것들은	-15512
괜찮은	-15513
구성이	-15514
꼭봐야	-15515
나와라	-15516
는지는	-15517
다보니	-15518
도저히	-15519
된영화	-15520
들처럼	-15521
라마바	-15522
리는거	-15523
많아서	-15524
많은데	-15525
무조건	-15526
보는줄	-15527
보다더	-15528
보비치	-15529
본적이	-15530
부르는	-15531
부분을	-15532
분으로	-15533
빠지게	-15534
사랑의	-15535
사랑이	-15536
살짜리	-15537
선생님	-15538
셨는데	-15539
소리만	-15540
시간은	-15541
시간의	-15542
시절의	-15543
시하는	-15544
아닐까	-15545
아이를	-15546
안본다	-15547
어보이	-15548
억지로	-15549
엔딩이	-15550
여자는	-15551
영화와	-15552
오그라	-15553
으니깐	-15554
이러스	-15555
인건지	-15556
인생을	-15557
입니당	-15558
자체는	-15559
작가는	-15560
잘어울	-15561
주의자	-15562
준영화	-15563
지면서	-15564
충분히	-15565
포칼립	-15566
하게만	-15567
하겠네	-15568
한거임	-15569
했기에	-15570
...;	-15571
reat	-15572
▁1~2	-15573
▁7~8	-15574
▁^^*	-15575
▁bgm	-15576
▁bor	-15577
▁but	-15578
▁가난한	-15579
▁가볍지	-15580
▁가족들	-15581
▁개그는	-15582
▁개망작	-15583
▁개봉할	-15584
▁개졸작	-15585
▁개쩐다	-15586
▁건질게	-15587
▁게이는	-15588
▁결과가	-15589
▁결말만	-15590
▁경쾌한	-15591
▁고질라	-15592
▁공감대	-15593
▁그치만	-15594
▁기대됨	-15595
▁기대할	-15596
▁김래원	-15597
▁김민준	-15598
▁김창완	-15599
▁나무랄	-15600
▁나서도	-15601
▁나오냐	-15602
▁나온건	-15603
▁낚였어	-15604
▁남녀의	-15605
▁낮은듯	-15606
▁너무낮	-15607
▁넣어서	-15608
▁놀랍고	-15609
▁다있냐	-15610
▁담백한	-15611
▁대학교	-15612
▁더빙판	-15613
▁데스노	-15614
▁도가니	-15615
▁뒤통수	-15616
▁드라큐	-15617
▁드러난	-15618
▁들어요	-15619
▁듯하다	-15620
▁떠나는	-15621
▁뜬금포	-15622
▁류승룡	-15623
▁마음도	-15624
▁만들까	-15625
▁만화로	-15626
▁많이나	-15627
▁말처럼	-15628
▁맞는듯	-15629
▁모아서	-15630
▁못본게	-15631
▁못하면	-15632
▁못해도	-15633
▁무한한	-15634
▁문제다	-15635
▁물체가	-15636
▁바뀌는	-15637
▁바람에	-15638
▁배역이	-15639
▁범인은	-15640
▁보내고	-15641
▁보내는	-15642
▁본다고	-15643
▁본사람	-15644
▁본인은	-15645
▁봐야될	-15646
▁부끄러	-15647
▁브로디	-15648
▁빠르기	-15649
▁뻔하디	-15650
▁사랑함	-15651
▁사이에	-15652
▁사춘기	-15653
▁사회가	-15654
▁성장기	-15655
▁세계가	-15656
▁순간의	-15657
▁순수함	-15658
▁스트레	-15659
▁스펙터	-15660
▁슬펐던	-15661
▁신경을	-15662
▁싶을때	-15663
▁쒸레기	-15664
▁악당이	-15665
▁안가네	-15666
▁안되냐	-15667
▁안보길	-15668
▁안봤다	-15669
▁어렵고	-15670
▁어쩐지	-15671
▁얼굴은	-15672
▁엄마를	-15673
▁없군요	-15674
▁여자도	-15675
▁역사가	-15676
▁역사와	-15677
▁연기며	-15678
▁열연이	-15679
▁열정을	-15680
▁였어요	-15681
▁예술적	-15682
▁요즘에	-15683
▁울나라	-15684
▁울트라	-15685
▁원작인	-15686
▁윤계상	-15687
▁이렇지	-15688
▁이상형	-15689
▁이용한	-15690
▁일본에	-15691
▁있도록	-15692
▁있으신	-15693
▁자전거	-15694
▁자존심	-15695
▁잼있어	-15696
▁저지른	-15697
▁전쟁은	-15698
▁제외한	-15699
▁존나게	-15700
▁좀비가	-15701
▁지나면	-15702
▁지르고	-15703
▁지못미	-15704
▁질질끄	-15705
▁짜증을	-15706
▁짱짱짱	-15707
▁찍었다	-15708
▁총으로	-15709
▁추천할	-15710
▁충격과	-15711
▁치밀어	-15712
▁케로로	-15713
▁케서방	-15714
▁크로우	-15715
▁탕웨이	-15716
▁평가는	-15717
▁평점높	-15718
▁표현된	-15719
▁풍경이	-15720
▁하는짓	-15721
▁한국을	-15722
▁한지민	-15723
▁합리화	-15724
▁했네요	-15725
▁했어도	-15726
▁형제의	-15727
▁호기심	-15728
▁흐른다	-15729
▁희생을	-15730
▁힐링이	-15731
▁힘들고	-15732
▁힘들듯	-15733
♡♥♡♥	-15734
거같아서	-15735
다시한번	-15736
대단하다	-15737
들에게도	-15738
때문인지	-15739
분보다가	-15740
영화라는	-15741
영화인지	-15742
이정도면	-15743
인들에게	-15744
재미있어	-15745
좋겠어요	-15746
좋았는데	-15747
지도않은	-15748
지루해서	-15749
지못하고	-15750
처음으로	-15751
최악이다	-15752
하는건데	-15753
하지않는	-15754
한거같다	-15755
해보이는	-15756
흥미진진	-15757
..!!!	-15758
...10	-15759
..;;;	-15760
▁2011	-15761
▁4000	-15762
▁GOOD	-15763
▁가능성을	-15764
▁감독이다	-15765
▁감안해도	-15766
▁괜찮아요	-15767
▁교훈적인	-15768
▁극장판이	-15769
▁나오는건	-15770
▁나오니까	-15771
▁나이먹고	-15772
▁남자친구	-15773
▁너무했다	-15774
▁단편영화	-15775
▁대부분의	-15776
▁두번이나	-15777
▁들었어요	-15778
▁마지막을	-15779
▁막무가내	-15780
▁만든거지	-15781
▁만큼이나	-15782
▁말해준다	-15783
▁매력있고	-15784
▁매력적임	-15785
▁메시지도	-15786
▁명작으로	-15787
▁모자이크	-15788
▁목소리도	-15789
▁별로던데	-15790
▁보여지는	-15791
▁볼수없는	-15792
▁불쌍하고	-15793
▁비교된다	-15794
▁사람인데	-15795
▁산만하다	-15796
▁상관없는	-15797
▁수준낮은	-15798
▁순수함이	-15799
▁스토리라	-15800
▁시작된다	-15801
▁실화라서	-15802
▁씁쓸하다	-15803
▁아까웠음	-15804
▁아버지는	-15805
▁아쉬운건	-15806
▁아쉬울뿐	-15807
▁안가네요	-15808
▁안나오네	-15809
▁안무섭고	-15810
▁안주는데	-15811
▁않았다면	-15812
▁압도적인	-15813
▁어렷을때	-15814
▁어이상실	-15815
▁어쩌라는	-15816
▁억지웃음	-15817
▁엄마한테	-15818
▁없는건가	-15819
▁영화같음	-15820
▁영화군요	-15821
▁영화라도	-15822
▁예술이다	-15823
▁오래도록	-15824
▁올라갈때	-15825
▁외국영화	-15826
▁우주전쟁	-15827
▁위대하다	-15828
▁이거밖에	-15829
▁이거보면	-15830
▁이야기라	-15831
▁이정도의	-15832
▁인피니트	-15833
▁작품성을	-15834
▁잔인하다	-15835
▁잘하시고	-15836
▁재밌구만	-15837
▁재밌으면	-15838
▁저버리지	-15839
▁정체성을	-15840
▁제작진이	-15841
▁조연들의	-15842
▁종교적인	-15843
▁최고예요	-15844
▁최소한의	-15845
▁추구하는	-15846
▁친구들이	-15847
▁친구한테	-15848
▁클라이막	-15849
▁판타스틱	-15850
▁팬이지만	-15851
▁평점으로	-15852
▁표현하는	-15853
▁한국인이	-15854
▁할말없다	-15855
▁할머니가	-15856
▁할수있는	-15857
▁해주네요	-15858
것만으로도	-15859
이었습니다	-15860
재미없어요	-15861
▁기대되네요	-15862
▁기대했건만	-15863
▁기본적으로	-15864
▁느낄수있는	-15865
▁느낌이었다	-15866
▁되돌아보게	-15867
▁들었습니다	-15868
▁만들어놓고	-15869
▁반지의제왕	-15870
▁사람으로써	-15871
▁사랑이라는	-15872
▁사이코패스	-15873
▁수작이라고	-15874
▁쓰레기라는	-15875
▁아름다워요	-15876
▁안남기는데	-15877
▁안드로메다	-15878
▁움직이거나	-15879
▁일본영화의	-15880
▁잘만든영화	-15881
▁장난아니다	-15882
▁저예산으로	-15883
▁정말재밌게	-15884
▁찾아봤는데	-15885
▁처음이었다	-15886
▁한국영화에	-15887
▁아름다운영화	-15888
▁인상적이었다	-15889
▁재미없었어요	-15890
▁하나만으로도	-15891
/3	-15892
_+	-15893
ab	-15894
gh	-15895
os	-15896
ᄅᄅ	-15897
▁Z	-15898
▁★	-15899
▁꾀	-15900
▁뉘	-15901
▁딜	-15902
▁랄	-15903
▁뺀	-15904
▁뻘	-15905
▁썅	-15906
▁씌	-15907
▁씻	-15908
▁앳	-15909
▁쫙	-15910
▁켜	-15911
▁큼	-15912
▁킴	-15913
▁텔	-15914
▁톤	-15915
▁힛	-15916
겁나	-15917
겄다	-15918
경험	-15919
고가	-15920
과거	-15921
관의	-15922
광이	-15923
국에	-15924
기며	-15925
기본	-15926
김기	-15927
끼는	-15928
나은	-15929
날듯	-15930
넬로	-15931
노는	-15932
노의	-15933
느낄	-15934
다행	-15935
단을	-15936
답지	-15937
당함	-15938
더가	-15939
드니	-15940
드레	-15941
든데	-15942
란걸	-15943
란드	-15944
람이	-15945
러드	-15946
렴풋	-15947
루지	-15948
를린	-15949
린건	-15950
릿한	-15951
매가	-15952
멋짐	-15953
모험	-15954
목을	-15955
못할	-15956
미로	-15957
미소	-15958
바퀴	-15959
발음	-15960
범이	-15961
벗고	-15962
보려	-15963
볼걸	-15964
봤고	-15965
봤나	-15966
부들	-15967
분량	-15968
분쯤	-15969
분투	-15970
비도	-15971
상상	-15972
서사	-15973
선정	-15974
성인	-15975
세에	-15976
소라	-15977
스톱	-15978
슨과	-15979
승리	-15980
시코	-15981
실제	-15982
았지	-15983
앨런	-15984
어게	-15985
어찌	-15986
어휴	-15987
없던	-15988
었군	-15989
에노	-15990
에야	-15991
연예	-15992
영혼	-15993
와요	-15994
왕짱	-15995
운다	-15996
울수	-15997
을줄	-15998
이구	-15999
이더	-16000
이병	-16001
이소	-16002
익은	-16003
인형	-16004
잘안	-16005
장판	-16006
잭맨	-16007
저의	-16008
전부	-16009
제라	-16010
제이	-16011
졌어	-16012
조용	-16013
조치	-16014
준비	-16015
줬던	-16016
차드	-16017
채영	-16018
출한	-16019
칠때	-16020
카의	-16021
커스	-16022
크게	-16023
타인	-16024
토벤	-16025
티티	-16026
파티	-16027
프의	-16028
하도	-16029
하에	-16030
행위	-16031
향을	-16032
호와	-16033
환경	-16034
희망	-16035
-0-	-16036
199	-16037
?;;	-16038
ect	-16039
ell	-16040
ime	-16041
~~♥	-16042
▁2.	-16043
▁26	-16044
▁4,	-16045
▁95	-16046
▁가깝	-16047
▁가질	-16048
▁개운	-16049
▁개쩔	-16050
▁거미	-16051
▁건담	-16052
▁겪는	-16053
▁견디	-16054
▁고난	-16055
▁공식	-16056
▁광기	-16057
▁광주	-16058
▁교도	-16059
▁글쓰	-16060
▁김유	-16061
▁김준	-16062
▁깔려	-16063
▁깨어	-16064
▁꼬박	-16065
▁나두	-16066
▁나약	-16067
▁남길	-16068
▁남상	-16069
▁너의	-16070
▁놀랬	-16071
▁다짐	-16072
▁답을	-16073
▁도로	-16074
▁됐지	-16075
▁되려	-16076
▁등에	-16077
▁등의	-16078
▁떠들	-16079
▁마시	-16080
▁마저	-16081
▁매니	-16082
▁목을	-16083
▁몸짓	-16084
▁못찾	-16085
▁무도	-16086
▁묵직	-16087
▁뭔말	-16088
▁바둑	-16089
▁바랄	-16090
▁박하	-16091
▁백번	-16092
▁버스	-16093
▁베니	-16094
▁부패	-16095
▁불교	-16096
▁붕괴	-16097
▁브리	-16098
▁사골	-16099
▁살자	-16100
▁상승	-16101
▁생김	-16102
▁서동	-16103
▁서지	-16104
▁섞여	-16105
▁성시	-16106
▁소련	-16107
▁소속	-16108
▁송중	-16109
▁수천	-16110
▁순위	-16111
▁숨겨	-16112
▁스텔	-16113
▁실천	-16114
▁심해	-16115
▁싼티	-16116
▁쌍벽	-16117
▁쓰잘	-16118
▁아르	-16119
▁아부	-16120
▁안해	-16121
▁억압	-16122
▁여느	-16123
▁였음	-16124
▁오른	-16125
▁온통	-16126
▁옮겨	-16127
▁왤캐	-16128
▁울궈	-16129
▁위기	-16130
▁위협	-16131
▁유희	-16132
▁으휴	-16133
▁이글	-16134
▁이면	-16135
▁이안	-16136
▁일기	-16137
▁일도	-16138
▁일진	-16139
▁입에	-16140
▁자녀	-16141
▁자의	-16142
▁잘되	-16143
▁잠자	-16144
▁장담	-16145
▁장수	-16146
▁장점	-16147
▁장황	-16148
▁잼써	-16149
▁저랑	-16150
▁저만	-16151
▁정경	-16152
▁조각	-16153
▁조한	-16154
▁종말	-16155
▁죽었	-16156
▁중견	-16157
▁진다	-16158
▁질주	-16159
▁짐작	-16160
▁차기	-16161
▁찬란	-16162
▁참내	-16163
▁처리	-16164
▁클럽	-16165
▁타는	-16166
▁타잔	-16167
▁탈락	-16168
▁평작	-16169
▁평타	-16170
▁표출	-16171
▁핑계	-16172
▁하실	-16173
▁한게	-16174
▁할일	-16175
▁해소	-16176
▁향기	-16177
▁허각	-16178
▁형이	-16179
감동적	-16180
같다는	-16181
거같네	-16182
거린다	-16183
게없다	-16184
굉장히	-16185
구장창	-16186
귀여운	-16187
귀엽다	-16188
그래요	-16189
기때문	-16190
끝나서	-16191
나이에	-16192
남긴다	-16193
는다고	-16194
다니엘	-16195
데없는	-16196
도좋고	-16197
됐지만	-16198
되었던	-16199
따뜻한	-16200
레스트	-16201
릴려고	-16202
말도안	-16203
머리가	-16204
보기는	-16205
봤는지	-16206
세계가	-16207
소리를	-16208
쇼스키	-16209
시네마	-16210
시대가	-16211
싶은데	-16212
싸이코	-16213
씁니다	-16214
아먹는	-16215
아이는	-16216
안보고	-16217
았는지	-16218
얘기가	-16219
어가고	-16220
어릴때	-16221
어지고	-16222
엄마가	-16223
연기짱	-16224
영환줄	-16225
워싱턴	-16226
을려고	-16227
이래서	-16228
이상한	-16229
이예요	-16230
일만에	-16231
있는게	-16232
있는지	-16233
장면에	-16234
전문가	-16235
주었다	-16236
주의의	-16237
지가않	-16238
지에서	-16239
질질끌	-16240
추억이	-16241
통으로	-16242
프스키	-16243
하도록	-16244
한거야	-16245
해보는	-16246
해줬다	-16247
햇어요	-16248
했을듯	-16249
1010	-16250
3456	-16251
^^;;	-16252
▁10,	-16253
▁5~6	-16254
▁ᅮᅮᅮ	-16255
▁강우석	-16256
▁같으니	-16257
▁거부감	-16258
▁것같다	-16259
▁것보다	-16260
▁결과물	-16261
▁고민을	-16262
▁곳곳에	-16263
▁공포와	-16264
▁공효진	-16265
▁과언이	-16266
▁교훈과	-16267
▁권하고	-16268
▁귀엽게	-16269
▁그런걸	-16270
▁그영화	-16271
▁길거리	-16272
▁길들여	-16273
▁나라면	-16274
▁나쁜놈	-16275
▁남아요	-16276
▁남자랑	-16277
▁남자인	-16278
▁내면을	-16279
▁내일이	-16280
▁놀랬다	-16281
▁눈물은	-16282
▁다르지	-16283
▁다큐는	-16284
▁다큐로	-16285
▁더준다	-16286
▁동화를	-16287
▁됬는데	-16288
▁들었던	-16289
▁따분한	-16290
▁따스한	-16291
▁딱봐도	-16292
▁때로는	-16293
▁마디로	-16294
▁말던가	-16295
▁말장난	-16296
▁말코비	-16297
▁망했다	-16298
▁매끄럽	-16299
▁맷데이	-16300
▁머리카	-16301
▁멜로물	-16302
▁모여서	-16303
▁모호한	-16304
▁묘사한	-16305
▁무고한	-16306
▁무식한	-16307
▁미래는	-16308
▁박한별	-16309
▁방송에	-16310
▁범죄를	-16311
▁보느라	-16312
▁보러가	-16313
▁보지않	-16314
▁부모가	-16315
▁분노를	-16316
▁불면증	-16317
▁빌려서	-16318
▁빠순이	-16319
▁빠지지	-16320
▁빠진다	-16321
▁뻔뻔한	-16322
▁상상도	-16323
▁새끼들	-16324
▁새롭다	-16325
▁샌들러	-16326
▁생기는	-16327
▁성공한	-16328
▁성우들	-16329
▁세기의	-16330
▁소설로	-16331
▁순진한	-16332
▁스나입	-16333
▁스릴과	-16334
▁심금을	-16335
▁아깝게	-16336
▁아이는	-16337
▁안나온	-16338
▁안들고	-16339
▁않았을	-16340
▁알았어	-16341
▁알지만	-16342
▁애국심	-16343
▁애니의	-16344
▁어렴풋	-16345
▁억지가	-16346
▁여인의	-16347
▁여행을	-16348
▁옆에서	-16349
▁와중에	-16350
▁외로움	-16351
▁우스꽝	-16352
▁우정과	-16353
▁울버린	-16354
▁울부짖	-16355
▁웨스턴	-16356
▁위안부	-16357
▁유머도	-16358
▁유승준	-16359
▁유해진	-16360
▁이걸로	-16361
▁이것만	-16362
▁이들의	-16363
▁이민정	-16364
▁이보단	-16365
▁이승기	-16366
▁이정현	-16367
▁이제껏	-16368
▁이하의	-16369
▁인디언	-16370
▁인물을	-16371
▁인상이	-16372
▁인연이	-16373
▁일본을	-16374
▁입가에	-16375
▁자격이	-16376
▁자비에	-16377
▁자식을	-16378
▁잠이나	-16379
▁재능이	-16380
▁재미짐	-16381
▁전율을	-16382
▁정서를	-16383
▁조인성	-16384
▁조지클	-16385
▁조화가	-16386
▁존쿠삭	-16387
▁졸작을	-16388
▁주는건	-16389
▁주제의	-16390
▁죽어나	-16391
▁죽음은	-16392
▁중국이	-16393
▁진실된	-16394
▁진실이	-16395
▁질린다	-16396
▁찝찝함	-16397
▁차이를	-16398
▁철저한	-16399
▁초월한	-16400
▁최지우	-16401
▁춤추는	-16402
▁커플이	-16403
▁크레이	-16404
▁클레이	-16405
▁토마스	-16406
▁판치는	-16407
▁편집도	-16408
▁풍기는	-16409
▁프리퀄	-16410
▁하더니	-16411
▁한두번	-16412
▁한명도	-16413
▁한이다	-16414
▁함께한	-16415
▁현실적	-16416
▁호흡이	-16417
▁화나는	-16418
▁화면은	-16419
▁흘러가	-16420
▁흥행이	-16421
나오는데	-16422
디에이터	-16423
스타일이	-16424
스토리에	-16425
시디어스	-16426
시리즈를	-16427
아쉽지만	-16428
영화보고	-16429
이나네요	-16430
점이상은	-16431
중간중간	-16432
지않아서	-16433
지지않는	-16434
진심으로	-16435
했던영화	-16436
~~!!!	-16437
▁Best	-16438
▁ever	-16439
▁간직하고	-16440
▁감안하고	-16441
▁같았는데	-16442
▁공각기동	-16443
▁관객들을	-16444
▁관객들의	-16445
▁기대하는	-16446
▁기독교인	-16447
▁깊이있는	-16448
▁꼽으라면	-16449
▁끔찍하다	-16450
▁끝났으면	-16451
▁나비효과	-16452
▁나뿐인가	-16453
▁나왔는지	-16454
▁나한테는	-16455
▁남자들은	-16456
▁남자배우	-16457
▁눈물나게	-16458
▁눈물나는	-16459
▁느와르의	-16460
▁늘어지고	-16461
▁다봤는데	-16462
▁다좋은데	-16463
▁당시에도	-16464
▁대단하고	-16465
▁드러나는	-16466
▁따라하기	-16467
▁또하나의	-16468
▁러브레터	-16469
▁만점짜리	-16470
▁매력있다	-16471
▁매트릭스	-16472
▁매혹적인	-16473
▁멋있네요	-16474
▁몰입감도	-16475
▁밀려오는	-16476
▁밀려온다	-16477
▁방식으로	-16478
▁별점테러	-16479
▁보았어요	-16480
▁보지마요	-16481
▁부끄럽다	-16482
▁불우이웃	-16483
▁불편했다	-16484
▁비디오용	-16485
▁색다르고	-16486
▁생각나고	-16487
▁생각났다	-16488
▁스타일은	-16489
▁스토리며	-16490
▁슬펐어요	-16491
▁시각으로	-16492
▁시끄럽고	-16493
▁시덥잖은	-16494
▁시시하고	-16495
▁시시하다	-16496
▁시어머니	-16497
▁시점에서	-16498
▁시청률은	-16499
▁싱크로율	-16500
▁싸이코패	-16501
▁쓰레기라	-16502
▁아깝다고	-16503
▁아니구나	-16504
▁아련하고	-16505
▁아쉬웠던	-16506
▁아주아주	-16507
▁아침부터	-16508
▁액션씬은	-16509
▁야한영화	-16510
▁야한장면	-16511
▁어느하나	-16512
▁어디에도	-16513
▁연쇄살인	-16514
▁영화구나	-16515
▁영화에는	-16516
▁영화여서	-16517
▁영화한편	-16518
▁예고편에	-16519
▁예쁘네요	-16520
▁오토바이	-16521
▁윌스미스	-16522
▁유발하는	-16523
▁이야기들	-16524
▁인도영화	-16525
▁일어나서	-16526
▁있는건지	-16527
▁작품성도	-16528
▁잘하는데	-16529
▁제목보고	-16530
▁좋아하던	-16531
▁좋았을걸	-16532
▁좋은작품	-16533
▁중학생때	-16534
▁지날수록	-16535
▁지니어스	-16536
▁지루한건	-16537
▁지루한데	-16538
▁처절하게	-16539
▁추천해요	-16540
▁토요명화	-16541
▁프로젝트	-16542
▁필요없이	-16543
▁하는영화	-16544
▁하면서도	-16545
▁한국에도	-16546
▁행복하다	-16547
▁현실감이	-16548
나다라마바	-16549
재밌습니다	-16550
▁괜찮은영화	-16551
▁노골적으로	-16552
▁다시보기로	-16553
▁등장인물들	-16554
▁또보고싶다	-16555
▁마지막에는	-16556
▁만들어버린	-16557
▁몇번을봐도	-16558
▁별로였는데	-16559
▁별로였어요	-16560
▁볼수있어서	-16561
▁봐야겠어요	-16562
▁생각됩니다	-16563
▁실망시키지	-16564
▁안나왔으면	-16565
▁어마어마한	-16566
▁업그레이드	-16567
▁연기력으로	-16568
▁우리나라도	-16569
▁유치하다고	-16570
▁이런드라마	-16571
▁이야기지만	-16572
▁잘어울리는	-16573
▁재미더럽게	-16574
▁재밌긴한데	-16575
▁전달하려는	-16576
▁지금에서야	-16577
▁후회합니다	-16578
▁마지막장면은	-16579
▁보고있습니다	-16580
▁쓰레기영화는	-16581
▁안좋아하는데	-16582
▁최고최고최고	-16583
▁흥미진진하다	-16584
▁기대하고봤는데	-16585
▁처음부터끝까지	-16586
▁평점조절위원회	-16587
▁시간가는줄모르고	-16588
!!!!!!!!!!	-16589
▁.........	-16590
!!!!!!!!!!!!	-16591
!!!!!!!!!!!!!!	-16592
????????????????	-16593
!'	-16594
+1	-16595
,4	-16596
-1	-16597
44	-16598
OD	-16599
ol	-16600
ri	-16601
~4	-16602
~5	-16603
ᅩᅩ	-16604
▁*	-16605
▁@	-16606
▁v	-16607
▁깃	-16608
▁깬	-16609
▁냅	-16610
▁득	-16611
▁램	-16612
▁삘	-16613
▁앜	-16614
▁얹	-16615
▁짭	-16616
▁쳤	-16617
▁쿄	-16618
▁핏	-16619
검사	-16620
것과	-16621
것임	-16622
격투	-16623
공룡	-16624
과도	-16625
관심	-16626
길을	-16627
너는	-16628
네스	-16629
단계	-16630
단말	-16631
답고	-16632
당께	-16633
대상	-16634
던게	-16635
데서	-16636
되니	-16637
된듯	-16638
될까	-16639
될지	-16640
듣는	-16641
디아	-16642
디의	-16643
따로	-16644
뛴다	-16645
레나	-16646
려원	-16647
렸고	-16648
로이	-16649
료로	-16650
마조	-16651
말투	-16652
망생	-16653
맞게	-16654
매매	-16655
머신	-16656
머프	-16657
먹지	-16658
멍청	-16659
모드	-16660
목숨	-16661
몰라	-16662
문학	-16663
미오	-16664
민우	-16665
민정	-16666
민족	-16667
밀한	-16668
박자	-16669
반성	-16670
방울	-16671
별반	-16672
보가	-16673
본능	-16674
본데	-16675
부른	-16676
부여	-16677
분간	-16678
불패	-16679
비로	-16680
비와	-16681
빨로	-16682
사바	-16683
성장	-16684
성재	-16685
소수	-16686
수와	-16687
시리	-16688
싫은	-16689
싶어	-16690
씬만	-16691
아래	-16692
아픔	-16693
앵글	-16694
어제	-16695
업고	-16696
여성	-16697
열에	-16698
와닿	-16699
와우	-16700
왔고	-16701
우를	-16702
우마	-16703
우며	-16704
우빈	-16705
윤아	-16706
이루	-16707
이치	-16708
인양	-16709
작렬	-16710
장진	-16711
전한	-16712
전화	-16713
젊은	-16714
점인	-16715
조폭	-16716
존스	-16717
주말	-16718
줄도	-16719
지리	-16720
지좀	-16721
질로	-16722
찍어	-16723
차를	-16724
찮은	-16725
참신	-16726
취급	-16727
치에	-16728
커녕	-16729
쿼터	-16730
크레	-16731
테고	-16732
테랑	-16733
토의	-16734
톨릭	-16735
티네	-16736
평해	-16737
포먼	-16738
폭발	-16739
피해	-16740
학대	-16741
한명	-16742
한숨	-16743
헤헤	-16744
호크	-16745
혹시	-16746
흔한	-16747
히로	-16748
히지	-16749
..(	-16750
..)	-16751
?!!	-16752
▁92	-16753
▁94	-16754
▁Th	-16755
▁ch	-16756
▁가네	-16757
▁강수	-16758
▁갖는	-16759
▁개미	-16760
▁거임	-16761
▁거칠	-16762
▁검사	-16763
▁견줄	-16764
▁결투	-16765
▁경각	-16766
▁고요	-16767
▁공동	-16768
▁괴기	-16769
▁구입	-16770
▁권장	-16771
▁권투	-16772
▁금발	-16773
▁기생	-16774
▁김병	-16775
▁깨고	-16776
▁꼽는	-16777
▁나갔	-16778
▁나네	-16779
▁낮을	-16780
▁내눈	-16781
▁내보	-16782
▁너를	-16783
▁넘나	-16784
▁년이	-16785
▁노란	-16786
▁놀아	-16787
▁누님	-16788
▁눈높	-16789
▁다봄	-16790
▁닮아	-16791
▁답습	-16792
▁대니	-16793
▁대만	-16794
▁도는	-16795
▁된거	-16796
▁됬다	-16797
▁들인	-16798
▁등을	-16799
▁딴거	-16800
▁때우	-16801
▁땜시	-16802
▁똥꼬	-16803
▁똥망	-16804
▁똥싸	-16805
▁러닝	-16806
▁막막	-16807
▁만다	-16808
▁맑은	-16809
▁매드	-16810
▁면을	-16811
▁무심	-16812
▁무자	-16813
▁미남	-16814
▁미지	-16815
▁바랬	-16816
▁바르	-16817
▁받지	-16818
▁발버	-16819
▁방어	-16820
▁벅차	-16821
▁범작	-16822
▁보상	-16823
▁보셨	-16824
▁부천	-16825
▁뷰티	-16826
▁비열	-16827
▁비춰	-16828
▁빌어	-16829
▁뻔해	-16830
▁사귀	-16831
▁사냥	-16832
▁사수	-16833
▁상쾌	-16834
▁샤워	-16835
▁선한	-16836
▁성기	-16837
▁세이	-16838
▁손이	-16839
▁스키	-16840
▁슴가	-16841
▁신발	-16842
▁심야	-16843
▁아낌	-16844
▁않냐	-16845
▁않으	-16846
▁애쓴	-16847
▁얘들	-16848
▁여인	-16849
▁여정	-16850
▁연개	-16851
▁열어	-16852
▁오죽	-16853
▁완결	-16854
▁왕자	-16855
▁용감	-16856
▁우웩	-16857
▁울뻔	-16858
▁웃어	-16859
▁원한	-16860
▁유연	-16861
▁음란	-16862
▁이국	-16863
▁이뭐	-16864
▁이분	-16865
▁이장	-16866
▁잃게	-16867
▁입은	-16868
▁입체	-16869
▁자부	-16870
▁작년	-16871
▁저럴	-16872
▁저번	-16873
▁점을	-16874
▁정성	-16875
▁조장	-16876
▁존예	-16877
▁졸음	-16878
▁좀만	-16879
▁좁은	-16880
▁주민	-16881
▁죽지	-16882
▁줬어	-16883
▁지긋	-16884
▁지브	-16885
▁지진	-16886
▁지킬	-16887
▁직원	-16888
▁집합	-16889
▁짓게	-16890
▁찾은	-16891
▁최루	-16892
▁치부	-16893
▁칙칙	-16894
▁콤비	-16895
▁타워	-16896
▁토마	-16897
▁토토	-16898
▁트렌	-16899
▁패륜	-16900
▁퍼시	-16901
▁편향	-16902
▁할것	-16903
▁허비	-16904
▁현장	-16905
▁후후	-16906
▁훌쩍	-16907
▁휘둘	-16908
▁흘릴	-16909
같은건	-16910
거라곤	-16911
겟지만	-16912
겠더라	-16913
과함께	-16914
나라의	-16915
노키오	-16916
덕화가	-16917
됐어요	-16918
되어서	-16919
들에겐	-16920
따구로	-16921
래이션	-16922
레쉬맨	-16923
리가라	-16924
마누라	-16925
만화가	-16926
멋있다	-16927
몰입이	-16928
못했다	-16929
물가물	-16930
베스트	-16931
베이터	-16932
보여서	-16933
보자고	-16934
볼만함	-16935
분보다	-16936
사랑과	-16937
사랑에	-16938
생각도	-16939
생각함	-16940
세기에	-16941
스크린	-16942
시간만	-16943
시사회	-16944
쓰래기	-16945
아빠가	-16946
았을까	-16947
어디가	-16948
없구만	-16949
었으나	-16950
여기서	-16951
여주는	-16952
연출력	-16953
영화야	-16954
영화지	-16955
울었다	-16956
을때가	-16957
음ᄏᄏ	-16958
의미로	-16959
이구만	-16960
자리에	-16961
작품은	-16962
점밖에	-16963
점이라	-16964
좋았고	-16965
주려고	-16966
주셔서	-16967
줄알았	-16968
지르고	-16969
지르르	-16970
청소년	-16971
초반에	-16972
추억의	-16973
콘서트	-16974
통사고	-16975
트리고	-16976
편이랑	-16977
한테도	-16978
할지도	-16979
할텐데	-16980
했어야	-16981
▁0.1	-16982
▁9.5	-16983
▁for	-16984
▁not	-16985
▁가지는	-16986
▁간신히	-16987
▁갈등과	-16988
▁갈리는	-16989
▁감독에	-16990
▁같았음	-16991
▁개웃김	-16992
▁거의다	-16993
▁건가요	-16994
▁걸작이	-16995
▁경험을	-16996
▁굿바이	-16997
▁그것뿐	-16998
▁그러다	-16999
▁기막힌	-17000
▁기묘한	-17001
▁김옥빈	-17002
▁김윤석	-17003
▁꺼버린	-17004
▁꼬맹이	-17005
▁꾸준히	-17006
▁나와요	-17007
▁노력을	-17008
▁노출도	-17009
▁노출은	-17010
▁놀라는	-17011
▁누구야	-17012
▁눈부신	-17013
▁느껴진	-17014
▁다르고	-17015
▁대단해	-17016
▁대사로	-17017
▁대화가	-17018
▁댓글이	-17019
▁덤으로	-17020
▁돌리고	-17021
▁동생이	-17022
▁됐어요	-17023
▁되야지	-17024
▁된장녀	-17025
▁들으면	-17026
▁떠나고	-17027
▁떠나지	-17028
▁로빈윌	-17029
▁리차드	-17030
▁마니아	-17031
▁마시고	-17032
▁말라고	-17033
▁말하기	-17034
▁맘에들	-17035
[...]
