[PAD]
[UNK]
[CLS]
[SEP]
[MASK]
[BOS]
[EOS]
[UNK0]
[UNK1]
[UNK2]
[UNK3]
[UNK4]
[UNK5]
[UNK6]
[UNK7]
[UNK8]
[UNK9]
[unused0]
[unused1]
[unused2]
[unused3]
[unused4]
[unused5]
[unused6]
[unused7]
[unused8]
[unused9]
[unused10]
[unused11]
[unused12]
[unused13]
[unused14]
[unused15]
[unused16]
[unused17]
[unused18]
[unused19]
[unused20]
[unused21]
[unused22]
[unused23]
[unused24]
[unused25]
[unused26]
[unused27]
[unused28]
[unused29]
[unused30]
[unused31]
[unused32]
[unused33]
[unused34]
[unused35]
[unused36]
[unused37]
[unused38]
[unused39]
[unused40]
[unused41]
[unused42]
[unused43]
[unused44]
[unused45]
[unused46]
[unused47]
[unused48]
[unused49]
[unused50]
[unused51]
[unused52]
[unused53]
[unused54]
[unused55]
[unused56]
[unused57]
[unused58]
[unused59]
[unused60]
[unused61]
[unused62]
[unused63]
[unused64]
[unused65]
[unused66]
[unused67]
[unused68]
[unused69]
[unused70]
[unused71]
[unused72]
[unused73]
[unused74]
[unused75]
[unused76]
[unused77]
[unused78]
[unused79]
[unused80]
[unused81]
[unused82]
[unused83]
[unused84]
[unused85]
[unused86]
[unused87]
[unused88]
[unused89]
[unused90]
[unused91]
[unused92]
[unused93]
[unused94]
[unused95]
[unused96]
[unused97]
[unused98]
[unused99]
!
"
#
$
%
&
'
(
)
*
+
,
-
.
/
0
1
2
3
4
5
6
7
8
9
:
;
<
=
>
?
@
A
B
C
D
E
F
G
H
I
J
K
L
M
N
O
P
Q
R
S
T
U
V
W
X
Y
Z
[
\
]
^
_
`
a
b
c
d
e
f
g
h
i
j
k
l
m
n
o
p
q
r
s
t
u
v
w
x
y
z
{
|
}
~
¡
¤
§
¨
°
²
³
´
·
¿
×
÷
˚
π
ω
‘
’
“
”
‥
…
※
ⁿ
₂
Ⅰ
ⅱ
ⅲ
←
↑
→
↓
↗
↘
∀
∇
∼
≤
≥
⊙
⌒
②
⑦
⑹
ⓒ
ⓛ
ⓞ
─
━
┏
■
□
△
▶
▷
▼
▽
◀
◁
◆
○
◎
●
◐
◑
★
☆
☜
☞
☻
♡
♤
♥
♧
♩
♪
♫
♬
、
。
《
》
「
」
『
』
【
】
い
う
え
お
か
が
き
け
こ
し
す
せ
そ
た
だ
っ
つ
づ
で
と
な
に
ね
の
は
ひ
ほ
ぽ
ま
む
も
ゃ
よ
ら
り
る
れ
ろ
わ
を
ん
イ
ウ
エ
カ
ガ
グ
コ
シ
ス
タ
ダ
チ
ッ
テ
デ
ト
ニ
バ
パ
ヒ
ピ
ベ
マ
ム
メ
ョ
ヨ
リ
ル
ロ
ワ
ン
ㄱ
ㄲ
ㄳ
ㄴ
ㄵ
ㄶ
ㄷ
ㄸ
ㄹ
ㄺ
ㄻ
ㅀ
ㅁ
ㅂ
ㅃ
ㅄ
ㅅ
ㅆ
ㅇ
ㅈ
ㅉ
ㅊ
ㅋ
ㅌ
ㅍ
ㅎ
ㅏ
ㅐ
ㅑ
ㅒ
ㅓ
ㅔ
ㅕ
ㅖ
ㅗ
ㅘ
ㅛ
ㅜ
ㅝ
ㅞ
ㅟ
ㅠ
ㅡ
ㅢ
ㅣ
ㅤ
ㆀ
ㆍ
一
三
上
下
中
乃
也
亞
亡
人
低
佑
作
侖
信
候
倭
傑
僞
先
典
凸
出
刻
前
力
助
北
友
反
古
史
名
吐
味
品
善
喜
型
塵
外
大
天
失
女
好
孝
完
定
害
家
小
山
岡
峰
峽
希
師
年
幸
式
張
彩
彼
待
後
復
必
忍
念
急
性
情
惡
愛
感
慶
憎
戰
手
故
敵
新
旋
日
映
曲
最
會
月
有
望
期
木
末
本
林
柱
様
檢
歌
死
氣
求
江
法
派
流
淇
湖
漁
演
濡
火
無
王
生
用
田
甲
申
男
画
異
白
的
皿
益
直
看
眞
眠
祖
神
禪
秀
立
笑
糞
紅
紙
終
結
緣
美
者
腸
自
臭
舒
色
苦
英
葉
蒼
藝
蜀
蟲
要
見
觸
言
記
論
謝
讐
車
道
部
都
里
野
鈴
鋒
錢
間
集
離
難
電
霆
非
面
韓
頑
香
驛
高
가
각
간
갅
갇
갈
갉
감
갑
값
갓
갔
강
갖
갗
갘
같
갚
갛
개
객
갠
갤
갬
갭
갯
갰
갱
갵
갸
걀
걈
걍
걑
걔
걘
거
걱
건
걷
걸
검
겁
겂
것
겄
겅
겈
겉
겋
게
겐
겓
겔
겜
겝
겟
겠
겡
겤
겧
겨
격
겪
견
결
겸
겹
겻
겼
경
곀
곁
곃
계
곅
곗
곘
고
곡
곤
곧
골
곪
곰
곱
곳
공
곶
곷
곸
곻
과
곽
관
괄
광
괘
괜
괞
괭
괴
괸
굉
교
구
국
굯
군
굳
굴
굵
굶
굷
굼
굽
굿
궁
궂
궅
궈
권
궐
궛
궜
궤
귀
귄
귈
귐
귓
귘
규
귝
균
귤
귬
귯
귱
그
극
귻
근
귿
글
긁
금
급
긋
긍
긑
긔
긛
긬
기
긱
긴
길
김
깁
깃
깄
깅
깇
깈
깉
깊
까
깍
깎
깐
깔
깜
깝
깞
깟
깠
깡
깤
깥
깨
깩
깬
깰
깸
깹
깻
깼
깽
꺄
꺅
꺆
꺇
꺍
꺙
꺜
꺠
꺤
꺼
꺽
꺾
껀
껃
껄
껌
껍
껏
껐
껑
껒
께
껜
껬
껭
껰
껴
꼅
꼇
꼈
꼐
꼬
꼭
꼮
꼰
꼳
꼴
꼼
꼽
꼿
꽁
꽂
꽃
꽄
꽈
꽉
꽝
꽤
꽥
꽦
꽹
꾀
꾜
꾱
꾸
꾹
꾼
꾿
꿀
꿇
꿈
꿉
꿋
꿍
꿎
꿐
꿑
꿓
꿔
꿘
꿧
꿨
꿩
꿬
꿰
뀌
뀐
뀔
뀜
뀨
뀩
뀰
뀼
끄
끅
끆
끈
끊
끋
끌
끓
끔
끕
끗
끙
끚
끝
끠
끼
끽
끾
낀
낄
낌
낍
낏
낑
낔
나
낙
낚
낛
난
낞
낟
날
낡
남
납
낫
났
낭
낮
낯
낰
낱
낲
낳
내
낸
낼
냄
냅
냇
냈
냉
냊
냌
냐
냑
냔
냠
냣
냥
냨
냬
넀
너
넉
넋
넌
널
넒
넓
넖
넗
넘
넙
넛
넜
넝
넢
넣
네
넥
넨
넫
넬
넴
넵
넷
넸
넹
넼
넿
녀
녁
년
녈
념
녓
녔
녕
녘
녜
노
녹
논
녿
놀
놃
놈
놉
놋
농
놑
높
놓
놔
놕
놘
놜
놧
놨
놬
뇌
뇔
뇨
뇬
뇰
뇽
누
눅
눈
눊
눌
눔
눕
눙
눠
눼
뉘
뉜
뉠
뉨
뉴
늄
늉
느
늑
는
늘
늙
늠
늡
늣
능
늦
늨
늪
늬
늰
늴
닁
니
닉
닊
닌
닏
닐
님
닙
닛
닝
닟
닠
다
닥
닦
단
닫
달
닭
닮
닯
닳
담
답
닶
닷
당
닺
닻
닼
닿
대
댁
댄
댇
댈
댐
댑
댓
댔
댕
댖
댘
댜
댠
댣
댬
댰
댸
더
덕
던
덛
덜
덟
덤
덥
덧
덨
덩
덫
덮
덯
데
덱
덴
덷
델
뎀
뎁
뎃
뎄
뎅
뎈
뎋
뎌
뎍
뎐
뎜
뎟
뎠
뎡
도
독
돈
돋
돌
돔
돕
돗
동
돜
돟
돠
돤
돱
돼
됀
됄
됌
됏
됐
됑
되
된
될
됨
됩
됫
됬
됭
됴
됻
두
둑
둔
둘
둠
둡
둣
둥
둬
둿
뒀
뒈
뒌
뒤
뒷
뒹
듀
듁
듕
드
득
든
듣
들
듦
듧
듨
듬
듭
듯
등
듴
듵
듷
듸
딍
디
딕
딘
딛
딜
딤
딥
딧
딨
딩
딪
딫
딬
딮
따
딱
딲
딴
딸
땀
땁
땃
땄
땅
땈
땋
때
땍
땐
땓
땔
땜
땝
땟
땠
땡
땨
땸
떄
떈
떌
떔
떘
떙
떠
떡
떤
떨
떫
떰
떱
떳
떴
떵
떻
떼
떽
뗀
뗄
뗬
뗴
뗼
또
똑
똔
똗
똘
똠
똥
똭
똴
뙀
뙁
뙇
뚜
뚝
뚠
뚤
뚫
뚬
뚯
뚱
뛰
뛴
뛸
뜀
뜁
뜌
뜨
뜩
뜬
뜯
뜰
뜷
뜸
뜻
뜽
띀
띁
띄
띈
띌
띔
띠
띡
띤
띨
띰
띱
띵
라
락
란
랃
랄
람
랍
랏
랐
랑
랒
랔
랖
랗
래
랙
랜
랟
랠
램
랩
랫
랬
랭
랰
랴
략
랽
럈
량
럔
럤
러
럭
런
럴
럼
럽
럾
럿
렀
렁
렇
레
렉
렌
렐
렘
렙
렛
렜
렝
렠
려
력
련
렬
렴
렵
렷
렸
령
렿
례
롁
롄
로
록
론
롤
롬
롭
롯
롱
롴
롷
롸
롹
뢀
뢈
뢉
뢍
뢔
뢰
료
룔
룕
룡
루
룩
룬
룯
룰
룸
룹
룻
룽
뤄
뤌
뤘
뤠
뤡
뤰
뤼
뤽
륄
륒
류
륙
륜
률
륨
륭
르
륵
른
륺
를
름
릅
릇
릉
릋
릌
릎
릏
릐
릣
리
릭
린
릳
릴
림
립
릿
링
맂
맄
마
막
만
맍
많
맏
말
맑
맗
맘
맙
맛
맜
망
맞
맟
맠
맡
맣
매
맥
맨
맬
맴
맵
맷
맸
맹
맺
맻
먀
먄
먠
머
먹
먼
먾
멀
멈
멉
멋
멌
멍
멎
멐
멓
메
멕
멘
멜
멤
멧
멩
며
멱
면
멸
몀
몃
몄
명
몆
몇
모
목
몫
몬
몰
몸
몹
못
몽
뫁
뫄
뫘
뫼
묘
묠
묨
묭
무
묵
묶
문
묻
물
묽
뭄
뭇
뭉
뭍
뭐
뭔
뭘
뭡
뭣
뭥
뭨
뭬
뮁
뮈
뮌
뮐
뮝
뮤
뮨
뮬
므
믄
믈
믐
믓
믕
믜
미
믹
믺
민
믿
밀
밈
밉
밋
밌
밍
밎
및
밐
밑
밓
바
박
밖
반
받
발
밝
밟
밣
밤
밥
밧
밨
방
밫
밬
밭
배
백
밴
밷
밸
뱀
뱁
뱃
뱅
뱆
뱉
뱌
뱍
뱎
뱔
버
벅
번
벋
벌
범
법
벗
벙
벚
베
벡
벤
벨
벰
벳
벴
벵
벸
벼
벽
변
별
볌
볍
볐
병
볓
볔
볕
볠
보
복
볶
본
볹
볻
볼
봄
봅
봇
봈
봉
봊
봐
봑
봘
봙
봣
봤
봨
봫
봬
봭
봴
봵
뵈
뵌
뵐
뵙
뵛
뵜
뵤
뵨
뵹
부
북
분
붅
붆
붇
불
붉
붐
붑
붓
붕
붙
붜
붤
붸
붹
뷁
뷃
뷐
뷔
뷰
뷴
뷸
븅
브
븍
븐
블
븜
븟
븡
븨
븬
빂
비
빅
빈
빋
빌
빔
빕
빗
빙
빚
빛
빝
빠
빡
빢
빤
빨
빰
빳
빴
빵
빼
빽
뺀
뺄
뺌
뺍
뺏
뺐
뺑
뺒
뺘
뺠
뺨
뺴
뺵
뻉
뻐
뻑
뻔
뻗
뻘
뻡
뻣
뻤
뻥
뻬
뻭
뻴
뼈
뼉
뼘
뼛
뼜
뽀
뽁
뽄
뽈
뽐
뽑
뽕
뽜
뽠
뽯
뽱
뾰
뿅
뿌
뿍
뿐
뿔
뿜
뿡
뿨
뿩
뿰
쀍
쀠
쀨
쀼
쁘
쁜
쁠
쁨
쁩
삐
삑
삔
삘
삤
삥
사
삭
산
삳
살
삵
삶
삻
삼
삽
삿
샀
상
샅
새
색
샊
샌
샐
샘
샙
샛
샜
생
샠
샡
샣
샤
샥
샨
샬
샴
샵
샷
샹
섀
서
석
섞
선
섣
설
섥
섫
섬
섭
섯
섰
성
섲
섳
섴
섵
섶
섷
세
섹
섺
섻
센
섿
셀
셈
셉
셋
셌
셍
셐
셑
셔
셕
션
셜
셤
셧
셨
셩
셰
셴
셸
솀
소
속
솎
손
솓
솔
솜
솝
솟
송
솢
솤
솥
솧
솨
솰
쇄
쇠
쇳
쇼
숀
숄
숍
숏
숑
수
숙
순
숟
술
숨
숩
숫
숭
숯
숰
숱
숲
숴
숼
쉅
쉈
쉐
쉑
쉒
쉔
쉘
쉡
쉣
쉥
쉩
쉬
쉰
쉴
쉼
쉽
쉿
슁
슈
슉
슌
슐
슛
슝
슠
스
슥
슨
슬
슭
슲
슴
습
슷
승
슺
슼
슽
슾
싀
싄
싐
싑
싖
시
식
신
싡
싢
싣
실
싫
심
십
싯
싰
싱
싴
싶
싷
싸
싹
싼
쌀
쌈
쌉
쌌
쌍
쌓
쌔
쌕
쌘
쌜
쌤
쌩
쌰
썁
썅
썌
썜
썡
써
썩
썪
썬
썰
썱
썸
썹
썻
썼
썽
쎀
쎄
쎅
쎈
쎌
쎔
쎗
쎘
쎠
쎤
쎴
쎼
쎾
쏔
쏘
쏙
쏜
쏟
쏠
쏨
쏩
쏫
쏭
쏱
쏴
쐈
쐌
쐬
쑈
쑝
쑤
쑥
쑨
쑬
쑴
쑹
쒀
쒕
쒜
쒯
쒰
쒸
쓉
쓔
쓕
쓰
쓱
쓴
쓸
씀
씁
씌
씐
씝
씨
씩
씪
씬
씰
씸
씹
씻
씼
씽
앀
아
악
안
앉
않
앋
알
앍
앎
앓
암
압
앖
앗
았
앙
앚
앜
앞
앟
애
액
앤
앨
앰
앱
앳
앴
앵
앸
야
약
얀
얄
얇
얌
얍
얏
얐
양
얔
얕
얗
얘
얙
얜
어
억
언
얹
얺
얻
얼
얽
엄
업
없
엇
었
엉
엊
엌
엎
엏
에
엑
엓
엔
엘
엠
엡
엣
엥
엨
엪
여
역
엮
연
엲
열
엷
염
엽
엾
엿
였
영
옂
옄
옅
옆
옇
예
옌
옐
옘
옛
옜
오
옥
온
올
옭
옮
옯
옰
옳
옴
옵
옶
옷
옹
옼
옾
옿
와
왁
왃
완
왅
왈
왑
왓
왔
왕
왘
왜
왝
왠
왤
외
왹
왼
욀
욈
욌
요
욕
욘
욜
욤
욥
욧
용
욬
욯
우
욱
운
욷
울
욹
욺
움
웁
웃
웄
웅
워
웍
원
월
웜
웟
웠
웡
웤
웨
웩
웬
웰
웹
웽
윀
위
윅
윈
윌
윔
윖
윗
윘
윙
유
육
윤
율
윰
윱
윳
융
으
윽
은
읃
을
읅
읆
읊
음
읍
읎
읏
응
읔
읖
의
읭
읮
이
익
인
읹
읺
일
읽
읿
잃
임
입
잇
있
잉
잊
잌
잎
잏
자
작
잔
잖
잗
잘
잛
잠
잡
잣
잤
장
잦
잫
재
잭
잰
잴
잼
잽
잿
쟁
쟄
쟈
쟉
쟎
쟘
쟙
쟝
쟞
쟤
쟨
쟾
저
적
전
젅
젆
젇
절
젊
젋
점
접
젓
젔
정
젖
젛
제
젝
젠
젤
젬
젭
젯
져
젹
젼
졀
졈
졉
졋
졌
졍
졎
졏
졓
졔
조
족
존
졷
졸
좀
좁
좃
종
좆
좇
좉
좊
좋
좌
좍
좐
좔
좝
좠
좡
좢
죄
죈
죗
죙
죠
죤
죨
죳
죴
죵
죶
죷
죸
죻
주
죽
준
줄
줌
줍
줏
중
줗
줘
줠
줫
줬
줭
줮
줸
쥇
쥐
쥑
쥔
쥘
쥣
쥤
쥬
쥰
쥴
쥼
즁
즈
즉
즌
즐
즘
즛
증
즞
즤
지
직
짂
진
짅
짇
질
짊
짏
짐
집
짓
징
짖
짘
짙
짚
짛
짜
짝
짠
짢
짤
짦
짧
짫
짬
짭
짯
짰
짱
짴
째
짼
쨈
쨉
쨋
쨌
쨍
쨓
쨔
쨘
쨩
쨰
쩁
쩃
쩄
쩌
쩍
쩐
쩔
쩖
쩜
쩝
쩡
쩧
쩨
쪄
쪈
쪘
쪙
쪠
쪼
쪽
쪾
쫀
쫄
쫌
쫏
쫑
쫒
쫓
쫗
쫘
쫙
쫭
쬐
쬬
쭁
쭈
쭉
쭊
쭌
쭐
쭘
쭙
쭝
쮜
쮸
쯔
쯗
쯤
쯥
쯧
쯩
쯪
찌
찍
찎
찐
찔
찜
찝
찟
찡
찢
차
착
찬
찮
찯
찰
찱
참
찹
찻
찼
창
찾
찿
챃
채
책
챈
챌
챔
챕
챗
챘
챙
챠
챡
챤
챦
챨
처
척
천
철
첨
첩
첫
첬
청
첮
체
첵
첸
첼
쳅
쳇
쳐
쳔
쳣
쳤
쳥
쳫
쳬
초
촉
촌
촏
촐
촘
촛
총
촟
촣
촤
촥
촬
촹
쵁
최
쵝
쵸
쵼
춋
춌
추
축
춘
출
춤
춥
춧
충
춰
춴
춸
췃
췄
췌
췟
취
췬
츄
츈
츔
츙
츠
측
츤
츨
츰
층
츼
츽
칀
치
칙
친
칝
칠
침
칩
칫
칭
칰
카
칵
칸
칻
칼
캄
캅
캇
캉
캍
캐
캔
캘
캠
캡
캢
캣
캥
캬
캭
컄
커
컥
컨
컬
컴
컵
컷
컸
컹
컼
컾
케
켁
켄
켈
켐
켓
켔
켜
켠
켤
켬
켯
켰
코
콕
콘
콜
콤
콥
콧
콩
콬
콮
콯
콰
콱
콴
콸
쾅
쾌
쾡
쾨
쿄
쿈
쿠
쿡
쿤
쿨
쿰
쿳
쿵
쿸
쿼
퀀
퀄
퀘
퀜
퀭
퀴
퀵
퀸
퀼
큐
큘
크
큭
큰
클
큼
큽
킁
킄
킈
킌
키
킥
킨
킬
킴
킵
킷
킹
킼
타
탁
탄
탆
탈
탉
탐
탑
탓
탔
탕
탗
태
택
탠
탤
탬
탭
탯
탱
탸
턀
터
턱
턴
털
텀
텁
텃
텅
텈
테
텍
텐
텔
템
텝
텟
텡
텨
텼
토
톡
톤
톨
톰
톱
통
톼
퇄
퇘
퇴
툥
투
툭
툰
툴
툼
툿
퉁
퉜
퉤
퉷
퉽
튀
튄
튈
튕
튜
튠
튬
튭
트
특
튼
튿
틀
틈
틋
틍
틐
틔
티
틱
틴
틸
팀
팁
팅
파
팍
팎
판
팔
팜
팝
팟
팠
팡
팥
패
팩
팬
팰
팸
팻
팼
팽
퍼
퍽
펀
펄
펌
펏
펐
펑
페
펙
펜
펠
펩
펫
펭
펴
편
펼
폄
폇
폈
평
폐
포
폭
폰
폴
폼
폽
폿
퐁
퐈
퐉
퐌
퐛
퐝
퐠
푀
표
푱
푸
푹
푼
풀
품
풉
풋
풍
풓
풔
풕
풰
퓌
퓨
퓬
퓰
퓽
프
픈
플
픔
픕
피
픽
핀
필
핍
핏
핑
핓
핕
하
학
핛
한
핟
할
핡
핣
핥
핦
핧
함
합
핫
핬
항
핮
핯
핰
핱
핳
해
핵
핶
핸
핻
핼
햄
햅
햇
했
행
햌
햏
햐
햤
향
햫
헀
허
헉
헌
헏
헐
헑
험
헙
헛
헝
헠
헣
헤
헥
헨
헬
헴
헵
헷
헸
헹
헿
혀
혁
현
혈
혐
협
혓
혔
형
혖
혜
호
혹
혼
홀
홈
홉
홋
홍
홐
홓
화
확
환
활
홥
홧
황
홪
홬
홯
홱
회
획
횐
횔
횟
횡
횤
효
횬
횽
훃
후
훅
훈
훋
훌
훑
훓
훔
훕
훗
훙
훜
훟
훠
훡
훤
훨
훸
훼
휏
휘
휙
휠
휨
휩
휴
휸
휼
흉
흏
흐
흑
흔
흘
흙
흝
흠
흡
흣
흥
흨
흩
흫
희
흰
흳
히
힉
힌
힐
힘
힙
힛
힝
힞
힣
盧
老
綠
不
禮
紐
律
慄
！
，
？
Ｘ
＼
＾
｀
～
￣
##사
##람
##이
##은
##아
##대
##지
##말
##고
##랑
##때
##문
##장
##면
##만
##으
##로
##바
##꿔
##서
##박
##자
##가
##B
##C
##프
##라
##즈
##들
##리
##졸
##동
##적
##인
##야
##기
##드
##벤
##처
##와
##방
##울
##도
##한
##런
##보
##스
##카
##웃
##송
##내
##며
##게
##우
##나
##국
##군
##니
##에
##봉
##했
##더
##요
##해
##안
##던
##딴
##그
##괴
##같
##영
##화
##연
##히
##싫
##채
##널
##돌
##다
##왔
##습
##완
##오
##빠
##없
##어
##씁
##쓸
##하
##래
##재
##미
##있
##♥
##컬
##트
##원
##을
##무
##작
##는
##류
##의
##겨
##극
##품
##키
##것
##너
##포
##르
##노
##구
##려
##었
##데
##선
##위
##실
##전
##과
##3
##범
##페
##셔
##걸
##글
##쓰
##움
##잼
##엿
##명
##론
##O
##간
##윤
##커
##플
##뎈
##ㅋ
##얼
##거
##렸
##긴
##준
##단
##폰
##임
##차
##술
##받
##루
##죄
##쉽
##당
##본
##질
##남
##녀
##았
##상
##된
##따
##시
##져
##소
##룡
##팬
##놓
##막
##혀
##0
##님
##애
##편
##학
##공
##쪈
##집
##테
##부
##갈
##줄
##섹
##ㅌ
##ㅊ
##수
##독
##교
##큐
##○
##련
##멋
##진
##낀
##깐
##일
##듯
##맍
##날
##건
##여
##행
##모
##쉴
##링
##마
##디
##겠
##잔
##심
##싶
##짱
##터
##잖
##존
##버
##찌
##푸
##림
##코
##폭
##발
##퍼
##급
##변
##태
##럽
##꼭
##렇
##많
##않
##잘
##봤
##읍
##세
##용
##억
##물
##i
##s
##h
##꽥
##좀
##생
##양
##신
##골
##법
##경
##황
##비
##숙
##멀
##징
##제
##밌
##증
##레
##토
##o
##l
##예
##냈
##주
##벽
##햇
##음
##후
##옥
##렬
##꾼
##깍
##통
##럼
##메
##슨
##청
##난
##배
##설
##션
##치
##혹
##년
##쳐
##형
##천
##입
##할
##란
##각
##콮
##릴
##를
##민
##ㄱ
##또
##볼
##껄
##티
##되
##량
##감
##벗
##개
##둥
##놀
##린
##졌
##찍
##까
##찬
##겟
##네
##욕
##번
##째
##봐
##슴
##든
##쉬
##함
##냐
##륜
##정
##파
##합
##쪽
##좋
##콜
##저
##뿐
##낌
##금
##낫
##풍
##러
##운
##혼
##평
##반
##투
##력
##9
##ㅜ
##관
##계
##느
##됨
##u
##b
##t
##엇
##권
##조
##분
##짜
##잇
##슼
##점
##믿
##출
##밥
##줘
##룩
##죠
##담
##척
##현
##묻
##G
##온
##칠
##워
##1
##찾
##맛
##끔
##머
##껀
##쏘
##병
##씨
##최
##굿
##족
##육
##램
##큰
##텐
##z
##곡
##획
##롱
##꼴
##피
##록
##삶
##궁
##ㅠ
##죽
##악
##덕
##ㄲ
##뻔
##탄
##씩
##등
##타
##격
##쁠
##S
##T
##추
##낮
##올
##친
##필
##겅
##깁
##2
##붕
##x
##살
##환
##앗
##딩
##밖
##갔
##성
##렀
##뒤
##익
##축
##뜻
##ㅓ
##끼
##목
##ㅎ
##즐
##겁
##섬
##떤
##약
##중
##갑
##염
##혜
##쨩
##험
##석
##길
##령
##층
##외
##딧
##두
##텔
##♡
##V
##효
##식
##빼
##곤
##였
##줬
##망
##름
##달
##쿠
##능
##복
##색
##맨
##쇼
##유
##깨
##직
##강
##뜰
##몰
##랐
##깝
##닥
##른
##엉
##뭄
##짓
##즘
##엄
##응
##딸
##착
##똑
##갘
##답
##n
##g
##e
##닝
##뜨
##쁘
##희
##옴
##역
##셀
##a
##y
##틀
##믹
##료
##판
##귀
##늘
##앞
##빨
##닌
##뀜
##낄
##씬
##견
##N
##허
##떨
##ㅡ
##튜
##브
##뇌
##립
##특
##릭
##츠
##떻
##빙
##찮
##속
##뗴
##초
##슬
##핵
##롤
##섭
##랜
##맞
##m
##향
##웠
##ㅉ
##욯
##쟁
##p
##d
##r
##8
##업
##뭐
##탁
##렉
##첨
##읏
##체
##엔
##뭡
##크
##월
##못
##뇨
##끝
##겼
##닐
##씀
##퉁
##새
##솔
##베
##충
##호
##훈
##랭
##끄
##백
##4
##셨
##매
##종
##밋
##밧
##항
##활
##왜
##삘
##광
##객
##랄
##결
##핍
##암
##락
##6
##칰
##듣
##케
##싱
##굴
##놈
##킬
##펜
##랬
##삼
##총
##j
##낭
##알
##클
##괜
##껴
##먹
##절
##탈
##흔
##둑
##땐
##됫
##톱
##흘
##십
##밭
##김
##땜
##창
##표
##컨
##셉
##콤
##둬
##폐
##률
##빗
##돼
##훌
##륭
##틸
##컷
##회
##짖
##읽
##언
##찰
##쩌
##쁜
##누
##델
##켜
##별
##책
##퓨
##D
##캐
##써
##패
##푼
##밀
##취
##솜
##빅
##액
##협
##핀
##낼
##v
##께
##뎁
##참
##왕
##좌
##얘
##승
##끈
##낸
##짐
##택
##픔
##앵
##ㅅ
##켈
##뿌
##혁
##헤
##불
##뚱
##뜬
##끌
##냥
##흥
##숨
##잤
##될
##젠
##갓
##혈
##ㄷ
##7
##깊
##슌
##싸
##숀
##웨
##듬
##젤
##몇
##둘
##ㅇ
##쎄
##넘
##됴
##엽
##큼
##킹
##깔
##닮
##쨍
##뷰
##꺼
##덩
##근
##짝
##웅
##갱
##E
##R
##k
##M
##튼
##봄
##틈
##쇠
##띵
##꺅
##훨
##됐
##돋
##쩔
##몽
##쌍
##팅
##먼
##픈
##앤
##f
##겐
##깜
##철
##멘
##깎
##넷
##손
##잡
##쥬
##럴
##젖
##냔
##랫
##큘
##산
##팔
##젼
##랩
##틴
##춤
##순
##츄
##탕
##삭
##옇
##ㅂ
##겹
##욺
##났
##접
##풀
##값
##념
##퀴
##떼
##빌
##블
##쾌
##잊
##봣
##턴
##ㄴ
##즌
##늬
##봅
##릿
##떠
##괸
##콘
##썽
##헌
##쓴
##렁
##픕
##옌
##율
##잣
##쪼
##슷
##춘
##틋
##뤘
##랙
##빽
##뻐
##겄
##팀
##뭉
##떄
##A
##휴
##틱
##켰
##5
##득
##뉴
##밤
##벼
##c
##엘
##확
##칼
##벵
##뻬
##텍
##슈
##렛
##렜
##퀘
##덤
##I
##칸
##엥
##렷
##춰
##놨
##똥
##꼬
##털
##땅
##왓
##콬
##뿅
##샹
##센
##ㅣ
##줌
##침
##맥
##윙
##댄
##깃
##삔
##긔
##뉘
##홬
##규
##돈
##넹
##넼
##펑
##북
##롭
##뢰
##듀
##뎀
##캬
##쩡
##힘
##숴
##넴
##싹
##묘
##얇
##멸
##쌀
##꼇
##넣
##곳
##웰
##됬
##므
##킴
##럭
##흠
##높
##셈
##룬
##뻘
##쭘
##랍
##w
##쇄
##톤
##U
##L
##떡
##쫄
##넬
##쳤
##논
##왤
##띠
##쯤
##띄
##뭘
##갖
##찝
##벨
##뮈
##쁨
##꿀
##굳
##둠
##꾸
##됩
##쩐
##갤
##눈
##뎅
##댇
##렌
##잠
##P
##헀
##픽
##콩
##멈
##뛰
##핥
##럿
##F
##덜
##킨
##벌
##검
##멱
##겈
##맺
##윈
##앙
##콕
##얌
##멍
##맙
##홍
##ㅁ
##헝
##헿
##헷
##앱
##뿔
##맘
##겪
##팥
##빵
##뒈
##깥
##뱀
##흉
##릇
##탑
##꽝
##꿨
##쌤
##뮤
##윌
##쑨
##꼈
##닙
##걍
##쏟
##ㅐ
##헠
##돠
##딱
##툰
##왼
##첩
##똘
##뀌
##엠
##눠
##쿵
##압
##닫
##힌
##긋
##갠
##닉
##농
##꿈
##뱅
##섯
##끊
##빛
##잃
##촬
##펙
##팰
##껏
##열
##푹
##쿨
##밨
##빈
##H
##댈
##옰
##뜯
##균
##멜
##핑
##낚
##홀
##킄
##휙
##냄
##죤
##쪄
##뚤
##쩜
##딨
##례
##햅
##ㅈ
##팟
##밑
##텝
##얍
##땡
##ㆍ
##륵
##욱
##뽕
##냅
##꽂
##쩝
##섞
##풋
##녔
##덴
##둔
##핳
##퉤
##ㅔ
##킷
##옳
##댕
##텅
##롯
##츈
##콧
##늑
##볶
##씽
##W
##븐
##텀
##뷔
##흐
##룻
##혐
##돔
##쫙
##몸
##휘
##칙
##샤
##켄
##쌔
##숫
##찐
##힐
##뻥
##꼽
##굉
##풕
##옮
##셋
##랴
##볍
##ㄹ
##꼰
##듦
##찔
##곧
##꽃
##쥐
##졍
##쨋
##셧
##뭥
##챔
##슥
##샵
##쟈
##왘
##곽
##펴
##앜
##뺨
##땠
##쨰
##ㅗ
##댁
##즛
##옵
##룹
##줫
##쁩
##뉨
##팍
##됏
##흡
##퀸
##팩
##템
##놘
##욧
##뵜
##폴
##웬
##곁
##뤄
##븜
##앓
##욜
##측
##돕
##¨
##렵
##땀
##씹
##쿤
##쏠
##눔
##딜
##옹
##컴
##섀
##밍
##쥑
##홧
##밝
##폼
##냉
##벅
##뻣
##썻
##닼
##꿰
##뚫
##셰
##탓
##딘
##듭
##렙
##짧
##엑
##딬
##댔
##낔
##웟
##짬
##뿡
##윗
##봇
##굼
##뚝
##략
##윔
##췄
##잉
##밓
##욷
##랒
##핮
##뒀
##칭
##귓
##렐
##닛
##궈
##퉜
##얄
##쯔
##켠
##릅
##X
##캠
##욬
##둡
##뭔
##킵
##퇴
##빡
##믈
##놔
##찿
##랗
##꽁
##댣
##걱
##뀐
##랔
##넌
##뽑
##퍽
##샌
##K
##잭
##얀
##꺽
##맹
##햐
##핱
##빕
##낳
##쵝
##됌
##꿉
##옛
##쌕
##쒸
##뒷
##깡
##뻤
##좁
##썼
##뫘
##쨌
##쩍
##뎃
##톡
##냨
##뜩
##깸
##뎠
##끙
##흑
##벳
##닳
##툭
##튀
##쉣
##촌
##멧
##넝
##껰
##쿼
##뽀
##뚜
##챙
##훼
##짠
##녹
##쉡
##댓
##챈
##켓
##왠
##멩
##댜
##뇬
##댐
##읎
##납
##잰
##옷
##귱
##Y
##싼
##눌
##됀
##밸
##벡
##붙
##힛
##ㅏ
##랏
##젊
##녕
##퐠
##읅
##펠
##슺
##앉
##ㅕ
##귻
##긛
##땟
##캡
##슐
##쫓
##옆
##쭉
##낱
##몬
##쑤
##묵
##밟
##탭
##렴
##펀
##낑
##밴
##캅
##첫
##졋
##융
##흣
##펐
##챃
##젓
##짴
##옼
##떳
##솟
##q
##컵
##좃
##캔
##뮬
##얻
##팠
##곀
##룽
##뎐
##꼼
##싯
##넥
##썸
##퀄
##앳
##뜸
##뺀
##섷
##뭇
##잎
##핡
##욥
##뎌
##쳣
##줍
##귝
##첼
##엌
##쐌
##몃
##쪙
##혔
##엾
##겻
##숭
##셜
##헬
##룸
##탐
##뱉
##웍
##훤
##싖
##켐
##샣
##썬
##늦
##톨
##킥
##먀
##퓽
##뻑
##쪘
##딕
##맡
##륙
##뿍
##졉
##챘
##쏭
##낙
##릉
##횽
##깼
##썰
##곱
##앨
##츤
##헨
##탠
##깽
##쿡
##か
##わ
##い
##し
##뤠
##쫌
##캇
##멤
##셸
##셴
##홱
##쥤
##욘
##웁
##덥
##킈
##꼮
##훔
##쏔
##ㅝ
##겉
##팝
##꺾
##짙
##흫
##넨
##J
##멎
##휼
##끗
##즉
##늡
##닷
##욤
##컥
##★
##읮
##죻
##쌩
##헉
##껐
##쌘
##쉐
##첬
##룰
##빴
##맷
##닿
##낍
##섳
##늠
##껍
##찜
##ㅄ
##븅
##밉
##곸
##긍
##폿
##믓
##왈
##↓
##팽
##닭
##쏴
##팡
##맑
##ㅖ
##웽
##탱
##및
##캉
##쌓
##렘
##홥
##짤
##뺐
##욀
##탬
##듸
##냇
##뀔
##넉
##겜
##랖
##샠
##쉘
##햌
##톰
##뽁
##냬
##쉥
##썩
##쯧
##겋
##끽
##녜
##봬
##죵
##웩
##띤
##쌈
##힝
##흰
##찡
##좐
##ㅛ
##홈
##Q
##봨
##갵
##갚
##셍
##괭
##둿
##귄
##눼
##찹
##뿜
##꺄
##흳
##췌
##첸
##탔
##룔
##칫
##→
##닦
##텡
##쏨
##쀨
##잌
##뇽
##뼘
##퀀
##놧
##댰
##븟
##얔
##닠
##됄
##쨔
##핫
##뼈
##ㅃ
##씌
##쿄
##쟎
##퐁
##찼
##뤼
##옿
##귯
##휠
##넛
##↗
##↘
##툼
##탆
##엣
##빳
##뵈
##늙
##횤
##걷
##눊
##쟞
##샬
##몫
##놉
##랠
##찎
##깞
##갯
##빤
##쵸
##좔
##뽄
##땔
##곰
##챠
##딪
##×
##쎀
##ㅑ
##꾹
##뀩
##껑
##쾅
##넜
##엡
##텨
##젝
##섰
##녁
##욌
##읭
##뇰
##뚯
##헵
##꿋
##쾨
##훗
##헐
##햄
##な
##き
##ゃ
##꽤
##슾
##뺏
##뀰
##ㅍ
##ⅱ
##ⅲ
##쑬
##넓
##っ
##た
##よ
##쎌
##뭍
##꽈
##솝
##믄
##뮌
##릎
##꿇
##벙
##짢
##떘
##줠
##붓
##넙
##쥘
##엨
##뺑
##맣
##덟
##쏫
##녓
##놑
##헸
##힙
##됑
##짏
##섿
##샛
##쩨
##샘
##썅
##녈
##뛴
##쌌
##맴
##웡
##닺
##툴
##짚
##덧
##샡
##붐
##젬
##깅
##윽
##쐈
##횟
##◎
##●
##▷
##◁
##▽
##△
##■
##□
##춥
##깬
##깠
##핻
##Z
##굽
##챦
##햏
##핏
##앴
##쿰
##펏
##엊
##춧
##갛
##덮
##튠
##튿
##깄
##괞
##깟
##퉽
##넒
##닏
##폄
##섴
##맄
##쳇
##샀
##칵
##삐
##쨘
##겸
##뎡
##뺴
##뻗
##뭣
##튈
##켯
##횬
##ㅀ
##웄
##맟
##샷
##꿧
##쎈
##믺
##돗
##궐
##낰
##섺
##쬬
##ㄶ
##꽉
##몀
##떙
##썌
##튭
##∼
##붆
##쏜
##◀
##횡
##쟝
##흙
##궤
##붉
##ん
##と
##う
##に
##짦
##샥
##쭈
##훡
##끓
##볔
##큽
##뗄
##뱌
##줏
##찟
##뚠
##깉
##쟤
##꼳
##첵
##촉
##륨
##릐
##둣
##쯩
##뷁
##펭
##꿘
##슛
##☆
##헣
##엏
##띨
##뎋
##혖
##돟
##쉰
##젯
##ㅘ
##홉
##끆
##☜
##룯
##넿
##귿
##벸
##얗
##왝
##갰
##빔
##숩
##삿
##섲
##り
##え
##윘
##앚
##굷
##뇔
##몹
##핰
##헴
##펄
##핬
##냠
##즁
##칩
##쳥
##뤽
##밎
##졷
##끅
##큭
##얹
##폈
##눕
##떈
##쓔
##흏
##캄
##갬
##롬
##깻
##랰
##괘
##앖
##멌
##앰
##ⓞ
##ⓛ
##も
##숏
##쮸
##넗
##낯
##댸
##챤
##롸
##ㅆ
##샐
##홋
##녘
##잏
##찯
##◐
##◑
##밈
##쬐
##읃
##헑
##좉
##탯
##쥴
##싴
##숑
##짰
##껜
##핸
##솤
##겤
##옜
##닻
##팜
##젋
##땈
##앟
##쌰
##뱃
##돜
##겡
##셩
##윅
##쎘
##탤
##쭐
##☻
##쓱
##뼜
##쎔
##햫
##벋
##윰
##싀
##퇄
##ㄸ
##짘
##씸
##놕
##で
##す
##ね
##챌
##헥
##끕
##퐈
##☞
##탉
##엮
##쑈
##쨓
##엎
##겔
##렠
##켁
##덛
##랟
##━
##슝
##쥔
##ㄺ
##쫑
##딛
##핼
##슉
##캣
##뿰
##먠
##홐
##훟
##멐
##텁
##쨉
##쳬
##죸
##끾
##떰
##얕
##숲
##칀
##윳
##짇
##쟘
##촘
##쫭
##뽐
##볓
##잦
##줭
##깰
##퇘
##좆
##껬
##킼
##헹
##쟾
##핶
##젹
##갇
##띀
##촐
##삽
##맜
##휸
##펫
##∇
##￣
##슁
##갸
##읔
##긱
##혓
##셤
##싑
##뜀
##쥼
##빝
##젆
##컄
##줗
##♬
##♪
##뽈
##셕
##걔
##팻
##뉜
##쫘
##헛
##욈
##믜
##냑
##륄
##옄
##싡
##숍
##껭
##뎄
##ㅤ
##쓉
##귘
##딤
##썹
##떴
##촤
##찢
##쭁
##넫
##턱
##햤
##싰
##솧
##봙
##쒯
##땃
##콥
##곘
##괄
##짯
##댬
##쉈
##젅
##듷
##눅
##뚬
##롴
##꾀
##땨
##좠
##밷
##쫀
##젇
##옶
##꼐
##릋
##꽄
##츔
##뗀
##샴
##싷
##섥
##뼉
##쏩
##껌
##봑
##힞
##웹
##췃
##륺
##뵐
##꼿
##쎗
##쭝
##겧
##텼
##훙
##랃
##춸
##씰
##쉅
##묶
##옂
##띈
##썜
##맬
##멓
##봊
##솢
##씻
##퀼
##늉
##ㆀ
##훅
##엲
##쪠
##횐
##퐉
##컸
##맸
##땍
##웤
##₂
##볕
##푀
##봫
##ㅞ
##◆
##갗
##뵛
##굶
##봴
##÷
##앋
##땁
##읹
##긁
##짂
##췬
##툿
##솨
##챗
##씪
##귬
##뷸
##빢
##굵
##꿍
##ㄻ
##ㄳ
##먄
##ⁿ
##쐬
##ン
##ト
##ロ
##슭
##숰
##쎼
##핟
##븨
##굯
##뽯
##킌
##깈
##뛸
##롄
##땋
##줸
##좡
##짭
##샨
##좍
##귐
##컾
##뵙
##겓
##뢔
##삤
##잫
##쥇
##믐
##놬
##츰
##콸
##윱
##넢
##뫄
##짊
##졎
##걑
##홪
##²
##ベ
##뭨
##깩
##컹
##윀
##똔
##홯
##땸
##앸
##뵤
##イ
##テ
##켬
##펼
##븍
##싢
##떵
##쌉
##ω
##낲
##∀
##≤
##삳
##쎠
##뗼
##몄
##뀨
##덱
##꺇
##츙
##쑝
##럤
##쭙
##뢍
##쳫
##켔
##늴
##쩄
##턀
##덨
##헏
##짛
##옾
##찻
##툥
##얐
##꿐
##졔
##썪
##곅
##맠
##꿎
##졀
##죨
##맵
##셌
##듧
##묨
##샊
##낞
##봘
##묭
##뎍
##셐
##쉒
##る
##왁
##맂
##륒
##쒀
##곃
##춋
##훃
##냌
##늣
##퐛
##뢈
##샜
##튬
##멕
##렝
##떔
##뤌
##쳔
##늄
##쮜
##쥰
##뫼
##싄
##띰
##졓
##흨
##춌
##빰
##궜
##츼
##짼
##끋
##롷
##귈
##붑
##뵹
##갅
##녿
##쨈
##똗
##렿
##뤰
##꾿
##톼
##こ
##が
##딍
##붸
##넸
##럔
##─
##ㅢ
##뼛
##♩
##졈
##흩
##얏
##핛
##붅
##넀
##｀
##돤
##쏙
##쎤
##앍
##텈
##겝
##곪
##뒹
##뉠
##휏
##딫
##앀
##볻
##숟
##웜
##봈
##뮨
##쫒
##꽦
##쀼
##껒
##츨
##쥣
##릳
##껃
##폇
##⌒
##핦
##듴
##쯗
##퉷
##팎
##퓰
##끠
##밫
##깤
##팸
##▼
##늰
##섵
##븡
##덷
##딥
##긬
##앎
##롁
##곻
##맗
##쑥
##젛
##홓
##쾡
##쒜
##떽
##꾜
##땄
##뱍
##밐
##チ
##ョ
##ッ
##パ
##リ
##の
##エ
##힣
##꺠
##뺍
##곷
##뜷
##닊
##뜽
##쭊
##킁
##볐
##쩃
##눙
##젔
##쟄
##댖
##똠
##샙
##뿨
##섶
##뱔
##낏
##´
##삥
##궂
##쩧
##꿬
##칻
##팁
##カ
##ピ
##놃
##덯
##ㅟ
##뤡
##읊
##엪
##릣
##냊
##は
##럈
##롹
##걀
##왑
##닁
##윖
##쿈
##ㅒ
##갉
##꺙
##꾱
##랽
##룕
##뽜
##핧
##빋
##←
##だ
##넖
##グ
##냣
##뎜
##꼅
##좝
##얙
##컼
##밬
##틍
##캘
##ひ
##ぽ
##ろ
##ワ
##ヨ
##ル
##シ
##ム
##ヒ
##ま
##핯
##ダ
##챡
##탸
##댘
##닟
##탗
##븬
##⊙
##됻
##땝
##릏
##↑
##れ
##ら
##つ
##틐
##쑴
##줮
##듵
##뢀
##け
##＾
##솀
영화
##ㅋㅋ
##영화
##니다
##는데
너무
재미
##으로
##지만
정말
##하고
##네요
재밌
##에서
진짜
연기
##하는
##어요
최고
평점
이런
##토리
##습니다
##이다
##하다
##라마
생각
스토리
##들이
##ㅋㅋㅋㅋ
감동
보고
##까지
##하게
지루
##이라
드라마
##었다
그냥
##보다
배우
10
재미있
내용
아니
##레기
사람
감독
##면서
만들
재미없
##해서
##적인
##다는
쓰레기
##렇게
사랑
##리고
보는
ㅋㅋ
영화를
다시
시간
좋은
좋아
##지막
##보고
이거
##으면
이건
마지막
영화가
영화는
##라고
작품
##들의
내가
완전
##지는
##ㅠㅠ
액션
봤는데
없는
최고의
기대
##입니다
##하지
##인공
##다가
ㅋㅋㅋ
좋았
있는
하나
처음
##다고
지금
한국
##야기
##어서
이게
##세요
없다
##없는
나오
최악
##같은
##적이
이렇게
1점
10점
하는
##인데
##들은
별로
모르
연출
##에게
아깝
이해
##대로
##적으로
##이나
역시
##부터
그리고
그래
##겠다
우리
명작
##있는
느낌
##한다
평점이
이야기
##했다
기억
재밌게
아이
##되는
이영화
많이
괜찮
여자
##합니다
##정도
##라는
그런
장면
##주는
##지도
아름
##연기
주인공
만든
##문에
아까
ㅠㅠ
ㅎㅎ
##리는
마음
일본
공포
보여
같은
아무
유치
##았다
무슨
아닌
##만에
##것도
##배우
결말
##사람
현실
##을까
##아서
볼만
몰입
소재
##가는
없고
##없이
다른
가장
##하나
##었는데
이상
##하기
아깝다
남자
보면
반전
OO
##인가
보기
원작
스릴
##드라마
짜증
가슴
##없다
##ㅋㅋㅋㅋㅋㅋㅋㅋ
매력
##였다
말이
눈물
애니
20
ㅡㅡ
##드는
##니까
##하면
##구나
##나는
##인지
음악
영화다
##미디
인생
##스럽
영상
##이고
##재미
인간
정도
대한
##는지
전개
##는다
##봐도
솔직
##너무
있다
##시간
만들어
##릭터
##려고
극장
많은
하지만
##었던
모든
아직
##지마
##지않
##보는
##스러
##더라
##아요
아름다
한번
억지
##지고
필요
##에는
##리즈
##나서
끝까지
##하지만
하고
##처럼
이제
솔직히
##재밌
수준
##다니
뭔가
##0년
배우들
전혀
##ㅋㅋㅋ
##었음
봐도
재밋
추천
##나오
아주
여운
모두
##스터
##중에
캐릭터
연기력
대박
##메이
코미디
실망
##떻게
긴장
##는거
그래도
공감
##했던
좋다
엄청
##들을
가족
##나라
같다
이걸
##이는
근데
##기도
##리가
최악의
##장면
##주고
개봉
봤다
대단
어떻게
##진짜
##을때
##이지
##스트
계속
##ㅎㅎ
나온
##건지
영화의
잔잔
##이랑
재미있게
##에도
대사
재밌다
제목
흥미
##라도
내내
어이
어디
##수록
##때문에
표현
영화에
##만들
##없고
##했는데
않고
##하네요
##던데
##수가
진심
아쉽
잼있
##었어요
아니라
내용이
##기는
##생각
개인
요즘
그렇
모습
##어야
스릴러
조금
보다
##주인공
##봤는데
##타임
긴장감
##내내
##이라는
떨어
아쉬
연기가
나오는
기분
막장
않은
##하네
##영화는
내용도
아니다
##기에
##점이
##성이
##전에
재미도
##라리
##한테
오랜
연기도
제대로
재미없다
아름다운
느껴
중간
봐야
##보면
나는
알바
시리즈
##리오
##어도
그러
자체
특히
##리스
보다가
제작
##해요
스토리가
미국
제일
##만큼
##다면
부족
나름
정신
감독이
웃기
##하면서
##으나
노래
##들도
##이라고
만드는
##같다
1편
아까운
차라리
##인듯
이유
어설
작가
##대체
절대
##영화가
##아니
않는
시작
##치는
##기가
##된다
ㅋㅋㅋㅋ
나왔
너무나
시간이
##만한
왜이
아니고
보고싶
로맨
##이란
##ㅡㅡ
##0년대
훌륭
##난다
##00
때문에
나도
스토리도
세상
##감독
##거리
나와
영화라고
출연
##이상
##있다
감정
남는
뻔한
아직도
도대체
따뜻
##마다
여운이
##할수
모르겠
보게
그저
##해도
살아
수작
의미
##이가
##진다
영화로
##이네
##군요
##스팅
싶은
장난
무엇
보면서
##밖에
##ㅜㅜ
느끼
괜찮은
##에요
신선
어린
##나고
##적이고
##았는데
얼마
친구
##나리오
##기를
재밌어요
강추
##로운
감독의
##나요
##더니
마지막에
무섭
만화
영화입니다
언제
##하는데
##으로도
시청
싶다
##스러운
행복
안되
무서
주는
##었습니다
오랜만에
답답
점수
사실
##최고
##이야
OOO
##소리
초반
##해야
우리나라
##고싶
관객
허접
웃음
멋진
영화였
되는
##영화를
이해가
엔딩
##메이션
오늘
추억
시나리오
##이네요
##없음
##내용
재미가
좋았다
킬링
전쟁
자신
1점도
배경
부분
##지가
배우들의
좋아하는
##준다
보는내내
없음
##이지만
지루함
개인적으로
지루하고
안타
어색
완벽
귀여
소름
어떤
영화관
좋고
봤습니다
##나게
지루한
결국
봤던
유쾌
최고다
다큐
인상
슬프
##스토리
생각이
ㅜㅜ
분위
이딴
##것이
##부분
##성도
없이
아무리
힘들
시대
못한
진정
스타
##디오
문제
##치고
##인이
##아깝
##동안
졸작
당시
##점은
어릴
예술
진부
포스터
제발
##한데
##구만
역사
함께
들어
킬링타임
코믹
만들었
몰입도
찾아
있었
캐스팅
##oo
얼마나
##한거
애니메이션
##럽게
재밌는
##리지
##들에게
##아까
후회
##시길
보세요
설정
주연
##을듯
아름답
##보니
##구요
##건가
연기는
오래
영화도
지루하다
사람이
기억에
개연
##보단
##라이
공포영화
##나마
더빙
보지마
##점대
그렇게
##정말
안되는
여러
영화라
돌아
엄마
보지
주제
충격
##♥♥
어느
##는게
##레이
매우
##좋아
잔인
지나
##OO
집중
##하며
##있고
##텐데
##했음
옛날
##주의
좋아요
같이
충분
극장에서
##놓고
한국영화
미친
##들과
궁금
##려는
##당히
말도
순수
##사랑
하나도
##한영화
빠져
##인줄
##감동
않았
##같이
있고
##이버
불쌍
##렸다
감동적이
그래서
2편
따라
중국
##자기
##작품
것이
여기
##ㅠㅠㅠㅠ
##마디
##st
ㅋㅋㅋㅋㅋ
봤어요
##르는
##웠다
내용은
모르겠다
하지
##가지
마음이
느낌이
나올
뛰어
약간
감사
대체
한다
##것같
여주인공
위해
누가
엉성
##수있
##길래
그만
그나마
상상
후반
##만든
##야지
##쓰레기
재밌음
영화네요
이정도
##함을
ㅉㅉ
##거지
실화
알고
CG
영화중
감동도
영상미
##해지는
##점을
위한
이름
가슴이
로맨스
##버린
##0분
##ㄷㄷ
않는다
##기만
눈물이
걸작
얼굴
이쁘
프로
##성을
##이라도
##워서
비슷
19
갈수록
##하시
##봤다
훨씬
##력이
다음
사람들
전체
존나
##했지만
##자가
재미없음
B급
노잼
이것
네이버
연기를
있을
##이었다
##으니
발연기
##이야기
##듯한
##개도
다들
장르
##리를
##느낌
비교
##말이
단순
티비
없었다
오글
##자체
##겠지만
어렸
##가서
결말이
##함이
비디오
초딩
한마디
어설픈
간만에
시즌
알았
##린다
굉장
이미
##타지
재밌고
기억이
200
없어
밖에
##겠지
성룡
##라서
사람들이
인물
##재밋
##등학
##10
감동이
것도
##노잼
##시절
귀엽
##스럽다
##ood
느낄
##지지
여배우
잘봤
##대한
보여주는
3류
알게
영화관에서
##것을
##시키
##이라면
킬링타임용
교훈
##보게
##나온
상황
배우들이
##거나
아쉽다
화려
잔잔한
것을
##으면서
애들
##정이
쓰레기영화
등장
마이
사회
진정한
스토리는
주고
##스가
별점
이후
##말고
##려서
##수준
##er
아님
감동적인
존재
##적이다
바로
삼류
##라면
##보기
##버지
좋은데
독특
좋겠
##전개
다운
맘에
##인의
##짜리
##머니
당신
##해라
했는데
##었고
생각보다
재미는
생각을
그리
전부
평가
##거같
영화였다
잘못
##론가
##거야
두번
##재미있
거의
##필요
같아요
##건데
##되고
상당히
있을까
##연히
각본
소설
허무
##인생
##년이
중간에
뭐지
보니
않다
##한번
##보고싶
그러나
대해
##이팅
##았던
##주세요
영화임
뭐야
세계
높은
예상
이번
##들어
##할때
##워요
감동을
2점
ㅋㅋㅋㅋㅋㅋㅋㅋㅋ
그대로
어울
어른
##하하
##감이
##평점
실제
정도로
몇번
자연
##지루
##잖아
영화인데
##정도로
##수를
재미있는
##아깝다
나의
다르
자기
같은데
하다
나이
해서
##아닌
##본다
##좋은
##영화의
이영화를
에로
##을텐데
##영화다
재미있어요
나와서
구성
빨리
여주
##나오는
멜로
제가
##모르
##액션
혼자
##하냐
##낭비
재미있다
기다
재밌네요
갑자기
멋있
있지만
좀비
준다
##하자
어쩌
##리의
##스타
##간다
##분들
##에서도
봐서
저런
감독님
그녀
방송
##졌다
원작을
머리
봤지만
볼수
질질
##보다는
어디서
슬픈
##년도
평점을
굉장히
일단
평범
##어나
##여서
시청률
새로운
##어가
##을수
##저히
마음에
크리스
##였음
판타지
##때마다
##었지만
개그
낮은
더욱
저는
##아야
장면이
201
라는
뭐냐
상영
즐거
프랑
확실
##라니
누구
##다른
이런영화
100
##다는게
뭐가
##예요
극장판
있어서
화면
##시다
재미없는
예쁘
의도
##고는
##에선
##지를
##어지는
볼만한
훌륭한
케이
평론가
##에서는
끝나
##아이
믿고
##사가
항상
흥행
못하는
불편
역대
예고
전형
##던가
##았음
##시대
성우
너무너무
살인
생각하게
가치
봐라
있어
##인다
처음부터
##일이
주인공이
##스럽고
멋지
물론
중요
한심
##우드
##에겐
자체가
프랑스
TV
꿀잼
탄탄
##하니
충분히
헐리
##와서
##유의
봤음
안타깝
가지고
감성
##리티
##도록
관람
만드
점점
##중간
영화보다
한마디로
있는데
있었다
아닐
사람은
없어서
##진진
##봐서
좋은영화
개연성
그때
비해
##했어요
##조건
##땜에
그런지
보여주
참고
한편
했다
아까움
대단한
댓글
편집
해도
홍콩
##들아
##속에
생각해
순간
감독은
##하지않
식상
진행
황당
##메디
##러운
##립니다
##이라니
ㅎㅎㅎ
사이
잘만들
##그런
그게
돋보
리얼
훈훈
##하지도
이영화는
tv
것은
어려
good
합니다
하게
##거다
분위기
과거
도저히
좋네요
##기고
만족
소리
자극
##보면서
불륜
어쩔
참신
안타까
더럽게
돈주고
##으며
##조차
평점은
그닥
먹먹
미안
몰랐
시절
엉망
카메
소중
원래
이것도
##없어
전개가
망작
줄거리
다시봐도
아닌가
무조건
보는데
수가
유명
##이냐
##만으로도
##자의
##가고
##했고
##히려
재밌는데
지금까지
어릴때
보았
##스의
흥미진진
##아도
끝내
범죄
여전
##되어
##저씨
##영화중
선택
##만의
##것같다
엄청난
##기대
##한게
##봐야
아쉬운
##리게
##일까
재밌었다
가는
오히려
##했습니다
##코미디
##년전
괜히
돈이
멍청
아빠
죽음
액션도
얘기
진지
사랑을
모르고
결혼
최근
##었으면
##민국
배우가
그림
분명
안나
이리
##사회
##하긴
사람들은
그래픽
후반부
없네
##이면
##시리즈
평점에
귀신
##파이
만점
자꾸
희망
0점
비추
안보
학교
##여자
인간의
독립
설명
아버지
전설
좋겠다
내인생
봤네요
예전에
있음
저질
##시는
영화인
##하는거
ㅠㅠㅠ
이러
전편
##만이
##그래
##하다고
오글거
예고편
전형적인
가능
병맛
해야
힘든
##은데
##없네
##겠네
지루해
유치한
로맨틱
ost
감상
웃긴
##그램
따뜻한
복수
##지마라
무서운
가볍
별루
앞으로
현재
##이런
##스런
##어로
지금도
억지로
나쁜
사라
##이트
SF
미화
알려
입니다
있다는
화이팅
##하여
##엔딩
대한민국
완벽한
3점
그럴
바보
연출력
그런데
아무것도
느꼈
영웅
완성도
없네요
##인물
##내는
9점
된다
저도
##시고
##in
나쁘
##보세요
##친구
느끼게
동화
전문
좋음
##내고
##따위
이야기를
대작
이런거
재미없어
기대하고
아이들이
듯한
바람
바라
우연히
인정
진실
초등학
##대의
이런걸
메세
영원
잊혀
중반
하면
##현실
##영화로
##하는게
스타일
2시간
신기
죽는
##지게
##나면
##봐라
좋았어요
연출이
다운받
12
되어
서로
##이하
##움이
##님의
다행
전작
천재
청춘
촬영
허술
흘러
##오는
##ST
처음으로
모르는
어설프
것이다
말고
요소
적당
전기
##이거
재밌어
부모
알았다
이래
##프로
##함과
관계
노력
유머
##한듯
##스를
##메이크
아오
이연
코메디
##장이
##방송
##것은
##상을
15
마무
목소리
안된다
특유의
풀어
##심이
##평가
##웠던
못보
##우는
##예산
##네여
##였는데
##랄까
재미있고
시간낭비
나라
우울
##심을
그의
낫다
아마
##안되는
##당시
영화에서
##같은데
놀라
아프
웃겨
즐겁
##리다
##님이
왜이리
뭔지
속편
없을
여성
##리아
##기엔
##더군요
##그냥
만들었다
어렸을때
3편
알았는데
##ㅇㅇ
재미없고
노출
또한
리메이크
왠지
##드가
##짜증
유치하고
그럼
싫어
지난
##안하고
##다시
최악이다
나만
마치
조연
졸라
철학
##자들
##어울
##세가
비슷한
90년대
만큼
성장
##아먹
##있게
##것이다
##였습니다
명작이다
장면은
이상한
OOO기
거지
나머
누군
말하고
예전
이젠
##한다는
##스로
##어진
만들지
화려한
정치
해피
##줄알
진부한
게임
사건
않음
어찌
##보는데
##하겠
무엇보다
경찰
그려
뜬금
짱짱
보고나서
부족한
귀여운
##그라
4점
중에
##소한
##년에
##식이
작품이
반전이
잘봤습니다
대충
돌려
##자는
##보이
##애니
##음악
감동적
드라마를
아니지만
여자가
소재는
모습이
전체적으로
가득
다만
미래
하는데
##자를
##르고
##치게
##정을
마음을
스케
않았다
##려면
##싶다
##든다
스토리에
보여준
대단하다
그렇고
##아니고
손발
않을
재밌었어요
아닐까
밑에
아는
##리에
##과는
##막장
드라마가
아니면
좋았습니다
지금봐도
너무나도
눈이
전달
행동
##리도
##처음
##he
##하면서도
나에게
안맞
애들이
어렵
##한건
##놓은
##별로
이런게
생각한다
좋았고
케이블
80년대
ㅅㅂ
남아
먼저
성공
##인은
##인거
##걸까
##신이
별로다
못하고
환상
##지못
##가요
##화가
##있는데
##많은
##면서도
제작비
감사합니다
8점
남주
러브
메시
삶을
안나오
이어
자유
잘생
##하던
역시나
이야기가
이영화가
짜증나
영화였습니다
같습니다
라고
심심
##완전
##져서
다소
본다
피해
한계
##이코
##수도
##수있는
##감을
7점
OST
ㄷㄷ
알겠
##해주
##명작
##심히
##하는지
##ㅋㅋㅋㅋㅋㅋㅋㅋㅋㅋㅋㅋㅋㅋㅋㅋ
자신의
군대
그랬
##만하면
##었네요
##좋고
##였던
어이없는
중간중간
허접한
인상깊
확실히
cg
글쎄
깊은
시도
잘만든
저예산
##해주는
##봤어요
##분에
세상에
##나온다
눈을
외국
하루
##모습
##마저
나온다
가끔
결론
나를
심리
아놔
##대박
영화중에
매력적인
카메라
연애
했지만
##인을
영화보고
내용을
감정이
거기
와닿
있었던
젊은
##스는
##세계
##났다
##고싶다
어색한
미소
취향
##로는
##내요
##많이
##or
##닝타임
##영화에
액션은
그런가
모습을
보지마세요
같네요
낭비
알아
화가
##이에요
##했으면
##실망
##새끼
##순간
스토리와
좋았음
좋았는데
제작진
어린이
겁나
의외
##사는
##는가
##려다
영화이다
##지도않
왜이렇게
프로그램
5점
고민
보이는
볼때마다
했던
##지컬
##들만
##스럽게
순수한
아저씨
영화지만
사람을
감탄
굿굿
기본
슈퍼
특별
호러
##이건
##만으로
##로서
##일뿐
##겟다
##절한
이건뭐
어이가
부분이
내생
느낀
실패
조폭
##최악
##성애
연기에
##보다가
##사람이
##하기만
다가
오락
찍은
평생
해준
해주는
##더만
##어라
느껴지는
여전히
블랙
##터리
##할듯
##번째
드라마는
사랑이
떨어지는
넘어
더이상
미스
역할
유일
이기
##아아
##었나
##시켜
##개봉
액션이
나오고
##지않는
슬픔
##래기
##저럭
스토리를
처음이다
아닌데
리뷰
사극
살짝
섹시
##이게
##만드는
##구려
##되지
보는게
이유가
유쾌한
독특한
과연
그들의
끝나고
든다
모자
악역
이하
저렇게
##으론
##영상
##소년
재미있음
##사람들
소재를
음악이
있다면
연기력이
소름끼
평범한
난다
마라
스트
전에
혹시
##말로
##와르
##다지
##없어서
##하세요
##움을
##럽다
##추천
사랑하는
기대를
매력이
슬프다
괴물
그걸
나서
라이
맞는
봤었는데
시선
예쁜
종교
##이의
정말로
##재밌게
귀엽고
굳이
깔끔
분노
안하고
연예
##그러
감동적이고
아름답고
이연걸
난해
##해보
##었어
##위해
##명이
##럭저럭
##하다는
주인공의
추천합니다
가진
고전
시원
##했을
몰입이
흥미롭
안되고
막판
뮤지컬
##니아
##하려는
##ou
##먹고
연기와
사랑에
처음엔
다큐멘
동물
용서
일어
해주
희생
##기억
##트가
##었네
##레스
재밌었는데
사랑과
보기엔
음악도
##최고의
어릴적
드는
에휴
표절
후속
##나올
##남자
##좋다
##씨가
##식으로
##이라서
##더라도
이정도면
그럭저럭
남는다
사기
안됨
통해
##있네
##었을
##학교
##공포
##하지마
우리가
##한다면
짜증나는
아름답다
어렸을
무지
봤다가
불쾌
소녀
자막
현대
##아라
##지네요
##즈니
##들고
##거냐
##시아
##싶은
##끼리
말이필요
레이
어제
열심히
올라
일상
##도없고
##웃음
##버렸다
작품성
##더라구요
진심으로
기분이
상처
쓸데
압권
##원이
##디어
재미를
하나하나
잼있게
티비에서
같음
나타
말로
보시
싸이코
아침
포장
##사를
##인간
##았어요
##았습니다
##듯이
##주얼
감동과
10년
재미없네
아닌듯
현실을
신선한
추억의
되었다
무협
북한
재난
좋을
##화를
##학생
##였어요
생각합니다
공감이
나왔으면
전기세가
몸매
보시길
부터
##대는
##서야
##한것
##같음
##구하고
##까진
##른다
##알바
영화냐
재밌습니다
개판
그지
오그라
포기
폭력
형편
흐름
##이크
##장에서
##무서
##무비
##으로서
지루해서
배우의
만들어진
이유는
그다지
깊이
나중에
놀랍
떠나
미치
소장
올해
퀄리티
하면서
##이터
##들에
##안되
##있음
##따라
##티비
아까워
그렇다
등장인물
몇번을
고생
보이
영환
채널
크게
힐링
##기의
##있어요
##an
볼만함
##지않은
재밋게
11
30
감명
남녀
동생
되게
본방
부끄
쉽게
오버
##던지
##불가
10분
##ㅠㅠㅠ
소재가
반전도
상상력
국민
##대가
##가가
##드라
##버렸
##속에서
##겹다
##줌마
연출도
보고싶다
소름돋
해피엔딩
가서
그립
반성
보러
삶의
설레
아련
있나
전투
태어
표정
##나가
##했다는
사람의
제목이
언제나
강렬
거짓
김기
디즈니
말할
볼수록
사는
신경
정서
지구
하네요
##히는
##류의
##시킨
##마지막
##줘서
##겼다
지루하지
##지않고
필요한
수준이
스케일
같아
두고
봤으면
비극
산만
수도
##리기
##할까
생각나는
출연진
독립영화
가볍게
비주얼
심각
없지만
통쾌
##해준
##돌아
##다운
##꿀잼
##ㅋㅋㅋㅋㅋ
좋았던
슬프고
까지
드러
선생
스티
스크
씁쓸
안봤
일부
조잡
좋습니다
##와는
##보여
##안에
##명의
##웠음
지금은
필요없는
엉성한
헐리우드
무시
무언
쓰래기
할말
##소재
##수는
##효과
재미있네요
다시한번
아이들
인생을
##보는게
필요없다
광고
그것
끝나는
능력
딱히
에이
역겨
##이해
##기로
##었지
##까지는
일본영화
결말은
배우들도
보고싶은
게다가
남을
눈빛
말을
몰라도
스포
오랫
의문
의심
이루
인터
평이
##오빠
##수의
##마음
##에서의
소재로
30분
둘다
받아
방금
싸구려
악당
있게
존경
##이며
##지의
##독교
##버리고
연기자
좋아서
결말도
가까
섬세
암튼
없나
이때
이쁜
있지
좀더
죽여
하이
##이니
##지말
##bb
##친다
액션영화
봐야할
점수를
여기서
건지
시사회
펑펑
홍보
##이를
##에만
##상이
##99
##중의
##표현
시간을
##하기도
이제야
18
깨닫
니콜
드럽게
풋풋
할말이
##자단
##관계
웃기고
로그
마세요
싫다
와우
일반
##이자
##했는지
##봐요
##분이
##봣는데
영화라는
영화보는
재밌네
어려운
단지
살다
아픔
않게
이뻐
있습니다
쵝오
##사의
##가능
##트콤
##ㅉㅉ
##하다가
만들고
정신병
00
그린
돈아까
봣는데
불구하고
산으로
성인
싶어
##로우
##있어
##구니
##마스
##두고
##ad
이해할
남자가
그렇다고
뛰어난
##10점
마이너
견자단
낮아서
느와르
단연
발전
새벽
생애
아나
어머니
외계
잊을
##아님
##드의
##해진
##하신
##좋아요
재밌었음
지루할
사랑스러운
눈물을
작가가
13
나가
연결
##이유
##라스
##거운
##on
##느라
##영화임
##사람은
##재밌어요
아쉬움
시대를
##하시는
마무리
ㅇㅇ
남편
대표
밋밋
베스트
시걸
우주
이따위
인도
죄다
##만점
##하셨
##거리는
##란다
##4년
이거보고
##장면이
고통
과장
남겨
누구나
되고
때문
맨날
벌써
생생
스스로
시시
처럼
##가락
##의미
##반전
이런영화가
재미있었다
느낌을
##연기가
현실적인
멋지다
0점은
기독교
묘사
시각
안돼
있어요
흔한
##이션
##자고
##을거
##무섭
##작가
##르노
##학년
##집니다
##식을
##영화도
##시간이
무엇을
헐리웃
나옴
바뀌
보니까
뻔하고
슬퍼
아류
영국
주변
집에서
##이후
##도가
##한다고
##나왔
##걸로
##수없는
##버리
##물을
##줘야
##영화라고
재미없어요
시간가는
모든게
아직까지
##아니라
나은
뒤로
러닝타임
못했다
상업
은근
##아가
##하라
##봤던
##봤음
##온다
##성에
몰입감
몰입해서
옛날에
단순한
전문가
김기덕
다니
많다
발로
분들
설마
섹스
아들
에피
한데
##나이
##하구
##랍니다
느끼는
로그인
게이
끝난
되지
명품
어휴
외모
전반
##영이
생각없이
시간아까
##배우들
잔잔하고
긴장감도
같아서
고등학
국내
노답
떠나서
세월
없다는
찝찝
해리
##하려고
##남는
##ie
##at
아이돌
초반에
##자체가
3D
공부
위대한
청소년
특수
##인들
##한지
##었는지
##셔서
##물이
##함에
##으로써
기대안하고
마이클
안타깝다
그거
높다
덕분에
레전
싶네요
아역
연속
인내
지켜
찌질
##로도
##우고
##나와
##져요
##결말
작품을
##ing
로봇
발견
안보고
않지만
우와
패러
한참
##가를
##인트
최고입니다
보고나면
만든다
대사가
유쾌하고
탄탄한
즐겁게
갈등
고마
다양
믿을
반복
보길
##만드
##BS
##하려
##과의
##긴다
##았고
##겠네요
##계의
##점도
##쳤다
##됩니다
생각하고
사랑의
##인가요
인생의
영화에요
빠져들
겨울
놀랐
망쳐
문화
시트콤
않아
왜케
타임
특이
##아니다
##처구니
##나옴
##려요
##럽고
##양이
##씬은
##더라면
연기력도
즐거운
꿈을
못할
볼게
빼고
속에
아줌마
여행
있네요
조선
코난
히어로
##연출
##무슨
##전쟁
##호가
생각나
10자
음악과
##리스마
이쁘고
멍청한
007
1시간
검색
결과
무비
박진
새롭
앞으로도
제로
쩐다
최강
치밀
편견
##거임
##시에
하는지
아이가
##스러움
힘들다
잔인한
의외로
7점대
가져
관심
떠오
미모
없는데
우정
울었다
움직
있어야
##지어
##스릴
##오글
##따구
##냐고
##였지만
##떨어
##불어
쓰레기다
좋아할
볼만하다
##재미없
모르겠고
초등학생
에피소
기술
끝날
대부분
비현실
자살
작은
죽은
짝퉁
##만화
##키는
##소리가
##ov
##쳐서
##되서
##석이
재밋다
##시키는
가면
끌어
눈에
말하는
무척
뭉클
슬펐
신파
있으면
좋게
지겨
##했네
##하겠다
##겠음
##정신
##엄마
영화인듯
##하다니
재미있었어요
아깝지
무섭다
영화였어요
##ㅠㅠㅠㅠㅠㅠㅠㅠ
이후로
학교에서
손발이
경험
달달
동안
불러
어처구니
##도안
##하진
##트맨
##소설
##bs
사랑은
원작의
인간이
따뜻해지는
유명한
the
내려
높아
더러운
본영화
이정
제이
주성
할까
##이로
##으니까
##야말로
##와의
##작이
작품이다
완전히
하나의
유치함
아쉽네요
알바들
신선하고
거슬
기가
김민
늘어
많아
멋있다
뭐라
보았다
복잡
봤더니
빼고는
오바
울고
투자
허세
##라가
##그리고
##봅니다
평점보고
지루했다
나오면
남자의
가슴아
##시간에
흥미로운
스크린
끝이
더불어
만나
민망
방법
스파이
여태
영혼
젠장
조용
조합
좋지만
직접
학생
힘이
##내가
##해지
##거라
##테일
##겠습니다
##om
##씨의
##ar
##언니
감정을
모르겠지만
역대급
극치
미드
박수를
범인
보인다
없었던
에서
왠만하면
카리스마
##사수
##대사
##가족
##했네요
##았지만
##버트
##정은
##엇다
영화들
지루하게
쓰레기같은
우리는
장면에서
한번쯤
개연성이
레전드
바꿔
살고
삶에
어우
오로
웃김
이럴
죽을
틀어
포르노
필름
##가지고
##드립니다
##미가
##준것
##겠어요
##관이
##성은
##체가
##왜이
##영화라
좋았지만
유치하다
##재미없다
전개도
웃음이
패러디
8점대
교육
김수
깜짝
본다면
않나
인기
일이
일품
정의
##대를
##지금
##영환
##간의
##거같다
##시작
##버림
##ll
영화보면서
감동적이다
무섭지도
좋겠어요
전설의
잊혀지지
가벼
도전
레알
볼거리
비판
빌려
이도
챙겨
##이스
##려나
##당한
##버리는
##버스터
##였고
##근데
영화제
재밌다고
기대했는데
좋았으나
의미를
주성치
다룬
대중
똑같
모를
못해
못생
보긴
뿐이다
응원
타이
화끈
##아버지
##만을
##적은
##니깐
##없네요
##었을까
##받은
##본영화
##봤습니다
##주기도
##VD
##유치
생각하는
감동의
우리의
보여주고
원작이
이유를
진부하고
지나치게
시즌2
초등학교
류승
먹고
몇몇
세련
신고
예뻐
이용
잠깐
##우기
##요일
##그렇
##거면
##레딧
##함은
##살다
##캐스팅
재미와
재미잇
이해하기
가슴에
뛰어넘
이쁘다
ㄷㄷㄷ
감히
강력
당연
많고
못한다
보며
볼수있
아기
어지
짜임
풍경
할머니
##아주
##에대한
##했어
##것만
##긴한데
##♡♡
사람들의
좋아해서
한국영화는
명작이
표현한
그녀의
다큐멘터리
6점
달라
대화
드립니다
반개도
봤을
악마
않을까
영어
욕망
이끌
주말
착한
참으로
커플
##사이
##로만
##리언
##해진다
##그대로
##하던데
##는건
##받고
##부족
##비디오
##운드
##갔다
##들이랑
좋았을
모르게
##연기도
##재밌다
웃기지도
싶은데
말도안되는
199
공짜
그건
들었다
따로
보통
봤을때
아동
제임
제시
해결
##로써
##니당
##명을
##임을
##루스
##애들
##용으로
##성의
사랑이야기
아까울
##재밌음
모두가
겨우
관한
대해서
똑같은
몇년
변태
보려고
아닙
안본
야동
점수가
할리
##했나
##있나
##부작
##괜찮
스토리의
좋아하는데
10점을
짜증난다
이제서야
캐릭터가
잼있어요
괜찮은데
장르가
시간가는줄
40
DVD
감흥
개막장
그당시
넘치는
못함
빈약
심하게
이소
자주
##자나
##라인
##동생
##토록
##놈들
##먹는
##보다도
보여줬
느껴진다
작가님
어린시절
행복한
보지마라
개뿔
거기에
그것도
기발
담아
올려
잊지
죽이고
##상황
##씬이
##속의
재밌던데
아름다움
긴장감이
부족하다
한심한
이래서
0점이
내면
대본
둘이
말아먹
미스터
신비
어두
없지
이민
##기지
##포터
##되었다
##식의
##회가
##캐릭터
작품은
내가본
하는거
남자주인공
노래도
관객을
21
70년대
간다
동성애
무술
보자
블록
수고
싶을
어쩜
없어요
작위
##은영화
##기분
##려다가
##버그
##음이
##되네요
##느니
##5년
이런영화를
##들이나
있는지
정도의
있었지만
##지도않고
드림
받을
아픈
테러
하늘
##우가
##요소
##받는
##갈수록
##평점이
##답답
생각함
재미없게
다시는
##사람들은
잼있다
왜이래
##000
세상을
답답한
훈훈한
영원히
연예인
막판에
깨닫게
제임스
깨달
낚시
디테일
무리
설득
아예
여름
올리
인해
인디
있구나
전율
조니
최민
##이기
##아나
##문제
##만은
##있어서
ㅎㅎㅎㅎ
보여준다
자신이
자신을
ㅋㅋㅋㅋㅋㅋ
킬링타임용으로
중요한
보았습니다
다이
다루
단편
도망
등등
떠올
모험
보다는
비밀
안볼
장애
최초
클레
하네
##기다
##게요
##나다
##했다고
##연이
##원의
##노래
##주가
##설정
##머리
영화네
배우를
명작입니다
현실성
##장면은
문제가
개연성도
여러가지
안타까운
감명깊
그만큼
대놓고
배역
사고
사진
색다른
숨겨
않네요
야구
오빠
우려
위로
위해서
짝이
찍어
해라
##장을
##라기
##리카
##인것
##드로
##드시
##어여
##았을
##편이
##감도
##re
##얘기
정말이지
최고임
기대이상
한국인
##사람들이
수준의
분위기가
##스타일
sf
결정
남은
만한
방영
볼거
부자
분들은
심오
애들은
유지
잔뜩
##이들
##루즈
##신분
##비가
##러워
##력을
연기잘
##하는영화
생각하면
나오지
주인공은
억지스러운
그렇지
그저그런
시청자
추억이
오래된
##것같아요
비디오로
가치가
죽는줄
짜임새
14
바꾸
살려
심지어
양심
이것이
있었는데
죽이는
집에
한숨
##도는
##보자
##그리
##는대
##추기
생각나서
반전은
오랜만
의미가
답답하고
2편은
M창
결코
돈을
상관
웃고
으리
해석
##인과
##왔다
##건만
##통령
##역시
##영화인데
재밌을
만들다니
##다는걸
하나같이
가슴을
만들어도
극장가서
여운을
어이없
재미도없고
노래가
실제로
기다려
어쩔수
알겠는데
스트레스
본방사수
22
국가
무한
비하면
성격
아래
알수
언니
없습니다
제외
지났
##지요
##지말고
##리네
##기에는
##드를
##쓰고
##부를
##감은
##저도
##en
만들면
재미없었다
연출과
이해안
이야기는
아무런
결말을
##지마세요
##만큼은
모르겠음
몰입도가
느낄수
##보고싶다
소중한
나머지
감정이입
길게
높게
데이
뭐하나
새끼
속에서
스페
연극
열정
잔혹
잘하고
장국
적당히
정확
제니
조작
##보네
##미네
##무지
##겨서
##데이
##애가
##심으로
##세포
##형래
##티브
##1점
##씨는
##피스
##겁니다
##하는건
최고로
최고였다
10대
아니야
한국의
별로임
소름이
지나도
약간의
시즌1
최근에
다운받아
50
구성이
기자
기준
끔찍
둘째
봅니다
부실
선동
소소한
안습
앞뒤
야한
책을
치고
##때까지
##만다
##바이
##얼굴
##소녀
##년의
##관람
##빼고
##웠지만
##종일
##멘타
##눈물
##하고자
재미있습니다
매력을
떨어진다
막장드라마
인상적이
ㅉㅉㅉ
여주가
시청률이
크리스마스
참신한
아닙니다
블록버스터
5분
그야말로
데리고
또다른
먼가
브루스
서부
아내
울컥
이드라마
있던
잘어울
정체
한명
혹은
##이였다
##지면
##장한
##해주세요
##줄이야
##세기
##복을
##취향
영화화
평점조
##다는거
소재도
원작에
흥미로
##레이션
엉성하고
잘봤어요
당신은
예쁘고
##파이어
느꼈다
나쁘지
감각
낚였다
낮네
담배
못봐
뭐니
별반
빠진
새로
수많은
언젠
일깨
자식
잼나게
첨엔
첫사랑
충실
하다가
##때문
##는듯
##과서
##상에
##생활
##신은
##번은
##좋음
##웠어요
##하는것
마지막까지
처음에는
10점주는
20분
영상이
많은데
##생각없이
무엇인지
##부분이
식상한
살다살다
갖고
그자체
끝났
다크
됩니다
만남
살면서
생활
안된
애기
열받
유아
의리
조카
질리지
탄생
하아
할수
##지다
##해주고
##상은
##봤지만
##냈다
##든지
##zz
##ver
이런건
배우들은
느낌의
##배우가
시리즈중
친구가
부모님
##스릴러
b급
거부
달리
로버트
매일
본게
봐줄
사투
손에
시키
잼잇
주기도
핵노잼
형사
##인들이
##보니까
##나니
##어리
##르게
##편은
##겠다는
##후의
##되면
##능력
##강추
##vd
##영화입니다
기대했
명작을
주인공들
짜증만
##나오고
##만들어
훌륭하다
살아가는
##내용이
##♥♥♥
집중해서
##인줄알
태어나서
거짓말
스티븐
다양한
be
김혜
남네요
낮게
넘게
놓고
명화
뭘까
베드
빼면
심형래
이라는
주기
집착
플롯
했으면
헤어
효과
##사건
##리면
##극장
##상의
##신을
##역사
##잡고
이런영화는
생각했는데
감동은
감독을
하는게
이상하게
많은걸
연기력은
##는거야
아쉽지만
엔딩이
배경음악
역사를
한편의
놀라운
아류작
##미네이터
1위
근래
꼬마
꽤나
당연히
듣고
러시아
바랍니다
비행
시끄
정작
조절
주지
##이렇게
##장난
##동차
##기전에
##그만
##하군
##커플
##it
##음을
##치가
##티즌
##누나
##퓨터
##낸다
영화인가
봤는데도
##없는영화
##인데도
여자의
여자주인공
만든영화
보기에는
##ㅎㅎㅎ
##감독이
부분도
이딴걸
돌아가
주제를
어느정도
교훈을
소설을
볼수있는
특별한
쓸데없이
에피소드
you
가지
가르
고맙
교과서
나랑
다를
따분
만약
무료
본거
볼때
스텝
신의
영향
읽어
임팩
잠시
주윤
타고
##로드
##라의
##것같은
##시즌
##형님
##함의
##엇는데
##였어
##팔이
처음에
괜찮다
한번도
시리즈는
자체는
귀여워
포스터가
엄마가
보지말
궁금하다
ㅋㅋㅋㅋㅋㅋㅋ
놀랍다
그립다
일부러
주윤발
44
들고
미쳤
반드시
살린
쓰고
안에
안쓰
않아서
우뢰
위험
정우
짧은
팬이
폐지
호구
##이어
##아쉽
##만하다
##바로
##도를
##스크
##버려
##봤네요
##치곤
##운영화
##성과
##갑니다
##속으로
##묘한
재밌다는
진짜로
생각으로
배우도
시간만
10점이
장면도
짜증나서
20대
나름대로
웃기다
무서워
만들었는지
좋겠네요
두번째
어설프고
말하고자
유일하게
해리포터
가벼운
제니퍼
dvd
나에겐
낮지
내게
담겨
당황
때려
마약
목숨
묻어
바다
봤을까
싸움
어째
재능
짜집
추격
홍상
##이었음
##서는
##리며
##리나
##하길
##래곤
##트의
##치노
##개는
##12
영화와
영화인지
##으로는
##ㅋㅋㅋㅋㅋㅋ
배우는
재미없어서
1점은
별로고
여자들
여자친구
있다니
봐도봐도
떨어지고
아름답게
어울리는
누군가
결론은
클레멘타
일깨워
30년
C급
낮다
받은
배트맨
손색
수입
실력
싸우는
쓰는
아버
애매
웃겼
이병
중학교
터미네이터
확인
흐르는
흑인
##이여
##아는
##로의
##나와서
##했지
##해지고
##같고
##는영화
##선을
##거든
##시오
##부가
##짱짱
##제로
##주면
##계속
##직한
시간아깝다
지금의
##적이지
연출은
이해를
아이들과
1편이
출연한
따뜻하고
수작이다
##좋아하는
##년도에
케이블에서
혹시나
조니뎁
of
그동안
끼워
디워
본지
애국
웃으면서
유덕
이은
이야
이따구
있네
저급
적절
참나
클래
하여
##이쁘
##대해
##문화
##가네
##프닝
##한국
##스키
##나네
##했을때
##있습니다
##았으면
##일을
##겠죠
##악한
##쟁이
영화만
10년이
내용과
아니라고
다시보니
여자는
아까웠다
일본은
소재와
이상의
이상하고
모든걸
제목만
1편은
1편보다
여러분
##OOO
실화를
단순히
희망을
내생에
강렬한
특수효과
이소룡
3번
개념
김지
대통령
로코
머리가
보던
보다니
아우
안될
파워
형님
화장
##이제
##으려고
##적임
##야할
##싫어
##여행
##ut
##점에서
##강호
##es
##귀여
##웠습니다
##싸움
영화같
영화자체
너무도
재밌어서
생각할
마지막이
장면을
일본의
반전을
20년
##스럽지
영상과
재밋어요
아쉬움이
##0000
##감독의
##해야지
여러번
집중이
##전개가
##하자는
ㅠㅠㅠㅠ
고등학교
제이슨
숨겨진
갠적으로
다섯
많아서
무너
뭥미
배신
봤네
빵터
빵점
빵빵
사운드
소피
아놀
에효
예능
이토록
있다고
자세
중에서
하시
하길래
하하하
허허
##박한
##어용
##긴하지만
##주연
##배경
##함도
##정화
##정의
##하고싶
생각도
##었다는
사람도
##부터가
괜찮음
인생에
##건가요
초딩때
##거같아요
잊혀지
유일한
새벽에
우뢰매
1인
ㅎㄷㄷ
감안
강한
극단
기타
난잡
독일
동양
배급
부르
서양
싶어요
아냐
안봐도
외로
울리는
이다
이수
잘하는
착각
컴퓨터
##때매
##면에서
##리와
##인건
##기까지
##드리
##보영
##어이
##었구나
##잖아요
##is
##레인
##죽는
##줬다
감동받
최고의영화
한국에서
아깝고
이해할수
##연기는
공포물
##배우들의
##어야지
아까운영화
언제봐도
점수는
주제가
돋보이는
무언가
마이너스
할리우드
장국영
Good
개노잼
과학
나네요
남기
내돈
답이
두려
맞춰
멋지고
빠른
실험
싶지
아들이
없었음
위대
자랑
장진
적어도
케빈
편안
흑백
힘내
##아치
##프다
##보지
##했으나
##있네요
##햇다
##민이
##뿐이다
##출연
##였으면
##뭐야
##매력
재미로
##으로만
하나로
마음으로
어색하고
한국영화의
잘못된
어른이
예쁘다
몰랐다
후속작
영환데
ㅠㅜ
개성
그들
로빈
망한
망친
못하다
뭐하는
으로
이성
이보다
익숙
정보
줍니다
중2
진리
컨셉
하품
하정
희대의
##아쉬
##인도
##도아니고
##다큐
##오브
##하러
##있을
##구성
##혼자
영화이
##영화보다
사랑해
##에게는
보기에
짜증남
매력적이
잼있음
모르겠네요
만화책
불쌍한
여주인공이
불편한
##하지않고
쓸데없는
6점대
갑니다
같고
김태
나레이션
다세포
따위
땜에
멋있는
사용
생긴
없게
없나요
여친
오브
왤케
잤다
저평가
좋다고
중독
지겹다
탈출
##이프
##드만
##게임
##어가는
##미는
##전을
##차별
##진심
##모두
##버릴
##제가
##러스
##뻔한
##였네
##잡을
아니지
재미없다고
10점만점
기억나는
현실과
스릴도
인간은
재밋음
봤다면
떨어짐
장난하냐
시나리오가
전쟁의
다르게
##그래도
가고
겉멋
낮아
높아서
다신
다보고
도무지
두근
로드
루즈
매니아
민폐
서울
선물
안간다
안보는게
유발
인형
잊고
자본
케릭터
판단
평소
평균
폭풍
프리
프레
##자들이
##웃김
##히고
##하더라
##하거나
##부로
##줄은
##일듯
##후반
##느껴
##몰입
##끝까지
##불허
##는데도
최고봉
이런류의
##었다고
사랑해요
다시보고싶
시간에
명작은
괜찮았다
현실이
짜증나고
##는거지
가족이
나왔다
찾아볼
영화라니
다르다
사이코
오랫만에
이뻐서
각색
고양이
기존
네티즌
늦게
망가
망치
바이
박수
뱀파이어
부탁
알겠다
이준
잠이
죄송
줄리
키스
폭발
한방
했음
##사에
##이에
##은거
##지나
##으신
##자로
##리한
##보내
##더빙
##같아
##빠진
##선생
##간에
##애들이
##부는
##주기
##좋았다
##중이
##식은
##희가
##판이
##랜드
##7년
마지막회
작품입니다
아무튼
짜증이
작가의
세상이
궁금해서
영상미가
자극적인
##ovie
공짜로
2번
25
거북
관련
극복
김치
김희
꼭보
꿈꾸
달콤
대신
돈내고
라스트
말자
맛이
명복을
반담
본듯
부담
선정
아진짜
압도
어떨
요새
유럽
잊을수
장동
재개봉
좋네
주고싶
즐겨
지겹
짐캐
최소
최소한
포인트
하하
한다는
흡입
##사와
##아저씨
##지현
##즈의
##안됨
##왔는데
##어버린
##전이
##3년
##시면
##모로
##또한
##티노
##개그
##졌음
##느끼
##성기
##as
##웠고
##납니다
액션을
느낌은
괜찮았는데
인생은
억지감동
이제는
##메이드
가족의
잔잔하게
미국의
사실을
유쾌하게
불쌍하다
어쩌면
살인마
내생애
##하지마라
인터넷
어우러
못봐주
개똥
과대
그것이
그것을
끌고
나이가
달려
도데
되네요
맞아
명불허
목소리가
무겁
밀려
부정
분들이
빛을
사상
삶이
어리
열연
오프닝
왠만한
우연
원조
유행
자기가
자동차
집어
책임
천국
추리
파괴
하며
환경
##이도
##서도
##가리
##드림
##보이는
##게하는
##우의
##하디
##있었다
##세여
##슨이
##개가
##엇음
내용의
감독도
마지막엔
기대없이
볼만했다
볼만합니다
##스러워
##기도하고
제목을
그렇지만
왜이러
무엇인가
영화였음
시대에
포스터만
얼굴이
##ery
##거같음
믿고보는
리얼리티
소중함을
거품
꼭보세요
나무
담백
못미
무게
받고
본건데
세번
엑스
이동
인종
정상
좋을듯
파격
풍자
헛웃음
호기
##장의
##자들의
##가에
##도의
##보긴
##스포
##나도
##했었는데
##해선
##하균
##래도
##았네
##마자
##물로
##까요
##분은
##못해
재미있는데
내용인지
만들어서
사랑합니다
다시보고
없는게
##같은영화
유치해서
매력에
인생이
정도면
조금은
봐야지
시작부터
포스터에
않았지만
이름이
블랙코미디
스포츠
제시카
16
개나
객관
글고
깡패
동시에
드래곤
명장면
별하나
보내
보았는데
브래
사무
아파
안어울
어둡
없냐
없다고
예수
이렇
임창
죽고
찍고
할아버지
흔들
##라노
##들여
##들끼리
##적으론
##인게
##인지도
##스케
##더더
##싫다
##오래
##테러
##란티노
##딩때
영화야
내용에
액션과
한국판
소재의
##생각이
뻔한스토리
배경이
##라이언
2편이
전체적인
귀엽다
##모르고
영원한
허술한
보시면
은근히
이도저도
짜집기
홍상수
갖다
고독
공간
길이
단어
맞지
매미
뭐고
반대
벗어
불안
불가능
빛나는
생에
싶었다
알파
암걸
없으면
엑소
역량
왜곡
일베
첨부터
콜린
탁월
한개도
##아빠
##대고
##로로
##라에
##인들의
##기법
##스와
##스톤
##있지만
##트를
##임에도
##받을
##시가
##부의
##ow
##주일
##형제
##할만한
##졌던
##운이
##굿굿
##중에서
##nd
영화나
사람들에게
감독과
시간때
좋았을텐데
아깝네요
느낌이다
아무생각없이
##배우의
영상도
##재미없음
전개와
추천하고
공감도
##감독님
##ㅜㅜㅜ
친구랑
무섭고
당시에
들어가
##아까움
##♥♥♥♥
교훈도
100점
탄탄하고
황당한
메세지
가득한
어렵다
피해자
선생님
역겨운
전반적으로
류승범
이병헌
2탄
9점대
th
가정
공중
끝에
냄새
녹아
동네
듭니다
때마다
만난
매끄
몽환
무간
무난
바탕
밤에
볼려고
상징
수면
아담
안무서
양아치
울면서
적절한
절망
죽이
진한
##장르
##라라
##들한테
##리엄
##없나
##있지
##있던
##트는
##원은
##무시
##간히
##았네요
##신의
##od
##봐야지
##저리
##2년
##중훈
##였나
##허접
##께요
##ck
영화예요
드라마의
사람이라면
사랑하고
이해불가
##라는게
##을까요
정도가
요즘은
떨어지
봐야하는
시대의
설정이
가능한
라이언
소장하고
가까운
어두운
movie
강간
개콘
것에
고어
담은
데뷔
메이
뭐임
받는
버려
빕니다
신하균
안들
어쨌
웃기는
웰메이드
읽고
조화
즐길
짜릿
찾아서
첩보
혐오
##이요
##장애
##자면
##프리오
##들러
##스에
##더맨
##습니까
##구가
##준호
##질않
##진이
##억지
##법한
##할지
##둥이
##까지만
##빨리
##웨이
##쥬얼
##놨네
생각난다
마지막장면
나오는데
아무도
##배우들이
공감할
##내용도
만들었나
##레이드
198
이것보단
의도가
12세
다행이다
아프다
뜬금없는
하나하나가
외계인
도데체
2는
가히
고뇌
기회
끝나서
담긴
드디어
리즈
무거운
버리고
베리
빠지는
소화
쏟아
쓸쓸
아만다
애초
오우
일으
잠들
좋앗
트랜
피터
할때
##이름
##은듯
##리스트
##졸작
##의를
##위원
##시원
##시청
##님들
##le
##되는데
##감과
##졌어요
##중반
드라마에
재미있었음
아니었다
##했다면
괜찮았음
공포를
반전에
##지않는다
캐릭터들이
##ㅎㅎㅎㅎ
ㅋㅋㅋㅋㅋㅋㅋㅋ
##쓰레기영화
오글오글
알았음
##으면서도
명불허전
EBS
건가
깨알
나을듯
담담
되는데
드네요
디카
매번
밑도
박신
박중훈
보단
송강호
승리
싶었던
어거지
이란
잊지못
즐기
창피
##대단
##로그
##들로
##보구
##나네요
##오오
##없지
##어지
##어디
##하니까
##위한
##쓰는
##거리가
##남기
##슨의
##년전에
##할뿐
##되나
##분들은
##점수
##살이
##살아
##유리
##먹은
##승전
##뚱맞
##므로
영화속
최고네요
기대가
아깝네
아이디어
괜찮고
괜찮게
만들어낸
##다니는
어이없음
기분나
않은데
언제까지
배경으로
감동적이네요
##재미있게
##아닌가
못보겠다
거기다
하이틴
유덕화
강동
끝도
니가
도둑
말그대로
망할
먹는
미녀
배꼽
변화
빨갱
선사
앞에
엘리
이종
자아
정당
질리
축구
하도
했더니
황정
후에
##만도
##자리
##가운
##같아요
##진않
##모를
##마이
##신분들
##비슷
##ot
##치의
##할수가
##민의
##함께
##정한
##좋게
##워즈
##답니다
##패스
##꺼면
##났음
##롭고
드라마입니다
재미있었습니다
##라고요
나오네
1점준
모르지만
##정도가
장면들이
현실은
개봉한
어이없다
보게된
인상적인
있었으면
더빙이
빠져서
이름을
당신이
##재미있어요
허무한
홍콩영화
진지하게
요소가
풋풋한
화장실
걱정
그들이
깊게
나중
넘넘
다녀
던져
뒤에
리암
머릿
못본
반영
보려
보라고
보았던
비호
비쥬얼
빼곤
삭제
암울
요리
음식
이승
자고
절제
점이
총체
한지
한효
형제
##아노
##박죽
##자와
##가슴
##적이라
##야한다
##기와
##에다
##그랬
##위에
##잖은
##제작
##치를
##9년
##관에서
##조현
##분한
##분위
##잇는
##죽박죽
##타고
##ed
##희의
##초반
##왕국
##꺼야
##늦게
##★★
영화평
재밌었던
##ㅋㅋㅋㅋㅋㅋㅋ
10번
사람들을
연출력이
아이언
정도는
캐릭터도
실망이다
최악의영화
미국식
장난하나
엔딩크
##라이즈
순수하고
CG가
개그맨
TV에서
아버지의
나머지는
뜬금없이
메시지
섬세한
놀랐다
오로지
설득력
평점조절
알파치노
것들이
격투
내일
놀란
늑대
말투
보라
부산
분량
비록
시종일
아카
안가
어떠
에드
예측
왠만
우디
이별
잠을
전화
치유
타란티노
평화
한순간
##이든
##지부
##때도
##으러
##프고
##프레
##리네요
##울뿐
##도로
##어의
##미스
##선택
##여진
##겠는데
##겠다고
##비해
##든가
##분의
##분들이
##1년
##11
##살인
##줬으면
##못한
##못하는
##탈출
##★☆
##하고는
연기하는
##까지도
지루하기
재미있어
다시금
##있는영화
이영화의
##연기력
보기가
##드라마가
짜증나게
한번더
캐릭터를
코미디영화
##생각을
귀여움
알았네
당신의
에로영화
##리의리의
생각해보게
다운받아서
거지같은
소름끼치는
부자연
건질
것인가
기괴
기획
긴박
뒤죽박죽
레옹
말고는
모른다
뭐여
뭐라고
뮤직
버린
삶과
생겼
소통
숨은
신인
싶어서
안본다
억울
엽기
오는
올레
워낙
원숭
의상
이쁨
절로
첨이다
칭찬
키아
한시간
혼란
힘을
##고생
##으리
##웃겨
##내지
##했을까
##없어요
##선이
##거같은데
##수선
##모든
##림이
##주지
##후에
##후회
##치도
##되게
##찬란
##낮은
##성우
##dd
##뭐냐
##곳에
최고최고
공포가
개봉당시
대사도
어디로
모습은
조금만
시리즈의
시작해서
전쟁영화
스타뎀
만들었을까
보지마셈
여러모로
않았던
2점부터
ㅋㅋㅋㅋㅋㅋㅋㅋㅋㅋㅋㅋㅋㅋㅋㅋㅋ
질질끌
멋지게
영화보다가
만점에
오글거리는
어설프다
시도는
김수현
둘째치고
디카프리오
가수
같았다
것만
공유
구성도
극중
글을
끝을
낫겠다
누나
따름
마시길
맡은
묘한
민주
부활
블루
소개
실감
심장
어딘
에라이
역겹다
왕조현
우린
이지
졸업
중학생
줘야
쯧쯧
테이
페이크
하다니
한가
호불
##만족
##다르
##없게
##원을
##을수가
##것에
##르소
##구의
##전의
##셔야
##루토
##시의
##공감
##존나
##물의
##ic
##증이
##햇는데
##20
##al
##8년
##광고
영화일
보고나니
드라마다
재미있었는데
사랑스럽고
재밌게봤어요
아이들에게
극장에
수준을
배우들을
연기력에
엄청나게
표현할
##한테는
##00원
살아있는
장난치
##내용인지
있었고
충격적이
##하시고
독특하고
좋겠습니다
진지한
아마추
제작비가
##기억이
박진감
스파이더맨
감명깊게
시종일관
##★☆★☆
90분
to
괜찬
국어
그가
그이상
데스
말아야
몰라
불과
스피
우선
있으나
잘한다
줄수
차이
차승
찾는
킬러
하세요
향연
##이리
##때부터
##BC
##인에
##화이팅
##없을
##트로
##무리
##상실
##시나
##님은
##애들은
##편을
##럽지
##제목
##볼만
##볼수
##씨도
##석규
##유발
##크루즈
##매이션
##먹을
##높은
영화인줄
최고라고
생각만
재미있을
사랑스럽다
액션씬
기대하지
1점이
별로였다
아이유
아이들의
##정도의
##하기는
음악은
영상은
전개는
##지않다
긴장감을
1편에
세상에서
보게되
답답하다
귀여워요
역사에
충격적인
##것같네요
이미지
##재밋게
그리워
그려낸
미스캐스팅
깔끔한
형편없는
산만하고
아기자기
하정우
브래드
1등
1회
ㅈㄴ
가짜
갔다
고문
능가
닥치고
당장
떡밥
로망
말인가
모욕
미션
밝혀
보이지
숨막
애잔
없었
왔다
왔습니다
이나
일을
있긴
재수
전도
절정
절대로
직업
하기
한동안
했습니다
##지르
##때는
##으셨
##인걸
##도에
##스텔
##우스
##안돼
##같아서
##어린
##렸음
##상태
##갈때
##여주
##마리
##겠어
##ig
##예진
##번에
##좋네요
##워드
##덕에
##였지
##랐다
##역할
##ay
영화지
드라마도
재미없네요
보는거
다시보기
마지막은
기대이하
10점준
이야기의
##정도는
보여줄
유치찬란
##하나하나
이상해
##하기에
##너무너무
만들어라
##재밌어
대박이다
표현이
잼있네요
##점이상
남는게
부분은
스타워즈
역사상
몰입도도
오래전에
영화라서
감동적이에요
티비로
상황을
삼류영화
흘러가는
15세
안맞는
엔딩크레딧
키아누
게스트
그로
나음
대학
되돌아
두시간
똑같이
마법
마찬
마냥
말씀
맞추
모니
무의미
뭐하자는
박보영
베이
별거
별점이
보아도
본질
부러
브라
섬뜩
성인이
속았다
수록
시험
시켜
신이
어차
여신
연상
온갖
원주
의사
인류
잃은
재방
조낸
주온
줄이야
펼쳐
한석규
허나
##이죠
##가면
##스틱
##나간
##영의
##다음
##미의
##있으면
##트릭
##었냐
##위가
##범죄
##상영
##시기
##일러
##버스
##코메디
##발견
##비에
##제를
##주행
##티가
##정쩡
##살때
##귀엽
##맞는
##못하고
##롭게
##켓몬
스토리나
10점은
##연기를
현실적이
##하기엔
억지스럽고
캐릭터들
가족애
가족영화
흥미를
어디에
캐스팅이
의도는
##시대에
잘만들었다
누군지
슈퍼맨
정신병자
중2병
바탕으로
애초에
비호감
17
com
is
개꿀잼
극혐
나열
난리
납득
났다
내시간
단체
더더
동영상
드니
말았
명대사
모아
모른
못만들
바닥
박찬
방해
방향
별한
볼까
부부
성형
소유
안녕
앞서
여기에
열라
우왕
울었어요
이만한
일주일
재앙
좋으나
쩔어
클로
태국
피아노
한다고
했을까
했으나
화질
후하게
##아름
##가의
##리는데
##기위해
##드네요
##나보다
##빠져
##없는데
##것같은데
##본색
##소름
##일의
##신도
##관을
##tt
##빼곤
##답게
##am
##끝나
##새록
##됐다
##힘들
##쩐다
##맘에
영화랑
재밌었
보고있는데
드라마로
쓰레기는
좋아하지만
하나는
10점준다
여자를
아까워서
공포는
아무나
남자는
인간들
필요가
가족을
모르겠네
관객이
들어간
영화라지만
성룡의
사회적
자연스럽게
2014년
그럴싸
##프로그램
감동적입니다
미소가
난해한
두고두고
세월이
뛰어넘는
어차피
과정
권상
넘어서
니네
대부
돈아깝
민족
방황
분장
불법
설경
손가락
싸우
아바
안보면
안좋아
안무섭
어수선
어정쩡
영구
오리지
음향
입장
잼있는
조지
좋지
지옥
짱이다
캐릭
평을
하기엔
했는지
##은경
##아내
##가면서
##동근
##기종
##드먼
##웃기
##나의
##해져
##어스
##어색
##어떻게
##미를
##있냐
##의식
##노답
##집어
##심에
##할뻔
##느냐
##분을
##잡는
영화적
생각은
이거보단
별로네요
이영화에
괜찮았던
이상은
아쉬워요
정신이
살아야
의미도
무섭게
행복하게
초반엔
웃음을
지루함을
##하자면
크리스찬
낮은지
한심하다
죽음을
그림체
로맨틱코미디
그럴듯
미스테
말이필요없다
조잡한
##준것들
걸까
남성
내취향
넘치
도와
들어서
막상
매주
못하겠다
보석
본격
비참
상태
상큼
쉬운
스펙
신세
싶습니다
안나온다
애틋
연관
오지
오해
웃었다
웃겼다
작화
토니
판타
해외
해야지
흉내
##아지
##아직
##대에
##때가
##바람
##가위
##보러
##스레
##나이트
##안에서
##미화
##것들
##구라
##질질
##im
##천원
##bc
##죽이고
##판을
##불쌍
##줍니다
영화란
보고난
이거보다
하나가
1점을
괜찮네요
주인공들이
만든거
이상하다
애니는
##나오네
실망이
제목에
아니라면
개인적인
알바가
절대보
강추합니다
완벽하다
완벽하게
##치고는
돌아보게
##쓰레기쓰레기
어울리지
좀비영화
미안하다
잘생겼
##최악의
오랫동안
이끌어
우려먹
데이빗
테이큰
bad
관점
관심이
굳굳
극본
길을
나고
난무
놀래
놓치
눈으로
니들이
담고
런닝타임
맞나
머야
멋짐
명연기
명성에
보겠다
본능
빠순
살리지
상대
속이
수는
실사
실수
안감
역겹
올드
웃는
원하는
유승
있었음
잘보고
정사
졸잼
주관
지독
진수
하드
##사고
##사실
##지네
##면이
##으려
##리면서
##한편
##보네요
##더군
##더라고요
##하실
##하시길
##원에
##원에서
##움과
##렸던
##따뜻
##시스
##발연기
##태현
##개를
##졌으면
##저것
##저냥
##조금
##찾아
##타쿠
##추억
##필버그
##앗다
##달라
##엄청
##맞추
##베이
##놈이
너무하네
재밌었습니다
스토리로
만들수
##하지말
##부터는
아이디
그런거
유치해
가장한
##스러웠다
억지스런
##장면도
긴장감은
제대로된
느껴질
부족하고
보고싶은데
느끼고
점수준것들
결국은
충분한
자연스러운
2014
평론가들
만드네
후반부에
ost도
알려주는
완성도가
##ㅇㅇㅇㅇ
##9999
니콜라스
세련된
기발한
7광
가만
감수
과도
나루토
남의
니들
뒤늦게
듣기
마녀
마블
만났
말은
말해
멋져
멋있고
모방
바라는
반지의
불가
빠질
사과
소지
시골
심하다
쓰러
애들도
얘기를
완젼
욕이
욕을
의한
이탈
재탕
주세요
지가
참여
처절
첨으로
크레딧
편하게
포켓몬
한거
##사도
##이었던
##장에
##만듬
##가며
##라지만
##스카
##채널
##하길래
##있었는데
##작을
##구역
##데미
##시지
##모양
##물에
##력에
##관객
##갔는데
##웠는데
##께서
##덩어리
영화볼
연기의
최고에요
드라마중
감독에게
##다는건
쓰레기를
시간도
처음본다
우리에게
아이를
괜찮았
현실적이고
음악을
만들어주
모든것이
여운도
가족과
떨어뜨
느껴졌다
시리즈를
나왔던
보게되는
##고싶은
문제를
설정은
2편도
이것은
##시키고
킬링타임용으로도
안나옴
풀어낸
웃겨서
다니엘
고등학생
임팩트
파워레인
아놀드
##라에몽
박찬욱
4편
가야
감이
감성이
감성을
공룡
과정이
구조
군더더
귀찮
기적
김명
꼭봐야
꿈과
낮네요
늙은
다이하
도시
돼지
때가
때는
레오
머냐
먹칠
무식
미쳐
반갑
버렸다
봤고
살렸다
새삼
색채
성의
소년
쉽지
스토
심장이
안보는
않습니다
옆에
오직
우는
유익
음모
의해
있겠지만
잡아
잼없다
전지현
지극
지경
짜리
짬뽕
쩌는
찬양
책으로
초월
커서
코스
틀림
했어요
##이었
##아리
##말을
##인지는
##스코
##우리
##나가는
##에다가
##없었다
##하루
##래요
##극을
##실히
##명은
##았나
##진창
##제발
##주네
##주는데
##졌습니다
##엇어요
##조연
##TV
##성한
##표정
##승우
##ct
영화감독
연기로
이런것도
그냥저냥
아니잖아
재미없을
보는것
시간은
시간과
최악임
여자들이
##하기가
원작은
애니매이션
##이라는게
##만큼이나
##ㅜㅜㅜㅜ
무서움
허접하고
엔딩은
추억을
결국엔
분위기는
##부분은
영상미도
장르를
##느낌이
상황이
참고로
##그런지
영웅본색
동화같은
적당한
나머진
##ㅋㅋㅋㅋㅋㅋㅋㅋㅋㅋㅋㅋㅋㅋㅋㅋㅋㅋㅋㅋㅋㅋㅋㅋㅋㅋㅋㅋㅋㅋㅋㅋ
상처를
재난영화
밋밋한
##학년때
겨울왕국
언젠가
아버지가
빨갱이
호불호가
마찬가지
아바타
1개
8점은
A급
간단
강요
거장
걸로
고증
구경
그외
기법
낭만
너희
넘쳐
다름
대결
되면
되었습니다
들게
따듯
마니
멋져요
뭐랄까
미학
벗어나
본것
부드
비정
빨간
새록
생존
소소
소리가
아메
안좋
안가는
않아요
엄정화
엉뚱
연습
오페
욕나온다
웃을
위트
이어지는
입장에서
있냐
작가는
조차
졸리
준비
찍는
채워
치료
팝콘
픽션
한줄
해준다
호흡
##바라
##바닥
##리즘
##동이
##기나
##내서
##나라는
##영은
##론의
##플린
##임이
##시킬
##집에
##일본
##버츠
##발이
##급영화
##년만에
##감한
##계를
##줘요
##100
##ㅠㅜ
##et
##못함
##랬다
##누라
##승헌
연기만
연기자들
사랑한다
보는동안
기대했던
처음이
나오네요
이렇게까지
아이고
##사람의
소재만
##하나요
##였다면
##재밌고
캐릭터는
##생각으로
모습에
긴장감과
알바생
1편의
의미있는
인상적
이딴게
하지원
이것저것
시즌3
##지루함
##좋은데
후반부로
전편보다
어설프게
이하도
오그라드는
빠져들게
이정재
클레멘타인
10점만점에
김희선
무간도
잊지못할
한효주
아이언맨
80
MBC
갖게
거다
경악
구혜
국산
껐다
높지
대역
드라
러셀
로마
면이
명배우
못했던
박시
받아야
보구
보이고
삶은
센스
송승헌
수사
신세계
싶다면
안봄
안봐서
알수있
어중간
없던
없어도
에바
여유
역작
오인
와서
왔는데
용기
웃다가
인가
적은
적나라
전라도
정주행
주고싶다
죽어
커버
포함
피식
한글
한정
흉내내
##아들
##아의
##고한
##기술
##방식
##보던
##보소
##스틴
##해가는
##안된다
##다리
##어를
##있을까
##포스터
##포인트
##데렐
##시네
##il
##제대로
##치다
##되요
##뻔했다
##♡♥
##였네요
##달라고
##속을
##맞고
##크로
##셨으면
영화찍
최고인듯
지루했음
##다는것
다시봤는데
작품에
액션만
기대된다
지금보면
아깝습니다
이해도
기억을
주인공들의
유치원
##사람도
몰입하게
애니를
인간적으로
##지않아
재밋고
##던데요
느껴지
시리즈가
노래는
나와야
안되네
초반에는
지루함의
개인적으로는
귀여워서
시대가
만들었냐
불쌍해서
여주인공의
걸작이다
##재밋음
##모르게
감성팔이
식상하다
엉망진창
진실을
심리묘
거기서
흥미롭게
필요한가
심각하게
과장된
아직까지도
러닝타임이
영화제목
화끈한
전율이
어쨌든
총체적
거듭
고스
고질
공허
날아
눈요
당할
더러워
도라에몽
돈만
돈과
되서
된장
될듯
딸이
또보고싶
로멘
많네
말았다
말밖에
멘탈
모순
물어
미야
믿기지
바란다
반응
받았
발음
배울
버무
번역
브로
비해서
뻔하다
소품
시체
십점
싶음
아팠
앉아
앞에서
애가
야하지도
완죤
왕가위
외면
욕심
우승
웃으며
월드
유사
의지
이순
일찍
일어나
점에서
좋더라
줄리아
초중반
최대
커피
패션
편의
평론
회상
흠잡을
##말도
##으세요
##가야
##들린
##보인다
##없지만
##없습니다
##을지
##는것도
##것보다
##위를
##렸네
##시네요
##소가
##소리는
##혀서
##진행
##일에
##신기
##경을
##배는
##러니
##운데
##믿고
##약한
##뜨고
##브리
##6년
##창시절
##넘치는
##ff
##옵니다
##영화네요
정말정말
스토리전개
만들다
재미없었음
시간아깝
액션의
기대한
1점준것
모르겟
##라는걸
##드라마는
매력적
전개에
##주고싶
대사와
제목은
스릴러물
느껴지지
답답해
##고싶어
영화였는데
이딴거
당시엔
만들었으면
캐스팅은
충분하다
##것같음
영상미와
##시키지
어쩌다
의도를
진행되는
훈훈하고
설명이
##하겠습니다
느낀다
##공포영화
30대
할말을
돈아까워
##하셨습니다
여태까지
비행기
엑스맨
국어책
70
강지
개망
고작
고소
고양
공연
공주
그나
기승전
끝판
낚인
남친
노무
대학생
돈은
됐다
들이
따스
마다
마구
말아
말하려는
못따라
박정
반도
받았다
백인
보지도
보낸다
본인
본듯한
샤론
손꼽
숨어
스필버그
심사
심한
싶었는데
어땠
연인
운동
웬만하면
위안
이태
이중
인지
인권
자리
잘하네요
재치
정통
정석
죽인
줄거리가
지키
지상
지저
추구
커녕
텐데
파고
편인데
하니
핸드
했나
황금
##이영화
##아이가
##가장
##리지만
##드립
##한텐
##같네
##오늘
##하늘
##것인가
##것처럼
##구는
##팬이
##마르소
##많고
##id
##경찰
##형이
##감정
##저나
##평을
##줘야지
##15
##목소리
##절대
영화같은
영화같다
##영화제
최고인
이런식으로
감동이다
감동입니다
쓰레기네
##하지말고
나오는거
느낌도
여자애
##너무잘
많은것을
어디가
어디까지
세상의
##할수도
##할수있는
우리나라의
문제는
잔인하고
##것같아
197
이것보다
인물들의
여배우의
킬링타임용도
##하하하
##아닌데
영화인것
오글거림
바라보는
메세지가
메세지를
마무리가
##줄알았는데
감동적임
남아있는
##마저도
부끄러운
아련한
이따위로
##이후로
예뻐서
사투리
클래식
##스포머
드래곤볼
임창정
지극히
40분
ㅜㅠ
각각
간간히
감옥
강호
고인의
구지
그에
그시절
꺼져
끝남
나면
남고
내고
넣어
데미
덴젤
돈낭비
마리
모양
목적
문득
미장
배드
본건
생명
서스
서정
손예진
승부
신데렐
안다
약하다
어마
엠마
열광
오유
욕만
의견
이자
이뻤
일일
있었습니다
재방송
적극
정준
중의
중후반
출발
표정이
학창시절
한예
한쿡
힙합
##이뻐
##이들의
##대기
##지에
##자인
##보려고
##스턴
##니가
##돌이
##돌려
##오고
##하의
##었을텐데
##긴장
##시켰
##져야
##일은
##마나
##버튼
##경이
##란한
##란히
##개의
##놀이
##답다
##판으로
##끝나고
##케이
##알고
영화들이
##하고싶은
보고도
##었다면
좋아했던
##으면좋
처음이네
명작임
기억난다
이영화보고
일본에서
현실감
20년전
재밋네요
1편을
만화가
초반부터
관객들
힘들었다
시대적
주연의
미친듯이
감동적이었다
나올때
나올까
CG는
사회의
##시대의
tv에서
흥미진진한
귀신이
##줄알았다
환상적인
러브스토리
이기적인
다큐멘터
아픔을
김민종
빈약한
한숨만
스페인
영향을
손색이
소피마르소
장동건
공중파
에드워드
##지부지
아마추어
소지섭
이탈리아
간지
개잼
거야
것과
결과는
나을
농담
눈치
달리는
돈으로
되어야
들지
람보
만으로도
명확
몰아
몰락
미술
발랄
배가
보일
본적이
봤지
봤나
빠르
솔까
수십
순진
신화
애로
없애
에릭
엽문
이전
이를
임청
자위
잘안
죽일
중년
지워
차태현
코드
클리
태권
통해서
하긴
허탈
흐지부지
흥분
##면을
##즈가
##방에서
##니스
##던거
##것들이
##구를
##구먼
##명한
##간이
##거워
##녀의
##코드
##코믹
##봤네
##세상
##숙한
##예쁘
##할줄
##개념
##번을
##러티브
##격이
##올라
##el
##듣고
##알아
##언제
##참고
##롭다
##멜로
영화내내
생각했던
드라마라고
10년전
사람에게
사람마다
좋아하시는
기대안
있는가
지금이나
명작이라고
원작과
##지않게
##지않음
연기력과
어이없고
자체도
보고싶네요
만화를
분위기를
진부하다
##아까운
하지말
19금
B급영화
장르의
더욱더
관람객
소리만
불륜을
우울한
한계를
오락영화
##지말자
믿을게
기가막
강력추천
다크나이트
고맙습니다
정우성
다세포소녀
엑소시
시간때우기
수면제
트랜스포머
더더욱
다이하드
미장센
7점이
90
The
가난
갖춘
것들
그는
그들을
김선
김윤
깨끗
남긴
내세
노튼
단역
돈벌
동감
망설
멈추
모독
모호
못하
못해서
무대
박평
부각
상어
생기
성경
송혜
스킵
애절
여튼
연주
였다
예뻤
유령
이영
이라고
잘해
잼나
적이
제왕
조아
줘도
지는
찾기
첫번째
피곤
하지마라
한가지
함부로
향한
홧팅
##이걸
##이들이
##지라도
##자도
##자꾸
##CG
##프라이즈
##라곤
##한가
##에로
##에대해
##같네요
##연의
##재현
##트라
##구리
##려도
##실패
##전은
##남을
##상한
##님을
##공주
##진실
##행복
##겠고
##않고
##비추
##할것
##할거
##함으로
##저기
##조아
##궁금
##효진
##떨어지는
##놈은
##놈의
##깊은
##넘게
##손가락
##율이
##cn
##센스
##댓글
영화판
##하고도
##하는것도
생각나게
사람과
쓰레기가
1점준다
10점짜리
만든건지
일본인
공포도
볼만해요
다른건
##하나도
보기싫
인생에서
##재미있다
하고싶은
대사는
어설퍼
의미없는
OOOO
초반부
지루함이
슬프네요
##부분도
캐스팅도
설정과
주제는
발연기에
##재밋다
여배우가
##보기엔
슬픈영화
가치도
카메론
아빠가
분명히
오글거려서
웃긴다
3편은
싫어하는
미래를
굿굿굿
레이첼
이루어
가까이
슬퍼요
슬펐다
베드신
이따구로
탁월한
오우삼
새록새록
1탄
it
re
가라
그대
그와
길다
김영
깜놀
낚여서
남기는
납치
되야
드물
듣는
또봐도
또라이
런닝
마틴
마스터
만날
많음
못하네
미치는
믿기
반감
법정
빠지게
사망
색깔
시점
쏘우
안나오는
어케
없으니
열자
윌리엄
이외
임수
잡고
장소
잼나요
잼없음
조기종
종합
주먹
죽기전에
쥐어
지하
친일
컬트
터지는
톰크루즈
퇴보
하지마
해요
환장
흑흑
##이니까
##지원
##지효
##자들은
##가라
##프리
##인해
##더스
##더러
##왔습니다
##어어
##미도
##려야
##려진
##거에
##거죠
##듯하다
##심한
##치만
##줘도
##덕분에
##깁니다
##였구나
##희는
##허무
##특히
##특집
##곳이
##펙트
영화계
재미만
연기한
평점올
배우와
쓰레기임
다시보게
작품의
최악이
연출을
아깝다는
명작이네요
이야기에
재밌게봤는데
일본영화는
##드라마를
##스러울
추천한다
캐릭터의
코미디는
떨어져
아쉬웠지만
남는건
어린아이
답답해서
시나리오도
힘들게
예술영화
##말고는
이번에
2012
안타깝네요
만드냐
##조차도
아프리카
그럼에도
게임을
##애니메이션
안나오고
의외의
의문이
영화라는게
떠오르는
오로라
과대평가
매미OO
아카데미
원주율
##ttp
군더더기
구혜선
오인혜
0점을
28
5점대
8점이
in
♥♥
ㅂㅅ
가을
강하게
건강
경의를
괴수
교회
그를
극찬
기록
끊임
끝은
날려
남기고
내리
노골
논리
더럽고
도움이
드문
때의
만세
만듬
맞다
머가
머리를
멀쩡
무색
버릴
볼것
봤다는
봤는지
부디
불면
사로
서극
성적
식스
싶으면
쓰나
안겨
않네
알아야
어딜
영광
우롱
윌리스
인데
잠수
존잼
집단
쪽팔
차마
참을
추가
카피
쿵푸
크다
파이
##아냐
##말까
##고도
##로맨
##서트
##자에
##기보단
##안되고
##그렇게
##히히
##왔던
##습니당
##하죠
##하지는
##하구만
##하더라도
##있다면
##을것
##극장에서
##데요
##받아
##남아
##시나리오
##잔인
##잘생
##양의
##비는
##통수
##치기
##입니까
##할게요
##감에
##정보
##잇다
##현준
##뒤에
##두사
##끄는
##십니다
##써요
##될듯
##봣어요
##ce
재미나게
##하고싶다
##하는듯
평점도
지루하지않
내용전개
아니네
아니네요
만들기
1점주는
아이들은
일본이
공포영화가
보여줌
무슨말이
결말까지
현실에
현실적으로
이상으로
남자를
원작소설
인생영화
만들어야
한번씩
필요하다
재밋는데
개봉을
잔잔하지만
떨어진
나와도
##할수없는
무서울
웃음만
코믹영화
뛰어나
상상력이
영화중에서
오글거리
굉장한
평가를
##거같아
높은지
##좋은영화
##모르겠다
머리에
크리스토
안타까움
짱짱맨
인상깊게
글쎄요
##새끼들
일어날
##최고의영화
사기꾼
불쾌한
##마지막에
존경합니다
특이한
편견을
가슴아픈
##000원
심오한
정확히
별반개도
best
힘내세요
겉멋만
짐캐리
흡입력
인종차별
어떠한
강지환
송혜교
1개도
2가
300
60년대
99
very
가깝
간직
같지만
관대
관심을
구분
뉴욕
대가
돈아깝다
들어도
등록
뚝뚝
면에서
밀라
번을
베트
별1
보아
살리
상실
성찰
송지효
신념
안좋은
없었는데
엉터리
에러
예산
완성
우아
울었습니다
원피스
일관
있어도
장혁
재현
저지
저게
쥬라기
증말
지진
징징
찬사를
총알
퀴어
하던가
학살
한대
해주세요
홍진
##사에서
##이래
##이형
##랑은
##문을
##장은
##만하고
##서방
##들어서
##드려요
##도없는
##니버스
##래셔
##려니
##34
##얼마나
##렸는데
##질이
##상욱
##시도
##여야
##여자가
##디가
##버리지
##잘못
##op
##러워서
##워라
##병맛
##타는
##살에
##성으로
##빼고는
##짓을
##판타지
##귀신
##앞에
##슬리
##체를
##솔직
##케팅
##훌륭
##쾌한
##돈으로
##힘든
##냄새
재밌었고
##에서만
스토리지만
지루하기만
드라마네요
재미있어서
아니라는
사람만
좋아하네요
나오기
나오다니
주인공을
##사람을
볼만한데
남자라면
매력은
아름다웠다
필요없음
##는거냐
공감을
##주고싶다
##스트라
대사를
표현해
아니라서
아쉬울
##이란게
무섭지
만화영화
웃음과
오늘도
##내용은
배경과
슬프지만
졸작이다
당시에는
역사적
애니메이션이
주연배우
충격이
따라가
여기저기
감동도없고
영상미는
네이버평점
인물들
##재밋어요
##노잼노잼
여배우들
알게된
ㅋㅋㅋㅋㅋㅋㅋㅋㅋㅋ
몇번이나
혼자서
상영관
과거를
먹먹하다
몰랐는데
중반부터
이연희
철학적인
메시지가
실패작
역할을
시원한
어렸을적
퀄리티가
통쾌한
대표적인
지겨워
한번쯤은
초등학교때
최초의
신세경
미야자
끝판왕
1분
http
ㅠㅠㅠㅠㅠ
가해
개같은
경제
경계
골때
괴로
구라
끝난다
나참
넘는
놓은
대실망
도중에
되어서
또는
똥을
맘이
명성을
모성애
밀어
바꾼
발상
발레
불행
불필요
비하
비싼
상당한
시사
싶지만
아끼
안웃
않아도
알겠지만
얻어
없구나
용두사
우스
원표
유혹
이라
이완
이선
이범
이혼
일탈
있나요
잡는
절반
점은
접근
지배
짐승
찍을
창의
최하
춤추
팀버튼
파라노
피라
할배
허구
혁명
홍금
##문의
##가게
##라지
##들이다
##리칸
##인영화
##내려
##국이
##니의
##하더니
##었죠
##차이
##일으
##심의
##ion
##제일
##볼수록
##파서
##낫다
##권택
##잇고
##씩이나
##두근
##였을
##앞에서
##떨어진
##크의
##호러
##결혼
##절로
##봣다
##곳에서
영화본
너무재밌
너무재밌어요
재밌당
사랑으로
좋아하고
처음이네요
장면과
결말에
볼만했는데
소재에
##하기까지
스릴이
애니가
뭔가가
재밋는
추천해
코미디가
대단히
제목과
정신나간
행복을
##내용을
배경도
분위기에
만들었네
설정에
엄마의
주제도
지나친
집중도
##주의를
##것같습니다
비교하면
등장하는
##거같네요
##재미있음
예쁘게
미안해
전편의
오글거리고
복수극
별루다
러브라인
자유를
그지같은
13구역
히어로물
타이틀
당연한
말아먹은
미스터리
드림웍
김혜수
데뷔작
정당화
절제된
권상우
그나저나
미야자키
2차
3d
60
ebs
♥♥♥
가관
강조
구역
그들은
극한
글로
까는
나니
낚였네
난생
남발
너는
노력이
닥터
단언
되도
되나
된다는
똑똑
똑바로
만나는
말이다
매혹
모야
모티브
몸이
몸을
못주
못살
물고
미키
믿음
박해
백배
별다른
별기대
보셈
부럽다
불후의
비중
색감
서서
서프라이즈
안했는데
않으면
양동근
에일
요약
울었던
의학
있으니
있겠지
잘살
장미
장나라
저러
전국
전락
정리
정재
조정
직장
찾을
총격
최대의
출현
클린
토끼
팍팍
하자
하던데
헷갈
휴먼
흐뭇
##이거나
##지우
##바리
##가자
##가니
##리트
##리다가
##동을
##보며
##스에서
##나타
##군이
##했다가
##요미
##빠지는
##어마
##하리
##하군요
##있다는
##거의
##거라고
##시라
##편의
##폭력
##봤을
##생이
##비아
##증을
##치않
##쳐도
##할정도
##함만
##좋았
##줘라
##19
##중한
##틀러
##특유의
##뭐지
##흥미
##철학
##삭제
##났던
##덜덜
##에서야
최고였습니다
지루하네
사랑도
작품중
액션물
모르나
아이러니
괜찮아
그런영화
아까워요
마음의
마음속에
공포영화는
아닌지
아닌것
##하나로
이상함
매력적이다
20년이
##스럽네요
##재미없어
인간적인
정도다
캐릭터와
##장면을
잔잔하면서도
아쉽고
##주인공이
보고싶어
훌륭함
안되나
멋진영화
전쟁을
다큐를
##스토리도
분위기도
##oooo
##아까워
##아까운영화
##OOOO
옛날영화
이후에
전부다
##지루하고
에로물
감독님의
##을수도
누구도
그때의
돋보인다
예고편만
사라진
알려준
즐겁고
외국인
가끔씩
취향이
모자라
흐름이
채널돌
태어난
받아들이
시간아까워
검색해
가져다
##ove
조용히
21세기
유지태
어둡고
뮤직비디오
원숭이
신데렐라
24
3시간
5개
갔는데
같네
거냐
것들을
고딩
구멍
국제
권력
김남
김현
나비
나가는
낚이지
내놓
높네
느슨
되었는데
때도
뜨거운
머지
멀리
못하겠
물건
미니
믿지
믿는
변호
복선
분이
비롯
빠지
뻔히
사다
삼가
신민
심히
쓰지
아아
알렉
어벤
어떻
어떡
없군
없었고
엉덩
역쉬
예쁨
우익
운명
웃게
웹툰
위에
이겨
일생
일요일
잃어버린
임신
임권택
잘함
장근
저거
정이
조심
조조
주상욱
죽기
짧게
짱임
찍지
찜찜
차별
찰리
천만
최후
캐리
코드가
크로
클라이
타락
특징
틈이
퍼즐
풍부
한테
할수있
히로
##아무
##대전
##으라고
##기준
##한건가
##보셈
##괴담
##오르는
##하였다
##원도
##원작
##을정도로
##구구
##실력
##플렉
##렸습니다
##받아서
##진은
##여도
##모가
##터짐
##버전
##림을
##잘만들
##통에
##입고
##릴때
##볼까
##볼려고
##감사
##졌네
##저링
##평점은
##1위
##앗는데
##외로
##였으나
##달아
##est
##희씨
##향이
##크가
##왜곡
##싱턴
##언이
##맹랑
영화에서는
영화계의
너무좋
너무좋아
##에서나
연기까지
재미있다고
좋아하지
작품이라
액션에
기대도
기대에
한국어
10점이다
별로였음
이해못
재밌게본
아이와
##되는영화
장면만
현실의
반전의
뭔가요
공감가는
대사들이
중간부터
부족함
노래를
##아니면
보고싶어요
세상은
##감독은
무엇이
사실이
사실적으로
관객에게
부분에서
##부분에
주제에
않았음
상상을
이정도로
이쁘게
다음으로
2000년대
성룡이
인물의
허무하게
이번엔
구성은
구성과
멜로영화
해도해도
지금까지도
남주가
메시지를
##모습이
어린이용
넘어선
이연걸의
아침에
미치도록
##티비에서
신경쓰
인터뷰
나은듯
시간아까움
고마운
망쳐놓
##ㅠㅠㅠㅠㅠㅠㅠㅠㅠㅠㅠㅠㅠㅠㅠㅠ
복잡한
스텝업
자본주의
강동원
미스테리
고스란히
서스펜
##솔직히
90년
KBS
가상
같지
개소리
것만으로도
곱씹
군인
기차
기념
김재
김소
김성
김강
꼬맹
나누
냉정
넘어가
노동
노예
높이
눈과
달고
도통
도입
돈도
로보
말라
맛깔
무관
미이라
버전
범인이
별점을
보이지만
복수를
빠짐
뻔뻔
뻔해서
산만한
섞어
속은
스무
심리를
싶었
쓰렉
씨네
악플
안봐
알지
어의
없었으면
에너
여왕
온몸
울게
은은
은퇴
이경
이스트
읽은
잘하
저주
전세계
조여
존내
증명
지적
지들끼리
진작
최저
추락
컨저링
태어나
티가
픽사
하던
하셨
한개
활용
흑역사
##사님
##이딴
##서린
##박이
##들리
##리타
##동화
##보라
##군의
##해석
##해졌다
##안의
##화는
##왔으면
##없다고
##어쩌
##재가
##미니
##미친
##겨운
##글자
##간만에
##거에요
##녀가
##았어
##시죠
##편인데
##부에
##부턴
##날이
##건강
##여운이
##겠냐
##겠는가
##발이고
##배속으로
##졌지만
##러움
##평점을
##tv
##씨를
##피아
##등장
##중독
##역을
##호의
##틈이
##됐는데
##ch
##cg
##챙겨
영화들은
재밌기만
보고있는
지루했어요
배우만
재미있네
재미있었고
만들려고
좋아한다면
이거는
없는듯
기대는
있는듯
지금껏
1점짜리
모르겟다
이야기도
현실성이
다른영화
솔직한
수준은
##는거다
나온다고
어이없어서
개인의
개인적으론
스릴러를
보다보다
막장으로
봐야한다
미국판
이유로
나왔음
안되서
허접하다
이해가안
시나리오를
부분을
후회함
영화라면
엄마랑
충격을
##ㄷㄷㄷㄷ
알게해준
허무맹랑
ㅋㅋㅋㅋㅋㅋㅋㅋㅋㅋㅋ
성우가
편집이
생각해볼
먹먹한
전작에
전작의
허술하고
철학적
OOO기영화
잘생기고
짜증나네
흥미롭고
스티브
때문이다
움직이는
##그렇고
아동용
M창있네
중학교때
영화자체는
일베충
차승원
별한개도
설경구
과도한
어마어마
임청하
클리셰
런닝맨
홍금보
35
5점이
98
on
ocn
sh
ㄹㅇ
간첩
강혜
검은
게리
경우
고로
고찰
그레이
기회가
길고
김정
김구라
나아
나뿐
난국
내러티브
넘은
느린
다리
다케
당최
더럽다
덕에
두말
들여
딱딱
마마
많지만
말하면
말할수
말해주는
매트릭
멘붕
물씬
미개
받아서
배려
보소
보느니
생략
섭외
소방
수백
싸울
안남
알수없는
약한
양조
얘기가
엉엉
예의
예매
오오
오타쿠
울어
웃길
이재
읽는
재료
저리
저희
정화
주옥
주목
죽는다
죽을때
죽인다
증거
짱이
차이가
찾고
철저
첨에
초기
초능력
총을
충무
큐브
파리
펭귄
푸른
풀어나
하려는
호소
혹평
혹성
흔히
##이긴
##이기에
##대도
##자식
##가진
##라나
##들보다
##도와
##한건지
##한마디
##보시길
##스도
##카이
##내기
##요즘
##하이
##데로
##엿다
##명화
##거는
##당하고
##당하는
##편집
##공부
##멋대로
##진의
##일세
##마냥
##급의
##봤지
##봤으면
##봤다가
##비홍
##메오
##치면
##할려고
##ㄱㄱ
##감상
##합시다
##평생
##맛이
##달까
##역의
##맞은
##삼류
##블루
##꼬마
##냅니다
##ㅗㅗ
##영화였다
너무한다
재밌지
최고라는
최고였어요
감동적으로
보고있어요
배우분들
재미있었던
아니냐
사람들도
좋아해요
이건좀
이건진짜
기대됩니다
하나님
우리나라는
기억도
유치뽕
다른거
이상을
보기에도
매력있는
##스러워서
수준이하
##장면에서
스릴러가
나름의
정신을
정신차
훌륭하고
살아남
장난감
장난아니
만화는
무서워서
##해야할
시나리오에
##부분에서
더빙은
돌아오
않았으면
그만좀
##버린다
비교가
알았더니
##10자
존재하는
세계관
어른들이
어쩌라고
상영관이
누구에게
극장판은
가치를
안타깝고
과거의
선택한
그래픽이
예고편이
메세지는
청춘의
심심해서
##모습을
취향은
##ore
##로서의
모자란
깔끔하고
##티비로
무언가를
인터스텔
하이킥
생각나네요
비현실적인
##왜이래
응원합니다
감흥이
인디아나
지났지만
일깨워주는
배급사
줄리엣
꿈꾸는
어우러진
몽환적인
##남기는데
어딘가
말았어야
오리지널
##아직도
7광구
크리스토퍼
베트남
파라노말
##파서블
구역질
에일리언
클린트
1년
me
so
wh
강아지
거창
건데
계획
공존
과잉
과정을
그땐
글구
기쁨
김하늘
낮추
내겐
너네
눈만
단점
더럽
데려
동료
라스
레즈
마을
마초
마누라
만점을
말만
멤버
모여
묘하게
무얼
묻혀
별볼
보나
보진
보냅니다
부를
부조
부르는
빅뱅
뻔하지만
사전
사토
삽입
서인
성유리
스콧
아일
안젤
애정
약빨
언급
연장
열린
옛다
오토
왜만들
우습
웬만한
이념
잘하네
잘나가
잘표현
재주
재발견
잼씀
저렴
저녁
저절로
전성기
졸면서
지니
징그
쩌네
차분
창조
총질
치는
치고는
클라라
하려고
한건지
환타지
황홀
휴머니
흡사
##아프
##바른
##가는데
##기보다
##보일
##보길
##보지마
##보았습니다
##스피
##우면
##우니
##나무
##요한
##해본
##영웅
##어는
##어떤
##하겠지만
##하잖아
##있었던
##트리
##무엇
##노출
##전달
##긴했지만
##본거
##시를
##집에서
##마트
##디션
##겠나
##많다
##세이
##물은
##ht
##비스
##할정도로
##까봐
##겟네
##저런
##2점
##22
##복수
##유머
##판에
##슬프
##맞춘
##맞추기
##못보
##충격
##책임
##꺼다
##쓴다
##틱한
##돈주고
##높아
##뭔지
##뭔가
영화자체가
너무낮
재밌지도
진짜진짜
생각해서
내용으로
사랑이란
보는듯
없는영화
기대되는
##적이지만
##적이지도
1점주기도
10점도
하는건
##이나오
우리들의
기억될
재밌게봤다
괜찮네
여자들의
아무래도
볼만했음
##가는게
눈물흘
20세기
정도껏
만들어졌
만들어주세요
하고싶
##는거임
나온거
잔잔하면서
조금씩
기분만
기분좋게
미국이
왜이런
따뜻해
모르겠는데
안되는데
영화관에
역사왜곡
##들에게는
빠져드는
않았고
##만든다
실화라니
##기만하고
인물이
화려하고
##수준의
다운로드
ㅋㅋㅋㅋㅋㅋㅋㅋㅋㅋㅋㅋㅋ
##하하하하
멋있어요
관람불가
잘만들어진
##그런가
미안하지만
아닌가요
##기대하고
희망이
비추천
오글거려
사라져
촬영기법
요소를
스케일이
OST가
군대에서
##아아아
시선으로
깔끔하게
아침드라마
##가능한
잊을수가
##이유가
해리슨
새롭게
불러일으
방법이
감정이입이
거부감이
봐줄만
웃겼음
##거든요
이은주
적절히
그들만의
두근두근
헛웃음만
황정민
전도연
드니로
파워레인저
엑소시스트
조기종영
혹성탈출
1이
9점은
가시
가식
각자
각자의
거울
겁니다
고발
꺼내
날라
남았다
남긴다
낮음
놈들
느리고
대책
던지는
됐는데
될수
두명
들었
또보고
로렌
록키
마츠
마케팅
많네요
많았던
말에
맞춘
몇개
뭔데
뭡니까
믿어
변신
봤었다
불친
붉은
빛이
빼앗
뿐만
상투
샤를
세트
소림
속도
속아서
슬래셔
시기
신나게
신현준
실컷
쌩뚱맞
씨발
아가
아시아
않는데
알수가
없다는게
열정이
웃어야
이들이
잃고
있으
잘해서
장쯔
재평가
저기
저것도
조쉬
졸려
종영
지어
지존
지나서
진솔
차지
채플린
천사
침묵
클라
패턴
하냐
한수
한없이
했을
향해
허전
환불
황비홍
후기
후덜덜
흐르
##이한
##대화
##고은
##만세
##으려는
##바가
##자막
##가다
##라를
##리쉬
##기라도
##드문
##드네
##드러
##도다
##보임
##카메
##했어도
##해줄
##해짐
##해놓고
##영씨
##히게
##히어로
##하단
##하라는
##하구나
##하려면
##하느라
##무니
##작은
##는것
##것다
##ㅋ1
##거니
##질때
##질수
##상도
##소를
##수고
##수작
##잘하고
##봤었는데
##봤더니
##좀비
##og
##주제
##천재
##볼수있
##개로
##네용
##뿐만
##타령
##두번
##능한
##슬퍼
##맞음
##월드
##끝내
##매가
##놈들이
##놈들은
##랬는데
평점좀
평점낮
평점알바
생각한
생각하며
10개
아니죠
재미없습니다
보는줄
마지막으로
있는게
처음임
한국영화가
나오게
##같은거
하는건지
별로인
연출의
이해하고
우리네
장면의
아까웠던
공포영화를
현실이다
볼만하네요
이상도
남자들이
##ㅋㅋㅋㅋㅋㅋㅋㅋㅋ
음악에
영상으로
인간들이
모든것을
억지설정
대박이
실망했다
실망스럽다
표현했다
막장의
특히나
##이라고는
시작은
나왔는데
수작이
영화로서
친구들
언제쯤
시청자를
무서웠
##최고다
관객의
않았을까
감동적이었습니다
느낌이랄까
엉성하다
알고보니
CG도
##하시네요
다음에
사회에
예상치
##지루하다
그녀는
즐거움
화면이
만드네요
있었다니
시절의
이러니
ost가
메세지도
2시간이
서로를
유머가
아프고
어찌나
나에게는
한계가
중간중간에
##로서는
리뷰를
분노가
##나올때
싸이코패스
연기자들의
영화보는내내
슬퍼서
찝찝한
끝날때
깜짝놀
못생긴
어지간
작위적인
주지훈
가르쳐
묻어나는
자세히
김태희
달콤한
이동욱
객관적으로
사무라이
##위원회
나중엔
비정상
##♡♥♡♥
한예슬
사다코
1도
23
3분
3부작
6살
bb
kbs
st
가자
강제
개독
개발
것인지
결합
경이
계기가
구리다
그것은
긍정
김동
꿈이
끝냈
나발이고
넘기
놈들은
눈부
대비
데드
도덕
둘의
때리고
뛰쳐
만나서
만나고
말아라
맙시다
맛에
매년
메가
몬스터
못보고
무기
미리
미성
박지
버리
버금
벌어
보자고
본인이
봐주
봤었던
비중이
서민
소리지
슈렉
스칼
식의
식으로
심어
쏠쏠
안에서
알맹
언론
없을까
여주의
오만
오싹
와이프
왜냐
울었네요
위하여
유오
유부
있다는게
잘만
장편
장르는
조승우
졸려서
중세
지지
지대로
찢어
창작
첨이네
치열
코엔
토요
팬이라면
플레이
해놓고
후한
훈남
##사라
##사극
##이쁨
##이면서
##은혜
##아오
##아닐
##아침
##지로
##지식
##장님
##인드
##인척
##인으로
##야야
##기업
##방의
##보비
##보잡
##스라
##우면서도
##나왓
##했더니
##그자체
##연한
##연애
##왔어요
##하겠지
##트에
##을뿐
##는디
##는뎅
##구석
##데터
##선수
##전혀
##3류
##걸작
##엿음
##거림
##거리고
##렸어요
##본게
##따름
##멋진
##모르는
##디젤
##ill
##예술
##치네
##되네
##금을
##un
##짜는
##씨와
##등등
##타클
##올때
##유혼
##몰랐
##ap
##누구
##ve
##꺼라
##먼저
##봣음
##넣은
##높다
##쳤던
##눈이
##ㄹㄹ
##곱니다
영화니까
##영화냐
##하는가
##하는건지
최고라
생각에
지루하지만
지루하지않고
##이라곤
드라마보다
##보다니
아니겠지
사람으로
재미없다는
쓰레기들
시간의
좋아하게
좋아지는
이건머
작품성이
액션신
나오는지
명작이라
아이의
##라는건지
##주는게
주인공도
##것도아니고
남자와
보기도
보기전
스릴있고
말이지
눈물도
##스럽지만
인간을
인간들은
전개되는
만들어준
##보는내내
억지스럽다
수준급
코미디도
##만들고
모습과
막장이
봐야겠다
그러니까
제작된
웃기지
웃기네
어설픔
따뜻하게
의미는
보면서도
무서웠다
우리나라에
우리나라에서
시나리오는
포스터는
재밌는영화
않았나
불쌍해
중국의
약간은
여주인공은
이름값
얼굴도
19세
비교해
상황에
허무하다
2점준다
어울리
나이트
빨리감
케이트
프랑스영화
만드나
진행이
사이에서
어려울
분위기와
범죄자
이리도
가볍고
SF영화
적당하다
15분
OST도
결론이
와닿지
미소를
분노의
레이싱
작품성은
오그라든다
소름돋는
말할것도
지구를
심각한
씁쓸한
##이유는
대표작
##만드네
끝날때까지
무척이나
담아낸
최민수
최초로
잔혹한
위험한
저급한
리암니
왠만해선
페이크다큐
브래드피
샤론스톤
별볼일
휴머니즘
스칼렛
3개
3탄
no
감당
갑작
갑갑
거대한
걸린
고래
고려
고급
고백
기사
김대
깊이가
깜찍
나왓
내는
넣은
뇌가
다같이
대형
대략
더한
돌고
동호
드리
레드
롯데
말해서
말하려
맞게
매회
메리
못했
묵직한
뭐하냐
미흡
보신
볼줄
봤다고
부인
비난
비유
뽑아
소문
속의
수애
시스
시민
싫은
아야
안죽
안됐
안난다
안하는데
안든다
어딨
에반
여지
욕먹
원맨
원빈
유리
인기가
일상을
자칫
잘했다
정유
제법
조인
조직
존중
죽이네
지들
질투
처참
쳐도
촌스러운
투표
파이팅
팔아먹
필수
할지
현빈
호텔
후유
흘렀
##이와
##아버
##때메
##가치
##가네요
##동네
##인권
##더럽게
##안타
##연은
##다를
##어난
##어머니
##하듯
##는지도
##선의
##과정
##명도
##간지
##차원
##상과
##시티
##부르
##수한
##교육
##날때
##마는
##마른
##디로
##if
##hh
##ld
##예능
##음에
##란이
##볼때마다
##되었
##되길
##되면서
##겟네요
##네유
##합니까
##관련
##ul
##피를
##등록
##빼면
##aver
##씬에서
##셉션
##밀리
##끌고
##근한
##순위
##묘하게
##됬는데
##윌리스
##힌다
##홀로
##쨋든
영화죠
##영화네
##영화에서
너무좋아요
연기파
생각했다
내용이나
아니었음
쓰레기로
쓰레기라고
사랑스런
작품인데
##다가도
하나만
##적이며
10점줌
이해는
이해하지
재밌게봤음
장면들
마음은
유치하지만
몰입을
몰입하면서
OO같은
보기는
##재미가
극장서
##지않나
아름다웠던
한번은
공감되는
이걸보고
개봉하는
나온다는
미국에서
##만큼의
노래만
출연하는
초반의
웃음도
오늘은
어색하다
슬프게
힘들어
스타일이
##한거지
주제로
어느새
잔인하게
초딩이
인물들이
##수준이
그리운
각본이
각본과
영화인데도
나이에
불편하고
살인을
있어보이
그래픽은
##그래픽
해야하나
힘든데
느꼈던
느꼈습니다
바람피
스타일의
신기한
나라를
웃겨요
##짜증나
잘생긴
심심한
와닿는
화가난다
슬픔이
섹시한
시원하게
후속편
10년전에
에이리언
##마음에
고통을
다니는
3D로
조선족
생각나네
치밀한
좋아할만한
가면갈수록
지겨운
영혼을
##신분들은
선동영화
충실한
다를게
무료로
리즈시절
깨알같은
코스프레
아메리칸
강호동
불필요한
로보캅
양조위
1빠
5번
and
gt
my
같기도
거대
건너
건축
고정
고현
곳에서
구로
구원
극과
극적인
까메오
꺼버렸다
나빠
나한테
나홀로
난감
날로
납니다
낳은
노는
녹화
놓친
니들은
단조
닮은
댄스
동방
동일
된다고
두개
디아
류의
르네
마크
말한다
망쳤다
맞추기
멜깁
모냐
못볼
못된다
문근
미칠
믿겨
발생
발휘
배틀
보임
볼꺼
볼수가
봤다니
부여
부른
불사
붙여
비틀
사막
상식
선수
수치
스탤
습작
신나는
실존
쌍욕
씬은
아들의
아들과
악의
악몽
알리
암이
암살
야이
어깨
어둠
어메이
얼른
엄태
없었습니다
없었지만
에어
여고
여진
영활
왜저
외화
외에는
욕하는
욕나오는
울었음
윤계
으아
이주
이작품
일이다
일점도
잇는
재회
저의
적응
전환
정점
주려고
줘서
진보
짧아서
참다
책도
첨본다
청년
체험
초콜
초등
최곱니다
추잡
추악한
출신
크고
태양
터져
파트
파악
편이
포스
표본
프렌
하얀
한건
한사람
해적
화해
훈련
흔해
##아줌마
##지는데
##말은
##바탕
##가기
##가루
##가수
##야오
##기면
##드리고
##방법
##보느니
##스페
##내면
##국의
##해준다
##안함
##그럼
##그린
##화면
##오랜
##없구
##어보이
##하든
##하곤
##하라고
##무가
##작정
##키드먼
##구조
##려라
##위해서
##준이
##단다
##상으로
##된다는
##소나
##부림
##일때
##여운
##여배우
##행을
##잘봤습니다
##용이
##비교
##비를
##제왕
##음의
##슨은
##할수록
##린거
##반복
##엇던
##워커
##1점도
##죽고
##뻔함
##낮지
##필름
##밖엔
##겁니까
##갑자기
##석은
##all
##브라
##킬링
##땜시
##5분
##센트
##맙시다
##홍보
영화고
영화면
영화좀
재밌긴
생각하지
생각해도
보고서
드라마에요
배우로
만들겠다
만들기도
좋아한다
마지막의
한국은
이게뭐야
연출에
이야기와
##연기에
일본판
보여서
남자배우
반전과
##드라마로
가슴찡
수준이다
모두다
어떻게든
##스트너
알바들이
정신건강
1편도
출연료
##이상은
수작입니다
싶은건지
강추입니다
무섭지도않고
답답함
##최고최고
전쟁이
배경은
##스토리가
##스토리는
실화라는
CGV
세계를
ㅋㅋㅋㅋㅋㅋㅋㅋㅋㅋㅋㅋㅋㅋ
몇번이고
크리스틴
평론가들은
불편하다
##시대를
순간이
##하지않은
자극하는
엉망이고
줄거리도
전편에
##이하도
허술하다
나라의
아마도
만큼은
돌려줘
가득찬
잘생김
##하던지
소름끼친다
일어나는
##ant
##버렸음
##버렸네
할말이없다
생생하게
찌질한
새롭고
볼거리도
못생겼
예뻐요
40대
최민식
떠올리게
볼거리가
##ent
서부극
유아용
안쓰는데
목숨을
##이쁘고
빵터짐
저평가된
로드무비
못미치는
냄새가
EBS에서
##리의리의리의리의
무의미한
김명민
한정된
핸드폰
박평식
불면증
이범수
김강우
유치뽕짝
1화
2년
3대
OC
mbc
naver
se
갈아
갖추
개떡
개실망
교차
귀에
그딴
금방
급전개
기도
김보
꺼버림
꼭봐라
꿈에
나나
나았다
날이
넘겨
네가
녀석
놈들이
닌자
당하는
대변
독창
돌이
되었
듣보잡
똥폼
마르
마주
매튜
먼지
메인
명곡
몸에
못하게
못하지만
무책임
문학
뭣도
미사
미군
미루
반가
보실
보물
부럽
산드라
살기
삼국
생겨서
수정
순정
슈스케
스파
스틸
신앙
신들린
싶게
싶네
쌍팔
아키
아랫
아휴
악평
안고
안목
안봤는데
안가고
안성기
않았는데
알면서도
애를
어렷
어쩐
어줍
오류
오르
오마
옹호
완소
외로운
요구
유역
이뤄
인셉션
일방
자는
잘된
장만
전통
정답
제미
제레
조재현
졸립
졸았다
즐기는
진주
짱나
짱입니다
짱이에요
차인
차가운
채민
카타
케이지
크루즈
클라스
터무니
트루
파란
평은
피어
하차
한달
한결
한표
한장면
할거
함정
해줄
했었는데
헐크
화난다
후진
흔적이
희한
##사나
##사진
##사냥
##이즈
##이였
##이어서
##고에
##랑이
##리어
##리온
##인상
##인트가
##야겠다
##기스
##기때문에
##보이고
##스토
##우주연
##국주의
##니잼
##해여
##왔지만
##있어야
##선물
##전히
##30분
##론데
##임파서블
##녀석
##테니
##수로
##수다
##수밖에
##날에
##행크
##겠군
##세상에
##제는
##ost
##할영화
##되냐
##졌네요
##정서
##쪽으로
##좋겠다
##좋아서
##저질
##느와르
##점수는
##1은
##21
##밖에는
##갔으면
##겁게
##몰라도
##역에
##ain
##회의
##깊게
##픕니다
##촬영
##열자
##흐름
##듭니다
##영화지만
이런데
생각하는데
스토리라인
감동감동
드라마임
##해서는
사랑스러
액션으로
기대해
처음입니다
##다고생각
한국에
한국형
이게왜
하는것
아이도
아이들을
아이들도
일본식
아닌거
남자들의
보기드문
##재미잇
억지스럽
뭔가를
배우들만
재밋어
추천해주고
모두들
캐릭터에
코미디를
실망한
실망스러운
대단합니다
잔잔함
잔잔하니
대사들
##만들어도
모습도
스릴러의
##이라는걸
느껴짐
봐야함
그러면
그러니
##만큼도
만드는지
나왔습니다
감정의
신선함
신선하다
행복해지는
행복했습니다
엔딩곡
시나리오와
재미가없다
1점도아깝다
배경을
영화관가서
진정으로
코믹한
만들었네요
공포영화의
돌아가는
##좋아하는데
않았습니다
후반에
후반으로
실화라고
##하시면
##이었다는
없었다면
##1010
당신을
어울린다
멋있었다
2015년
이런영화에
##아이돌
성우를
그때는
돋보임
리얼하게
참신하고
보았지만
가는줄
분명하다
그래픽도
아버지를
영화인거
나쁘진
전문성우
중반부
흘러도
관계를
아오이
놀라울
여성의
예전의
##걸까요
cg가
난해하다
말이필요없는
오그라들
미치겠다
안봤지만
안봤으면
눈빛이
##마음이
##bbbb
외계인이
로그인하게
인내심을
신파극
달달한
##영환데
봤을땐
기준으로
어째서
프레디
어떨까
##시청률
박신양
1점준거
졸업작품
##★☆★☆★☆★☆
모니터
단체로
영구와
눈요기
1점준것중에
지하철
사로잡
용두사미
어벤져
이스트우드
원맨쇼
어메이징
1억
3번째
5점은
7점은
MC
가미
가위
거침
거리가
것처럼
고은
골든
괴롭
구매
그리스
그치만
극의
껏다
나간
나눠
남주인공
낯선
내스타일
넘버
다듬
대리
데려다
도박
독백
되길
된게
등이
라디오
로긴
마사
많았다
말하지
망함
멋집니다
몇년이
몇안되는
모델
몰라서
뭐죠
미달
밥먹
보네
보네요
복수가
불만
불꽃
브레이
사나
사형
살릴
생뚱맞
서세
성괴
소년의
속터
수퍼
숨이
시덥
신은경
실종
싸우고
썩은
쓰레
알아서
애절한
얄팍
양산
어서
어려서
언어
없구
에혀
역을
역활
였습니다
오다
옹박
왔어요
웬만
윤아
의존
이웃
이슬
이만큼
인한
일제
자전
자존
자제
잘봤다
전무
조커
죄를
주원
주체
죽어서
중에서도
중딩때
지우
진화
짱구
쫄깃
참혹
최선을
취급
치우
치명
토이
트라
폴워커
플래
한다면
해보
했네
했다는
했다면
호감
획을
흥해라
히트
##아자
##대서
##고를
##때의
##즈는
##동엽
##기보다는
##처리
##와일
##도못
##게도
##우우
##나지
##에나
##해놓은
##안나
##없으면
##하던가
##하더군요
##을꺼
##너스
##르다
##데기
##걸린
##남겨
##남편
##녀유혼
##시노
##공의
##날의
##날로그
##코가
##코의
##발랄
##봤자
##햇지만
##렬한
##치콕
##입견
##할게
##볼때
##볼수있는
##졌고
##파괴
##뿐인
##금지
##운의
##워야
##피니
##죽여
##필드
##끼고
##중국
##였다고
##망이
##맨이
##역으로
##매의
##매니아
##써서
영화일뿐
정말재밌
연기나
감동으로
지루하지도
##이라지만
배우다
10여
100분
내용전개가
아니에요
아니었으면
감독아
좋아라
좋아합니다
기대합니다
있는거
있는것도
없다면
##없는게
최악입니다
##에게도
명작인데
기억은
아이리스
장면에
만든것
일본애니
무슨내용인지
##사람만
보면볼수록
원작보다
스릴감
##였다니
애니로
음악만
솔직하게
##너무낮
아름다움을
##재밌는데
모두에게
캐릭터들의
캐릭터들도
코미디로
긴장을
가족끼리
제목도
어디선
영화에선
아쉽긴
아쉽네
잼있었다
아쉬워
기분좋은
##아니야
나와라
##할수밖에
장난해
안되네요
사실에
초반은
완벽히
인상적이다
예술을
캐스팅에
후회하지
주연으로
더빙도
더빙을
엄마와
말도안돼
중국영화
##작품이
##것같고
##것같아서
##만든영화
장르에
2000년
2005년
교훈이
사회를
존재가
허무하고
자연스럽고
##아닌듯
멋있음
끝나지
멋지네요
보여주지
끝내주는
끝내준다
안나와서
이러한
##그래서
미화하는
대한민국의
3점준다
완성도는
스타일리쉬
2시간동안
천재다
노력한
못보겠
즐겁다
##줄알고
사건을
행동이
##인거같다
환상의
심심할때
그랬다
하루종일
실패한
시선을
보러갔
스케일도
##보여주는
무언가가
펑펑울
이뻐요
마이너스는
어머니의
남편이
시시한
상업영화
##만드나
비현실적
어처구니가
죽을뻔
화끈하게
주말에
앞뒤가
브루스윌리스
##인줄알았는데
##00000000
##죽는줄
꼭보시길
못봐주겠다
집어넣
아담샌
암울한
한순간도
능가하는
가만히
적나라하게
노무현
지상파
지저분
임수정
끊임없이
피라냐
김남길
장근석
##ㅋ1ㅋ1
엄태웅
정신건강에
OCN
3일
Very
but
ㅅㅅ
가게
가네요
각인
각성
간절
강시
강철
같다는
고3
고수
공효진
광해
광팬
괜춘
귀가
근육
김유
끝으로
끼어
낫지
낮춰
놈이
눈뜨고
뉴스
늙어
달아
당하고
동정
동참
되새
뒤집어
드릴
드립
들을
따듯한
땀을
때론
뚜렷
라면
마동
말지
맛을
망쳤
망한영화
망했는지
맥라이언
명예
몇일
몰래
못지
못하나
무거
바뀐
박한
박영
밝은
밝고
방식
별이
보호
보이네요
복제
볼껄
봉태
봐요
비명
빌리
빡쳐서
빨아
사춘
선전
선배
설렘
성숙
셜록
소리를
스탭
스마트
승화
신부
신성
신뢰
아날로그
어드
없더라
에니
엑스트라
연계
온다
와이어
우마
운운
운명을
울나라
원망
원초
윌스
유니
으으
이슈
이룬
이모양
인듯
인식
잃었다
자라
잠든
재해석
정부
제정신
조디
좋으
좌파
주면
줄은
중심
지속
질문
찍어라
찡한
찾았다
철없는
최대한
캐서린
타짜
탐욕
택시
터짐
톰행크
팬이라서
피가
하필
한물
합시다
활약
회사
회복
후에도
히치콕
##이이
##이미
##이시
##대결
##말에
##자신
##가도
##라잇
##리화
##리브
##인한
##야의
##스오
##웃긴
##웃기고
##우치
##더의
##없냐
##하가
##하트
##미와
##미국
##미남
##무어
##작이라
##르의
##위에서
##전개도
##걸고
##잼있
##론이
##간다는
##차고
##받았
##져도
##팬더
##공이
##부탁
##일체
##일수도
##행이
##모토
##존재
##버려서
##신듯
##주로
##주에
##되어야
##개연
##ㅜㅠ
##느님
##권을
##10년
##찾기
##죽을
##올린
##2가
##성공
##중인
##줬는데
##달러
##짓게
##희를
##ast
##틀어
##판은
##씬도
##초딩
##끄고
##매우
##십시오
##훨씬
##났어요
##풀이
##블랙
##놨다
##멸의
##눈에
##XX
##놔서
##퀄리티
영화보
영화처럼
너무하다
너무감동
재밌었어
##하는구나
최고였음
지루합니다
지루하네요
드라마였다
배우고
1000
만들었던
재미없었던
사랑하게
작품도
완전한
지금이
하는가
##인데요
연출로
연출한
괜찮았고
그런건
주인공과
마음속
무슨생각으로
##하나는
반전까지
스릴은
음악의
영상을
##재미도
##재미없는
##재미없고
필요는
##다니고
##나오면
모두를
대박입니다
개봉하지
개봉했을때
대단함
계속해서
아쉽습니다
보다보면
아쉬웠다
내용도없고
자체를
1편과
훌륭했다
감정선
따뜻하다
행복해
안되요
사실적인
유쾌하다
졸작이
역사의
킬링타임도
애니메이션은
후회할
오래전
어느것
잔인하지도
잔인하기만
##사랑을
따라한
여주인공도
이정도는
이미지가
이후의
평가가
##지루해
에로틱
##액션이
기다리고
좀비물
어쩌고
그녀가
상영시간
확실한
끝나네
흥행에
물론이고
TV로
댓글알바
리얼한
분위기의
더럽게없다
먹먹해지는
끝내주
##영화중에서
##일까요
죽음의
전설이
무서운거
바보가
연출력도
요소는
나라가
속편이
정치적
사건의
안맞고
러브라
알겠으나
외국영화
다가오는
소름끼치
일어난
##기억에
어릴적에
##하지마세요
흐름을
##안되게
부끄럽
상상력을
반성해라
선생님이
##소재로
##이해가
의심스럽다
18세
니콜키드먼
풋풋하고
고마워요
떠오른다
초등학생때
거슬린다
민망한
조용한
8점대는
내면의
수고하셨습니다
140
##이쁘다
잊혀지지가
극단적인
이성재
평소에
프레데터
담담하게
다녀온
기괴한
엽기적인
이나영
납득이
어중간한
이순신
심사위원
어땠을까
친일파
잠수함
이선균
단언컨
서서히
신민아
강혜정
주옥같은
초콜릿
장만옥
카타르
아담샌들러
2개
7번
PD
av
ever
vs
ㅜㅜㅜ
거리
건진
걸어
걸레
고딩때
관리
구려
구하기
귀요미
그후
극을
기막
김래
김창
김규
꼽을
꽃보다
꾸준
끄는
끝났다
나같은
남김
내보내
넘치고
노인
높네요
당당
대다
대구
대하여
돌리도
동심
동급
동경
동심을
되는거
된다면
때부터
때우기
리플
명량
목표
못된
무성
무덤
무작정
뭐하러
뭘말
미워
바가
박용
반짝
방식이
배운
버리는
보장
보지만
봤어
봤으니
브라이언
비비
빈디젤
빠졌
빼놓
색다
선교
선입견
소외
속지
수식
스며
시바
신은
싫음
싫어서
심했다
써라
써도
썩어
씹노잼
아웃
아들을
안티
안드로
애썼
약하고
어쨋든
없구만
여주는
여실히
연령
옥의
옴니버스
왕따
외엔
유전
육체
이질
이전에
인피니
일드
잃지
있었어요
자료
작작
절라
정글
제한
조아요
존1
좋다는
중구
중딩
줬다
지원
지식
지브리
징그러
짠한
차원이
책이
처절한
천녀유혼
초라
초호
촌스럽
촌스럽고
최수
최진실
칼로
쿠엔
크리
큰일
태극
피로
하니까
하기에는
한때
해학
허영
효민
흔하디
##사로
##이드
##이웃
##만원
##로게
##로선
##로얄
##자랑
##자연
##자마자
##프트
##라는데
##즈를
##인들은
##야만
##방을
##도대체
##스티
##스탈
##카시
##나잇
##나름
##니발
##해버린
##해줘서
##안쓰
##던영화
##그레이드
##같지
##없었던
##래야
##미래
##미녀
##무라
##것인지
##것이지
##전문
##페이지
##셔요
##걸이
##렸어
##준거
##단이
##단의
##본사람
##남는다
##았다는
##소사
##소문
##소장
##수에
##수없다
##모니
##마가
##디에
##급이
##생겼
##신선
##레쉬
##햇던
##메다
##입은
##찍는
##정씨
##러지
##력도
##um
##ust
##점에
##현지
##현우
##올시다
##2의
##성있는
##길이
##ak
##슬프다
##못미
##새벽
##베리
##총사
##누군
##vs
##ㅅㅂ
##헤헤
##깜짝
##산이
##봣습니다
##헌터
##돈이
##돈다
##랍시고
영화만들
영화이지만
재밌겠다
최고지
이런것
이런쓰레기
생각지도
보고또
지루해요
드라마에서
재미있던데
아니란
만들었는데
쓰레기도
좋아함
좋아하면
좋아했는데
##보고있는데
##보고있어요
작품들
작품으로
액션씬이
최고의드라마
좋았어
하나를
나오길
나오면서
그래두
기억하고
기억하는
이영화에서
괜찮던데
여자와
##정도다
##라는거
##주는거
##연기잘
몰입감이
남자들
눈물난다
영상물
##지않을
##지않았다
억지스러움
배우들로
연기력을
대박나
공감은
##장면만
대단하네요
잔잔히
어이없네
표현을
스릴러도
조금더
조금이라도
기분이다
시리즈로
그러고
미국은
왜이럼
도대체가
모르겠어요
친구를
무섭다고
당시의
몰입도는
있었나
지루하다고
엄마는
##좋아해서
##들과는
감동적이었어요
따라서
이름으로
비슷하게
네이버에서
3류영화
ㅋㅋㅋㅋㅋㅋㅋㅋㅋㅋㅋㅋ
ㅋㅋㅋㅋㅋㅋㅋㅋㅋㅋㅋㅋㅋㅋㅋㅋㅋㅋㅋㅋㅋㅋㅋㅋㅋ
다르겠지만
멋있게
##하자마자
개연성은
식상하고
과거에
엉망인
흥미진진하고
그림이
##이런영화
알려주
완성도를
대작이다
바라며
신기하다
관계가
속편은
노출이
밑에분
메시지는
인상깊었다
cg도
와닿는다
역할이
슬픔을
괴물이
용서가
소녀의
소름돋는다
##시킨다
아픔이
돈아까움
밋밋하고
##작가님
주변에
뒤로갈수록
인내심
##하진않
스크린으로
김수로
##로써는
보여줬다
하늘을
깨달았다
위로가
오랜만이다
끔찍한
안된다는
##zzzz
여자친구랑
애국심
기타노
호기심
별하나도
베리굿
이종석
미션임파서블
숨막히는
##ight
스펙타클
틀림없다
식스센스
엉덩이
시스템
차인표
어디선가
봉태규
어드벤
2번째
3명
500
No
love
ㄱㄱ
ㄴㄴ
가치는
가운데
강남
강예
개빡
개명작
것으로
고고
과한
괴작
구할
금지
금성
나갈
나혼자
낚임
남음
농락
높냐
뇌리에
눈도
느꼇
능력이
다문화
될까
둘러
들려
떠난
또다시
로버츠
맙소사
망치는
맞은
맞음
먹을
며칠
모래
못되는
못했지만
무미
무려
뭐이런
미쳤다
발톱
배두
밴드
버티
벌어지는
범인은
법칙
베니
베낀
별을
본후
볼걸
볼땐
분신
불멸의
비긴
빠르게
뿐이고
생겨
속상
수호
스탈
스톤
스탠
싶다는
싶어지는
썰렁
씬이
아리
아따
아시는
안의
안전
안질
알수있는
압축
약해
어긋
없을듯
없잖아
여동생
역부족
오드리
욕하고
욕하면서
욕나옴
용의
용기를
우베
울었
이문
이시
이길
이감독
인공
인줄
있죠
자격
작업
잘한
잘난
잘모르
잠만
장기
장치
저건
전성
전하고자
조명
조악한
좌절
죽어도
줄거리는
지도
짧지만
철저히
쳐다
통찰
트와일
파멸
팬티
퍼펙트
평정
필모
하시길
하시는
하야오
한쪽
해운
해병
했어
훼손
##이군
##이기도
##아담
##대신
##지와
##고요
##만나
##만해도
##으라면
##로버츠
##바뀌
##자들을
##리라
##적일
##기리
##보나
##보려
##보았다
##스틸
##웃겼
##나쁜
##했었다
##그려
##같애
##빠이
##없다는
##어른
##트와
##원래
##는걸
##극의
##키스
##키의
##포로
##르르
##전기
##차가
##차라리
##루니
##질만
##남자의
##따윈
##시장
##테이크
##테스크
##부러
##진씨
##일지
##일도
##모루
##않는
##읍니다
##용도
##물고
##물어
##ir
##생의
##신고
##비하
##비의
##비판
##레드
##예고
##주니
##주를
##주려고
##햇음
##년들
##입장
##릴라
##민을
##볼만한
##감각
##개판
##린지
##겟지
##좋았어요
##금이
##반도
##9점
##us
##엇지만
##조의
##척하는
##1개
##맛에
##죽이는
##2는
##겁고
##엉성
##속이
##끝도
##결말이
##67
##놈들아
##알게
##쩌네
##책을
##먼이
##순례
##났는데
##났습니다
##됬다
##갖고
##밑에
##ㄹㄱ
##젝트
영화까지
영화들을
영화보면
너무좋다
재미난
재미업
연기들이
평점만
생각해요
감동까지
사람으로서
재미없던데
사랑할
보는듯한
시간여행
좋은거
작품이라고
##지는게
기대하면서
지금보니
한국이
나오니
최악이었다
##에게서
이야기로
재밌게봄
괜찮을
괜찮지만
괜찮았어요
여자들은
##정도면
공포의
현실에서
현실성도
볼만하던데
##하나의
남자친구
반전영화
##ㅋㅋㅋㅋㅋㅋㅋㅋㅋㅋㅋ
말이야
말이죠
영화다운
##재미있는
##재미있고
필요할까
##재밌는
##나오는거
코미디의
실망을
##을때가
흥미가
잼있는데
내용이지만
개인적
그러지
미국에
웃기긴
웃기려고
노래와
나왔을
##이란걸
##거리며
출연자
모르겠으나
수작임
느끼지
친구들이랑
사실은
허접함
추억돋
##스토리를
이딴영화
##아깝네
예술가
코믹물
애니메이션을
오래오래
돌아가고
주제곡
빠져든다
##감동을
불쌍함
감사드립니다
영상미에
이름만
로맨스를
##ㄷㄷㄷ
얼굴만
네이버는
##이야기가
2004년
허무함
보니깐
##아닌가요
멋있어
감독님이
그녀를
판타지를
누구냐
중요한건
감성적인
좋은영화입니다
개연성없는
돋보였던
안타까울
몰랐던
안나와
0점도
아버지와
내인생최고의
이러지
현재의
바보로
조연들
어렵게
남아돌
##지못한
인상깊은
하루하루
내생의
다가온다
##명이서
사랑과전쟁
말이필요없음
그렇다치고
등장인물들이
해피엔딩이
설레는
조잡하고
##소재를
시사회로
발전이
연결이
찌질이
타이밍
신비로운
이민기
디테일한
무리수
장애인
부실한
##바이벌
담겨있는
이수근
익숙한
어떨지
##질않나
##★★★★
블루레이
1회부터
본질을
어정쩡한
##최악의영화
역겹고
지독한
유치원생
로멘틱
손꼽히는
각각의
이자벨
매미OO있네
관대하다
드림웍스
충무로
안젤리나
윤계상
쌍팔년도
채민서
어벤져스
중구난
초호화
쿠엔틴
트와일라잇
2도
4점대
80년
Bad
Th
Wh
bl
bor
개짜증
경쟁
고향
공개
과감
곽지
관점에서
구리고
국뽕
귀한
그중
그릇
근거
근친
글래
급하게
남지
남한
내평점
너도
노다
놀람
놀랄
높고
놓칠
늘어지는
다는
다죽
당췌
대여
대학교
돋는다
동의
되냐
두서
드릅
딸을
똑같다
리스트
마땅
만원
많지
말하려고
맛있는
맞고
맞지만
먹어
메릴
모건
모처럼
못난
무방
무튼
무개념
무삭제
뭐든
뭔내용
민간
바꿀
박상
박철
반개
배슬
백만
백미
베일
보였다
보시는
본영화중
본시리즈
봣다
봤는대
분석
비오는
사정
산다
상당
색감이
샤말
서사
서태
선율
설정도
소오
소비
손오
수영
슬로우
시키는
신동엽
실력이
심은
심장을
싶었음
아시
안듬
안들어
안됩니다
압박
약을
얻은
없으며
에스
에디
여군
연쇄
오죽
오덕
올만에
왜그러
욕설
용가리
우월
우정이
웨슬리
웬지
의아
이명
이모
이지만
인연
인과
있겠다
있기에
작정
잡은
장백
재연
저딴
적합
전범
제공
조롱
종종
좋구
좌빨
주장
주의
죽었다
지네
지능
진하게
집안
짜여진
찍어도
채우
청소
최종
추상
치곤
치닫
친절
콘서트
쿠바
탈을
터지
통한
파헤
팬인데
피디
한회
한몫
할듯
합쳐
해줘서
했어야
허준
허각
형태
호평
획기
히틀러
##사기
##사부
##이없다
##아씨
##아들이
##대사가
##고있는
##장창
##면도
##만함
##박하고
##자이
##가나
##리던
##동일
##적도
##인것같다
##기동
##방에
##한것도
##우성
##에여
##했었던
##없었음
##어낸
##겨울
##노무
##노키
##구로
##위로
##론을
##렸지만
##받지
##본듯
##본건데
##질을
##시로
##시윤
##시즘
##소니
##님과
##부모
##진지
##마에
##버렷
##물도
##생크
##비한
##천국
##볼타
##린데
##졌는데
##겟음
##저는
##러리
##러브
##평론가
##력과
##관리
##계에
##uck
##조한
##분열
##분들도
##짜고
##점으로
##현이
##등을
##타닉
##중요
##중인데
##두개
##텔링
##줬음
##유천
##슬링
##슬픈
##맞아
##뭐니
##훈이
##락이
##알려
##껴서
##회부터
##쩌는
##별루
##근래
##침을
##맥스
##펑펑
##굳굳
영화보다는
##영화이다
##영화중에
##영화라니
너무재밋
너무재미있
재밌지만
최고작
생각과
생각남
스토리텔링
##들이여
감동에
##이라는거
내용없는
보는사람
다시보면
좋은영화다
좋아하
없는지
기대보다
있는것
있는영화
하나경
처음보는
한국식
나오지만
연출이나
그래요
재밌게봤습니다
##연기와
##리는게
유치하기
유치하긴
##사람들의
볼만은
볼만하고
##하기에는
남자들은
가슴으로
##재미없네
전개를
만들어내는
모든면에서
아직은
##지마요
아름다워
한번보고
추천함
실망입니다
잔잔하다
##수가없다
잼있고
잼있었음
요즘엔
보다도
##하네여
자체로
정신없이
만드는게
아까운데
이유없이
남는영화
살아갈
##밖에안
신선했다
친구와
엔딩까지
추억에
전쟁에
지루함과
##부분만
들어가는
있었지
있었을까
돌아온
충격적이다
집중하게
##들과의
감동적이예요
하지말고
##쓰레기다
로맨스도
얼굴을
이쁘네
196
이것을
단순하고
알았지만
알았네요
알았습니다
2003년
소설의
예상되는
어울릴
나이를
##분들께
크리스마
2012년
안타깝지만
생각해보면
먹먹하고
줄거리에
결혼하고
안나올
안보는데
이러면
사라지고
신기할
풀어가는
우울하고
만들었다면
3편이
리메이크작
성장영화
미래의
전달하고자
슈퍼액션
##만으로는
악역이
시선이
자막이
압권이다
나타난
포기한
미치지
보이는데
11점을
해피엔딩으로
섬세하고
이때까지
죽여버리고
일반인
생생한
바뀌고
##나왔으면
##버리네
##남는영화
발견한
달달하고
투자한
영혼이
##ome
##가족이
##왜이리
타이타닉
##그렇지
몇년전에
##요소가
다루는
기대이상으로
어이없게
언니가
새로울
열받아서
근래에
고맙다
임팩트가
하여금
다시보고싶은
지겹고
왜이러지
왜이러냐
개나소나
역량이
콜린퍼
매끄럽지
떨어지지만
기회를
쓸쓸한
피터팬
박신혜
기분나쁜
##분위기
올레티비
질질끌고
돈아깝고
내취향은
놀래키
유승준
아이디어가
##99999999
먹칠을
유익한
당할순
아팠다
기승전결
정재영
ocn에서
약빨고
샤를리즈
미성년
여고괴담
1박
6점이
AV
It
lt
sm
up
ㅅㄱ
ㅈㄹ
가지게
가나다
갈릴
감싸
갑이다
강하다
개가
개성이
경기
계시
고만
고루
고집
공각
공격
과하게
균형
그이하도
근본
금치
급급
기원
기반
긴급
김상
김주
김정은
깨우
꼬라지
나지
남이
남습니다
낯설
내리는
너의
넘친다
놀이
누워
누굴
눈감
늦은
니미
님들
대기업
덕후
도가니
독재
동원
되는지
두뇌
드리고
들었음
디지
따지
딱봐도
딴짓
마피아
말까
말대로
망상
매니
멋졌다
면도
목소리는
몰고
몰려
무모
무뇌
뭐하자
뭔내용인지
미셸
미묘한
믿을수
박재
박유천
밖에는
반항
배제
벌레
법한
벗고
베르
변명
변함
별점은
별론데
보수
볼거리는
봤어도
봤으나
분은
불우
빠르고
뽀로로
사연
사소한
사나이
살지
살았
삼천
서영
서글
성지
세번째
속아
손을
쇼생크
수위
수학
스캔
아자
안성
야마
야쿠
양반
얘네
어필
언더
엠비
여고생
오줌
오디션
와나
왜들
욕할
욕심이
울음
웃어
유준
윤제
의식
이와
이스라
잃어
있을듯
자빠
자식을
작살
잘라
잠재
잡을
재일
적어
제주
조성
종결
종북
죄책
주네
주는거
주셔서
중고
지날
질러
짜고
짧고
첫장면
청순
초점을
최후의
추석
춤을
캡틴
테스트
특집
파일
포커
프랭
했다고
헛소리
호프
호강
홀로
홍경
희극
힘듬
##이었는데
##이예요
##은이
##대요
##대작
##대표
##지라
##지노
##으다
##으려다
##으려나
##로봇
##기들
##도전
##도좋고
##게만드는
##군데
##에비해
##했을텐데
##해질
##괴물
##완벽
##빠지고
##어주는
##있었
##의사
##포드
##르지
##긴데
##남자가
##았다고
##상식
##된게
##애를
##편도
##부대
##수님
##여름
##마무리
##잔아
##터지는
##코드가
##폭행
##봤어
##양반
##신지
##신과
##레터
##설정이
##할순
##란게
##찍은
##겟어요
##슴다
##정신이
##저예산
##분들의
##18
##쏘는
##피는
##xx
##망작
##달리는
##복이
##색이
##유쾌
##씬을
##츠의
##호는
##탈리
##불륜
##7년도
##넘치고
##꺼임
##산다
##확인
##눈물이
##흐흐
영화사
영화내용
영화음악
영화한편
너무하네요
너무재밌게
재미까지
##에서부터
평점테러
생각된다
스토리만
감동이네요
지루했던
지루하기도
##이라이트
드라마인데
감독이나
재미없는데
##다는건지
##보고나서
이건아니다
마지막에는
기대하게
처음봄
한국인이
나오나
##적이었다
별로네
별로지만
##적으로도
##이나마
우리도
우리집
명작중의
재밌게봤
아이는
일본영화가
##배우도
##배우를
결말의
볼만한영화
##하기만한
원작도
##ㅋㅋㅋㅋㅋㅋㅋㅋㅋㅋ
매력도
눈물나게
음악까지
인간에
##는다면
극장개봉
##보는거
한번만
한번에
이제껏
수준도
여운과
실망스러
개봉작
대단해
제목보고
제목부터
제목처럼
어이상실
##생각하게
스릴러는
조금이나마
##봤는데도
나오는게
그러다
자체의
제작한
##할수있
모르겠습니다
영화로만
영화로써
장난이
느끼는게
시청자가
##해야하나
관객은
영화였네요
어색함
어색해서
못한게
역사는
들어오
몰입도를
있었으나
있었을텐데
잔인함
##주의자
궁금하게
궁금하네요
빠져들어
않았어요
2편을
엉성함
이쁘네요
노잼이다
네이버에
티비에
시즌4
귀엽네요
상황과
상황에서
애들용
존재한다
맘에든다
소설이
ㅋㅋㅋㅋㅋㅋㅋㅋㅋㅋㅋㅋㅋㅋㅋ
어울려
2015
즐거웠다
살인자
순간순간
시절이
줄거리를
이리저리
이러냐
노력은
유머와
목소리도
우울할때
##다시봐도
조연들의
철학이
만큼의
만큼이나
인상깊다
저예산으로
조폭영화
다가오
##아아아아
그걸로
흥미롭지
흥미롭다
포장한
형편없다
##티비티
표정연기
씁쓸하다
무시하고
할말없다
아픔과
##하셨어요
생생하다
분들께
고마워
반복되는
최강의
있어야지
이럴수가
##본영화중에
봤을때는
야동을
DVD로
21세
싶을정도로
테러리스트
유아인
하여간
편안하게
개성있는
이준기
한방에
불가능한
암걸리는
this
그로테스크
볼까말까
반지의제왕
##채널에서
오페라
오유에서
##예쁘고
쥬라기공
ebs에서
미개한
소방관
인터스텔라
어쩐지
이슬람
##스오피스
노다메
드릅게
이스라엘
1은
2회
5는
7년
c급
ch
go
♥♥♥♥
ㅁㅊ
가요
가물
가는데
가문의
강우
거친
건드
건담
건달
걸려
것입니다
것들은
곁에
계단
고쳐
곳에
공산
관찰
구림
구석
구석이
그레
금요일
기어
김두
꼽히는
꾸밈
끊어
끌리는
낄낄
나른
나라는
나가고
낚였어
날카
남상
남들이
남아도
낫다고
네이
놀라고
농구
높음
눈은
도움
돋는
되겠다
되다니
되버린
두분
두가지
디비
딸의
또보고싶다
똥칠
뜻이
롱테이크
리부
마련
말길
먹은
멋잇
목적이
묘사가
무도
무어
물리
밍밍
반면
발암
버림
보편
보라는
보시고
본드
본다는
봤건만
부성애
비가
비포
빨려
뻔함
사장
사골
사례
산타
새드
서우
성질
세대
소나
솔찍
송중
쇼킹
수다
수업
스테
시킨
싱크로
쓰면
쓴다
씨리즈
아르
안달
애는
앵글
양키
얻을
없죠
연구
오리
오른
외에
요란
웃다
워킹
유대
유해진
윤시윤
이브
이랬
이대로
인위
일은
입고
있다가
잉여
자기만
장선
장담
재활
재벌
잭슨
잼이
잼남
잼따
저만
저격
전파
점도
제라
조한
조미
존스
좋으면
좌좀
줄줄
중심으로
지리
지내
지껄
지역
지닌
진자
진수를
진리다
질이
짱인듯
쩔고
찍었을까
차기
참내
추적
충족
크라
킬빌
탕웨이
토르
토할뻔
투성이
포스가
폭파
필립
하더라
한듯
해보고
향수를
허니잼
호화
황제
후려
휴잭
히스레
##이었습니다
##지던
##지경
##지면서
##만남
##으므로
##바보
##바다
##가보다
##프가
##들인가
##들때문에
##리로
##인이다
##인건가
##울고
##한심
##런스
##보냐
##보지마라
##스랑
##게리온
##우월
##나를
##나는데
##국을
##했냐
##더블
##더구만
##해지네요
##안습
##안나오
##안나옴
##같지만
##연습
##연씨
##오로
##하려다
##미달
##었을때
##선징
##실한
##3년도
##잼잇
##차게
##본다면
##질뻔
##된거
##된다고
##시경
##시킴
##부부
##일지도
##일텐데
##모로우
##마니
##마의
##겠구나
##잔데
##코비
##많아
##봤을까
##설명
##형사
##란의
##되야
##찍고
##쉬는
##좋았음
##저렇게
##운동
##투성이
##력은
##관에
##출신
##피의
##등이
##올려
##성만
##뒤로
##길바
##망한
##유루
##ge
##gm
##쁘다
##브이
##89
##8년도
##44
##종의
##광수
##클럽
##먹어
##십니까
##회까지
##낼수
##잤다
##순수
##났네
##블리
##떄문에
##검색
##딱지
##릅니다
##탐정
영화ㅋㅋ
영화보단
영화사에
##영화인줄
너무했다
재밌냐
연기들
연기들도
이런류
이런드라마
생각날
생각하니
##까지가
드라마중에
배우에
재미있었
좋은듯
좋은작품
이거보면
이건아니
봤는데요
없는것
없는거
좋았네요
하나다
##다고해서
한국드라마
최악이네
1점줌
1점이다
우리와
우리를
명작이지
##되는게
괜찮다고
여자도
여자애가
그런게
그런대로
주인공인
아까웠
유치하게
현실적
짜증날
눈물샘
눈물나는
##스럽네
##지마셈
전혀없는
대박임
가족은
가족들
이걸로
대단하다고
대사에
##생각해
요즘에
느껴지네요
자체다
제작자
웃기기도
1편에서
시작한
나도모르게
나와는
감정표현
행복은
안되게
##해야만
##해야한다
우리나라도
어색하지
봤던건데
다큐의
분위기만
이딴영화가
포스터를
만들었지
찾아가는
##보니깐
##라이브
엄마한테
보지말고
충격과
순수하게
나올수
나올법한
뛰어나다
비슷해서
사람들에겐
##이었다면
발연기가
##이야기를
비교도
감동이에요
느낄수있
잘봤음
##보게되
평가할
있을까요
각본을
높은거
기다리는
좀비가
확실하게
화면도
화면에
끝나면
흥행을
불편함
감성에
관람가
만드는데
##중간에
편집도
돋보인
시절을
진지하고
후반부는
설명은
내인생에
##만이쁨
미화시킨
있다는걸
진실은
천재적인
놀라게
성장기
사건이
어찌보면
무엇보다도
행동을
안나오나
짜증나네요
제작진이
기본적으로
슬픔과
모자이크
연예인이
##무서워
채널을
힐링이
스포일러
악당이
섬세하게
시사회에서
돈아까운
외모가
시간아까운
기대안하고봤는데
치밀하고
가슴아프
필름이
모를까
류승룡
이용해
강력한
풍경이
보여줬는데
기발하고
여름에
배역이
양심도
제외하면
열정과
끔찍하다
##인줄알고
##극장판
##아쉽다
담겨져
아버지는
두려움
로드리게
기존의
부담없이
최소한의
녹아있는
무난한
안무서움
한지민
평점조절위원회
건질게
긴박감
아기자기한
애잔한
왔다갔다
모니카
앞서간
클로즈
안무섭다
애틋한
난무하는
소소하게
엉뚱한
숨어있는
멀쩡한
가깝다
홍진호
서스펜스
은은한
##미니즘
누구에게나
버금가는
에반게리온
##안타까
제레미
자전거
자존심
토이스토리
마동석
에니메이션
김래원
중구난방
공각기동
##선징악
1번
5년
50분
9점이
bgm
ne
sbs
we
ㅆㄹㄱ
ㅇㅇㅇ
가다
간신
갔다가
강박
개졸작
걷는
걸릴
겁나게
것의
견디
경쾌한
고난
골라
곳이
공식
광기
그룹
근대
기절
깨어
꾸역
끝장
끝없는
나두
남동생
낫네
내눈
단어가
대장
대로
대립
덮어
데이트
도로
돈에
되요
될지
될것
두렵
뒤돌아
들었는데
따른
리더
리브
마술
마시
마모루
막무가
만만
만듦
말론
맥어보이
맷데이
멸망
명백
명절
모범
못봤다
무릎
무리가
무표정
바램
바치는
반의
버스
버튼
베를
변질
변하는
보냐
보아야
본인은
봉준호
부재
불교
브금
블레이드
비둘
사서
살해
삼각
서유
서른
소수
소련
숀펜
수습
수술
수목
스턴
슬플
시리
시네
심하네
싸이
쒸레기
아트
아는데
안정
안믿
않다는
애쓰
여느
였어요
영호
온통
와진짜
완존
완결
울려
울부
유도
유년
유산
은행
의지가
이면
이요
이안
이뿌
이기는
입체
있을때
자매
자리를
자비에
작렬
잡다
장인
재기
저번
저능
절절
절묘한
접한
정경
조건
존쿠
존나게
죄악
주식
주는데
죽임
준수
지들이
지못미
질주
질린다
짙은
짠하고
쫓아
찌푸
찍어서
책은
책읽
촌스럽지
총으로
최신
최지우
축하
취미
침몰
침략
키워
키드먼
타입
타워
토토
튀어
파치노
패스
팬이라
페이스
편히
평작
평가는
폴리스
하이라이트
학원
합리화
해군
해설
했고
허우
형성
후후
후레쉬
휴지
휴가
흠뻑
히스
##이서
##이구
##이구나
##이영화는
##은지
##아픈
##고만
##만난
##가치가
##들인
##인들에게
##인거지
##기전
##기분이
##와라
##보라고
##우면서
##국민
##에의
##했구나
##요일이
##해피
##해낸
##습니
##어져
##하셔서
##미드
##미안
##있다고
##을거다
##는건지
##류가
##키드
##포장
##포기
##포스
##포트
##노소
##었어도
##데가
##데리고
##실에서
##전설
##3분
##걸음
##차이가
##받아야
##쉽게
##질러
##남네요
##상관
##시디어
##소서
##애의
##애씨
##편에
##모도
##디스
##급으로
##잘봤어요
##봤을때
##세지
##생명
##제국
##증에
##주었다
##설레
##치며
##치면서
##천히
##릴수
##감으로
##개인
##개뿔
##욕이
##정돈
##파는
##느꼈
##짜리는
##점수를
##14
##삶을
##탄탄
##타이
##환의
##축구
##겁다
##중심
##외엔
##였다는
##였는지
##엉망
##착한
##튜브
##슬픔
##df
##크를
##못한다
##베스
##왜케
##락을
##흘러
##별점
##끈다
##ㅅㅇ
##넘어
##짝퉁
##EC
##쩔어
##앤더
##앤딩
##났고
##값이
##블록
##뭉클
##567
##쯤은
영화평점
정말재밌게
재밌구만
연기며
##하는걸
최고예요
평점높
평점으로
생각안
생각밖에
스토리전개가
지루하긴
아니더라도
사랑입니다
보는건
이거밖에
마지막을
마지막장면은
기대하며
기대되네요
하나씩
한국영화를
이게무슨
나오길래
하는구나
별로던데
별로였던
느낌과
느낌으로
기억남
기억속에
##되는지
##되는거
이영화로
괜찮아요
주인공으로
일본영화의
결말만
다른사람
이상우
이상형
남자인
원작인
매력과
매력적이고
매력있고
눈물은
애니의
20여
##스럽습니다
전개로
만들어놓고
억지가
필요도
하고자
이제그만
##재밌었는데
배우들과
재밋네
재밋던데
개봉할
##이지나도
나온게
제목으로
어이없어
어디에도
잼있어
##생각하고
##생각나서
##어야할
떨어져서
나오는건
않은가
느껴야
느껴진
느껴져서
부족함이
정신세계
1편보단
이유도
##아니지만
시작해
##만한데
감정에
괜찮은영화
친구들이
친구에게
친구한테
만화로
시청율
안되지
무서웠음
엔딩도
자신에게
부분에
봤던영화
없이도
예술이
포스터보고
코믹도
있었네요
후회한다
설정을
오래도록
더빙판
##레이터
잔인하다
지나가는
##OOD
##주의에
##주의의
순수함을
불쌍하고
이정도의
실화라서
걸작을
얼굴에
전체를
이것만
##말이필요
비디오용
2001년
애들한테
사회가
##거같고
두번이나
##필요가
##보고싶어요
어울림
자연의
##지루한
방송에
질질끄
시청률은
즐거워
누구를
극장판이
처음부터끝까지
TV판
자극적이고
흥미진진하게
아쉬운건
##사회의
##시리즈는
##시리즈중
가능성을
나쁜놈
그럴듯한
바람에
신기하고
전작을
전기세
유머러스
놀라움
노출도
##짜증난다
경찰이
그려진
그려냈다
짱짱짱
미래는
어렵고
생각한다면
러브레터
메시지도
프로그램이
아저씨가
기본적인
넘어가는
섹시하고
스트레
시원시원
해주길래
희생을
자막으로
일상의
나타내
아침부터
몸매가
동생이랑
그립네요
비극을
이루는
견자단이
시걸의
##소설을
##art
극치를
바꿔라
시간가는줄모르고
담아내
깨달음
상관없이
어쩔수없이
성격이
정확한
##관람가
언젠가는
##역사상
dvd로
재능이
30년전
하여튼
##귀여워
허허허
1인칭
외로움
두려워
흡입력이
담백하게
파격적인
이렇다
어거지로
##비슷한
나중에는
이승기
스피드
##여주만이쁨
##아름다
방황하는
안무섭고
보석같은
비참한
놓치지
##ㅇㅇㅇㅇㅇㅇㅇㅇ
음모론
벗어나지
드라큐
심리묘사가
고질라
브로디
월드컵
##영화제에서
##로맨스
클라이막
풍부한
씨네21
서인국
장쯔이
토요명화
##아버지가
여진구
어렷을때
1점준거중
박한별
사춘기
김창완
안드로메다
인피니트
김주혁
0개는
1기
27
3박
3점이
4점이
GOOD
가질
간접
개운
개쩐다
게이는
견뎌
결투
관능
광주
굿바이
권선징악
그곳
그영화
그정도
극대화
글쓰
기부
기계
길거리
김아
김옥
김병
깊다
끄고
끌려
나약
나라면
나한테는
남들
낮을
내일이
넘잼
넣고
넣어서
노란
놀랬다
느려
다있냐
더해
돈날
되니
되네
뒤통수
들어요
들었어요
들었습니다
듯하다
등의
딸과
떠나는
뗄수
많이나
말처럼
말장난
매드
머니
멈출
멍때
모아서
못잡
못하면
못해도
묘미
무자
무명
무고한
물결
물체가
뭔말
뭘본
미남
미련
바둑
박하
박힌
발차
발악
백번
법을
보인
보내는
보내고
복귀
본적
본다고
본사람
브리
비급
비춰
뻔하디
삽질
상승
상쾌
생길
서동
서커
서바이벌
세기의
솔로
수천
스나
스콜
슬슬
시망
시퀀
시놉
시어머니
실베
심해
심금을
싶고
싶을때
싼티
써야
쓰잘
쓸모
안줄
안함
안봤다
안가네
안주는데
안남기는데
않길
알면
알라
알앗
앞부분
애인
앤딩
야한영화
억압
없군요
여인의
연개
열번
열정을
열연이
예정
오정
왕자
왜그래
왤캐
요한
우웩
우정을
울트라
웅장
웨스턴
위기
위선
유선
유희
유튜브
으휴
이가
이글
이집
이입
이들의
인연이
일도
일점
입을
있도록
자의
자녀
작년
잘짜
잘하시고
잠이나
잡지
장화
장점
잼없어
저버리지
전의
정지
정체가
제2의
조각
조악
좀만
종말
주려
주진
주저
주조연
지쳐
지친
지르고
짐작
짓을
찍었다
창문
찾게
처리
최우
치면
케미
케로로
케서방
콤비
크로우
클레이
타잔
탈락
토미
토마스
퇴마
퇴폐
팬이지만
퍼시
피노키
하면서도
한니발
할수있는
했지
했네요
했어도
행운
향기
형식
화나는
화이트
활동
후배
흐른다
##대장
##지리
##지구
##지상
##지좀
##으루
##바꿔
##자다
##자신을
##라구
##들었다
##졸라
##인건지
##울이
##런지
##보지마세요
##내라
##나나
##국에
##에이
##했기에
##그림
##그닥
##그럴
##같았다
##연결
##다녀
##오버
##빠지게
##어쩔
##어렵
##하심
##하겠네
##트랙
##는지는
##의도
##키가
##너의
##포칼
##노는
##구여
##실화
##전과
##과도
##30
##폰으로
##당함
##시하는
##놓는
##막극
##공을
##부르는
##진한
##일로
##여기
##마부
##겠니
##싶네요
##변화
##많네
##많아서
##많은데
##잘안
##세대
##세한
##세의
##신다
##신경
##법을
##배를
##설마
##혹한
##년을
##합이
##관념
##느낀
##출한
##1때
##10분
##껀데
##피가
##피디
##피언
##뻔하고
##탄생
##200
##환이
##환을
##밖의
##령이
##닥터
##핵노잼
##랜든
##ry
##크는
##끝에
##호강
##셨다
##셨는데
##항상
##먹음
##회를
##누가
##v에서
##끈한
##몇번
##잡이
##밤에
##꼬박
##꾸역
##빈이
##몸매
##옛날
영화에는
영화라도
영화군요
영화같음
##영화만
##영화라는
##영화인지
재미더럽게
재밌으면
##하는건데
평점과
평점10점
##라마바
##보다더
사람인데
사람으로써
감독이다
만들까
재미없으면
재미없었어요
쓰레기라는
사랑함
사랑이라는
작품성을
액션씬은
없는건가
기대할
기대됨
하나만으로도
처음이었다
지금에서야
한국을
이게뭐
나오냐
나오니까
하는짓
별로였는데
명작으로
##있는지
이야기라
아이랑
그런걸
만든거지
아까웠음
##리는거
마음도
일본에
보여지는
다른게
짜증을
짜증나요
매력적임
ㅡㅡㅋ
아름다워요
억지웃음
수준낮은
추천할
아주아주
공감대
가족영화로
대단하고
나온건
표현된
표현하는
아쉬울뿐
아름다운영화
중간쯤
봐야될
시작된다
수작이라고
장난아니다
어린나이
강추강추
안되냐
답답하게
전쟁은
다큐로
다큐는
힘들고
힘들듯
문제다
예술적
예술이다
역사가
역사와
찾아봤는데
##한거임
##한거같다
##들에게도
엄마를
지나면
한국영화에
순수함
순수함이
##감동적인
##ㅠㅠㅠㅠㅠ
느낌이었다
걸작이
얼굴은
다음엔
B급도
##으니깐
##느낌의
비교된다
##자체도
2008년
##시절의
느낄수있는
교훈적인
##거같아서
##보고싶은
세계가
이번에는
나이먹고
어쩌라는
머리카
볼수없는
개그는
낮은듯
2013년
평론가들이
성우들
안타깝습니다
댓글이
순간의
##하지않는
사이에
tv로
안나왔으면
##시리즈를
안보길
예고편에
가볍지
##친구가
진실된
스타일은
120
부모가
뜬금포
않았다면
성공한
##지못하고
안나오네
OST는
잘만든영화
연애의
거기다가
제작진은
##지도않은
나서도
맞는듯
종교적인
##해보이는
해주네요
##인간의
무협영화
북한의
깊이있는
놀랍고
몇번을봐도
남녀의
부끄러
신경을
정서를
산만하다
드러난
##보여주
##마음을
느와르의
우주전쟁
인도영화
시시하고
##반전이
시각으로
바뀌는
몰입감도
세월호
찝찝함
결과가
새롭다
치밀어
우정과
움직이거나
대부분의
슬펐던
슬펐어요
김민준
여태껏
이용한
할머니가
이민정
설득력이
인디언
단편영화
여러가지로
##reat
상관없는
무한한
제외한
인상적이었다
정체성을
##때문인지
기대했건만
444
하하하하
감안해도
위대하다
사이코패스
##선생님
압도적인
나무랄
담백한
이렇지
못본게
형제의
10번도
안가네요
##dddd
중학생때
그이상도
데스노
되돌아보게
##아름다운
스펙터
판타스틱
말해준다
영화볼줄
따스한
위안부
추구하는
##긴장감
빠르기
가난한
저지른
의학드라마
어마어마한
철저한
오토바이
##아닐까
##보비치
정유미
흔해빠진
유역비
시덥잖은
무미건
boring
연쇄살인
##사부일체
불우이웃
싱크로율
막무가내
울부짖
##여주만이쁨여주만이쁨
##포칼립
14년
2명
2배속으로
4개
45
4점은
80분
Best
SM
SBS
do
not
or
감안하고
강소
강수
같았는데
같으니
개쩔
거미
거참
거시기
검사
것보다
것같다
겪는
고대
고요
고스트
곳곳에
공동
과언이
교도
권하고
그루
금발
길들여
김우
김원
김준
깊고
깔려
꼬박
꼽으라면
나인
난장
남길
남아요
내사랑
내평생
너를
놀랬
다짐
다봤는데
다좋은데
답을
대만
대화가
덤으로
됐지
됐어요
되려
됬는데
들었던
등에
때로는
떠들
또하나의
똥싸
류덕
리차
리들리
마저
마시고
마디로
말던가
말코비
망했다
머리는
명언
명배우들의
모여서
목사
목을
몸짓
몸부림
못찾
못보는
무심
묵직
뭐이리
미치게
바르
바랄
박현지
방식으로
베토
베끼
보람
보지않
보느라
본인의
부천
부패
붕괴
뷰티
비됴
비열
빌려서
빠진다
빠지지
뻔뻔한
사수
살자
살렸
색감도
색다르
샌들러
생김
생기는
샤워
서지
섞여
선한
선과
성시경
소속
손이
송윤
송새벽
순위
스키
스텔
슴가
시점에서
실천
쌈마이
쌍벽
아부
아낌
안해
안재
안만들
안나온
안들고
알지만
앨리스
어렴
업그레이드
에리카
여인
였음
옆에서
예를
옮겨
와중에
요근래
용감한
울궈
울버린
위협
유작
윤은혜
은희
이랑
이나라
이라도
이보단
일기
일진
임성한
입에
입가에
자이
자격이
잘하는데
잠자
잡아먹
장사
장수
장황
잼써
저랑
전두
절친
정성
정준호
조장
조화가
졸린
죄없는
주요
죽었
죽어나
중견
지울
지연
지성
지긋
직원
직설
직쏘
진다
짝사랑
차이를
착하고
천천히
촌스럽다
최선
최루
치부
칙칙
크레이
클럽
타는
토마
투박
트렌
판치는
평타
포스트
표출
풍기는
핑계
하실
하더니
한게
한채
한이다
한두번
할것
할일
해소
행위
향수
허비
현장
형이
홍수
훌쩍
##사장
##사한
##사상
##이구만
##아웃
##아무리
##대중
##지에서
##지모르
##고가
##고리
##고어
##고의
##문이
##장군
##로페
##바퀴
##서사
##서를
##자신이
##가물
##가에서
##프의
##프스키
##들게
##들처럼
##리암
##기며
##기때문
##드류
##드레
##와요
##보여서
##보지말
##스맨
##웃고
##내놔
##나은
##에야
##에노
##했을듯
##더가
##해보는
##해줬다
##안보고
##안본다
##던게
##그지
##그나마
##없던
##어게
##어지고
##씁니다
##하에
##하도록
##을려고
##무협
##작가가
##는다고
##구장창
##었군
##3점
##거린다
##준비
##준영화
##단을
##본적이
##본영화중
##질에
##남녀
##남긴다
##았는지
##된영화
##시걸
##시코
##시기를
##소드
##애기
##편에서
##갈수
##줄거리
##일드
##날듯
##여러
##행위
##모델
##마라
##마를
##디다
##싶어
##버가
##발로
##잘어울
##봤고
##봤나
##봤는지
##세트
##세용
##세번
##용석
##양은
##황후
##비행
##제의
##레스트
##토가
##os
##ol
##햇어요
##통으로
##슨과
##년간
##천만
##입니당
##란드
##란걸
##릴려고
##볼걸
##티티
##되어서
##되었던
##벗고
##찍어
##욕을
##든데
##파티
##좋앗
##좋았는데
##러드
##운다
##평이
##력의
##관은
##관의
##느낄
##조치
##조각
##조절
##분도
##분량
##점점
##칠때
##워싱턴
##1이
##1끼
##병이
##족이
##죽이
##2일
##2를
##환경
##성룡
##익은
##목을
##줬던
##쇼스키
##good
##ect
##ab
##귀가
##슬프고
##ma
##ri
##호와
##호구
##4점
##매를
##광이
##돼지
##취급
##왕짱
##얘기가
##불편
##뜬금
##짝짝
##됐지만
##블로
##겄다
##눈빛
##콩콩
##빵빵
##열심히
##앨런
영화구나
영화여서
##영화관에서
재미에
재미짐
정말최고
정말재미있
재밌긴한데
평점1점
이런일이
생각하면서
생각나고
생각났다
생각됩니다
스토리며
보고있습니다
지루하
지루하진
드라마지만
10년도
내용이라
아니구나
아니올시다
쓰레기라
쓰레기영화는
다시보
좋아하던
작품성도
기대하는
있는건지
한국에도
이게머
최악은
최악이네요
이렇게나
하는영화
별로였어요
아깝게
아깝다고
##이나네요
##있는게
이야기들
이야기지만
일본을
공포와
공포감
유치하다고
현실감이
볼만했던
다른걸
남자랑
스릴과
짜증났음
가슴따뜻
매력있다
20살
##재미는
##시간을
만들어버린
##지않아서
필요없이
추천해요
##나오는데
연기력으로
대박영화
실망시키지
가족들이
가족들과
##장면에
개봉했을
대사로
제목이랑
흥미도
조금도
아쉬웠던
막장도
봐야겠어요
시리즈물
정신분열
작가야
나왔는지
친구의
만화같은
언제적
행복하다
주는건
##소리만
##소리를
관객들의
관객들을
추억은
##지가않
완벽했다
지루한데
지루한건
인상이
##스토리에
##부분을
아무리봐도
졸작을
당시에도
어릴땐
예술로
제발좀
함께한
만들었니
캐스팅만
##한거야
후회합니다
후회된다
주연이
보지마요
주제의
어느하나
집중을
미친영화
##감동도
않았을
따라하기
중국이
누가봐도
상상도
CG와
CG에
이름에
프로젝트
사람들만
##자체는
한마디만
알았어
이미숙
성룡영화
인물을
감동이었습니다
귀엽게
교훈과
별점테러
존재감
맘에들
##거같네
소설로
어른들은
다르지
멜로물
##액션은
멋있네요
##어가고
2010년
100배
화면은
예쁘네요
##아이를
흥행이
흥행은
흥행실패
불편했다
있었다면
리얼리즘
엉망이
줄거리만
보았어요
흥미진진하다
범죄를
죽음이
죽음은
만점짜리
무서운영화
알려지지
동화를
기대하고봤는데
진실이
흘러가
노력을
유머도
누군가를
보고나서도
##음악이
나에게도
피해자가
제작진의
고민을
이하의
분노를
이연걸이
일어나서
소녀시대
상처받은
싸이코패
등장인물들
부끄럽다
보러가
아련하고
정서에
드러나는
조잡하다
무시무시
광고를
이때부터
##bbb
발전을
스스로를
시시하다
기독교인
묘사한
안돼는
##나와라
빠져들었다
여행을
결과물
비현실적이고
이정현
늘어지고
이럴거면
##영환줄
볼수있어서
##♡♡♡
커플이
좋았을걸
내면을
##캐릭터가
올리버
전율을
새끼들
연극을
야한장면
잘어울리는
한명도
끝났으면
거부감
시끄럽고
여자주인공이
따분한
고등학교때
빠른전개
유발하는
프리퀄
키스신
밀려오는
밀려온다
천국의
##드림1개
제시카알바
시간때우
매끄럽
메이저
마지막장면에서
민주주의
다시보기로
안좋아하는데
조지클
##ime
##쓰레기쓰레기쓰레기쓰레기
빠순이
처절하게
무식한
초월한
호흡이
개망작
고소영
순진한
기대안했는데
김윤석
모호한
그와중에
마스터피스
노골적으로
쿵푸팬더
간직하고
지진희
##34567
골때리는
우스꽝
매혹적인
박해일
꼬맹이
나뿐인가
매트릭스
지니어스
조인성
파트너
##오랜만에
꾸준히
색다르고
존1나
최수종
##디에이터
배슬기
지날수록
강우석
간신히
존쿠삭
##시디어스
김옥빈
스나입
리차드
베토벤
어렴풋
2기
29
26
2점을
3점은
3점대
4번
5살
IM
for
wor
가나
가네
가지는
갈리는
감우성
갖는
같았음
같았어요
개미
개웃김
거임
거칠
거리는
거장의
건가요
겉만
견줄
결승전
경각
고아
괴기
교통
구입
권장
권투
그보다
기생
기묘한
김종
깔깔
깨고
꺼버린
꼽는
꾸며
나네
나갔
나까지
나처럼
남주는
내보
넘나
네임
년이
노트
놀아
놀라는
누님
눈높
다해
다봄
닮아
답습
당대
대니
더준다
데려다가
도는
돌리고
되야지
되었으면
된거
됬다
뒷통수
드팔
들인
들으면
등을
딴거
때우
땜시
떠나고
또한번
똥망
똥꼬
러닝
루시
마돈
마니아
막막
만다
말라고
말하기
맑은
맞는지
맞나요
면을
명성
모지
못했음
못알아
몽골
무능력
문화를
미지
바비
바랬
박준
받지
발버
방어
버디
벅차
번지르
범작
변화를
별10
병원
보스
보상
보셨
보려면
본거지
볼일
볼시간에
봣어요
봤어야
봤더만
분들도
분들에게
불끄고
비트
빌어
빌린
뻔해
사귀
사냥
삼촌
성기
성냥
성동일
세이
속시원
스카
신발
실상을
심야
쓰다
아내가
아포칼립
안내
안경
안하는
앉아서
않으
않냐
않겠다
알면서
알겠네
알고싶다
애도
애쓴
얘들
얼음
에단
여정
연평
열어
예나
오열
오마이
올리기
올바른
옷을
왜자꾸
요가
용감
울다
울림
울뻔
울린다
웅장한
워스트
워싱턴
원한
원한다면
웨스
유인
유연
윤재
으악
은유
음란
음산
이장
이서
이국
이분
이틀
이빨
이뭐
이쯤
이네요
이어서
이들을
이들에게
인질
일대
잃게
입이
입은
자부
잘보았습니다
잡탕
장예
장엄
재판
잼게
잼없는
저럴
전해지는
점을
정복
정이건
제인
제멋대로
조로
조안
조마
존예
졸음
좁은
좋던데
주민
주었다
주다니
죽지
죽어야
중3
줬어
즐기고
증오
지브
지킬
지나고
진국
집합
짓게
짓거리
쪼금
찬란
찾은
초한지
총기
총싸움
최곤
콩가루
킹콩
킹왕짱
타인의
톰하디
톱스타
특정
티라노
파리의
패륜
팬으로서
퍼포
페미니즘
편향
포인트가
폰부
한시도
할만한
할텐데
해석이
환상을
황진
휘둘
흘릴
##사바
##이더
##이루
##이용
##대에서
##지르고
##지지않는
##서로
##자라
##자한
##자살
##자에게
##자리에
##가득
##라블
##리리
##동영상
##인양
##인형
##야마
##드니
##드릴
##와닿
##한명
##보가
##보를
##카의
##우울
##우며
##했어야
##했더라면
##해줬으면
##안나온다
##그대
##그때
##그로
##그가
##그녀
##같다는
##히지
##싫은
##다이
##다보니
##왔고
##오그라
##없구만
##어설
##래이션
##미소
##있었지만
##트리고
##원씨
##작렬
##것과
##것임
##것들은
##것만으로도
##구성이
##려구
##었으나
##데스
##전체
##범이
##쓰래기
##잼잼
##OD
##커녕
##거같은
##긴했는데
##단말
##단계
##당께
##본방
##본데
##남고
##남주
##았지
##았을까
##된듯
##0점
##님도
##학대
##공간
##집중
##테고
##테랑
##부들
##부여
##부른
##멋짐
##진리
##일어
##모드
##디의
##겠더라
##겠습니까
##터지고
##존스
##코는
##코타
##폭탄
##세에
##her
##비로
##토의
##예뻐
##주변
##주셔서
##음ㅋㅋ
##후무
##통을
##치지
##할꺼
##할지도
##할텐데
##각본
##민우
##티네
##되니
##감성
##졌어
##겟지만
##네스
##좋았던
##좋겠어요
##th
##분명
##분투
##1도
##머프
##머신
##죽은
##죽음
##올리
##길을
##망생
##강의
##몰라
##답지
##역이
##av
##빨로
##씬만
##브로
##빙빙
##맞게
##향을
##8점
##업고
##크래
##크레
##못했다
##끝이
##베이터
##훈훈
##결국
##암튼
##먹지
##먹기
##별한
##불패
##될지
##될까
##튼의
##산으로
##잊혀
##릿한
##콘서트
##춰진
##꿈을
##닼ㅋㅋㅋ
##톨릭
영화여
영화치곤
##영화지
##영화야
너무재미있게
재밌나
진짜재밌어요
연기너무잘
생각되는
스토리라
보고있
배우에게
내용없고
아니자나
감독에
만들려면
쓰레기에
쓰레기통에
사랑이다
사랑했던
사랑스러움
보는건지
다시보고싶다
좋아용
마지막장면이
액션영화가
기대했지만
있는건
하나입니다
처음이자
한국애니
나오지도
1점주
10점주
모르면
우리들
명작중
느낌이네요
기억상실
재밌게봤던
많이들
장면으로
장면에선
만든다는
남자지만
반전이라고
보기전에
##드라마의
##ㅋㅋㅋㅋㅋㅋㅋㅋㅋㅋㅋㅋ
눈물날
##나는영화
전개의
##시간동안
만들어주는
##보는줄
##스러움이
필요없고
##재밌네요
##재밌었다
재밋다고
##했던거
가족드라마
##리가라
어디다
어디가서
표현의
잼있네
잼있었어요
그렇네요
모습에서
보다보니
##주인공의
자체에
미국영화
부족했다
정신없고
보고싶어서
나와요
모르겠는
보게됐는데
그저그렇
살아있다
수작을
의미로
장난으로
무엇일까
신선했고
어린애
얼마전
행복했다
행복합니다
무서워요
우리나라가
관객들이
오늘의
추억으로
자신만의
생각이든다
포스터의
애니메이션의
후회안
설정으로
주연을
주연들의
아름답네요
오래간만에
공포영화라고
보지마삼
충격적
어느순간
집중할
한국영화중
순수했던
##사랑해요
##감동이
중국인
중국판
##작품은
감사해요
대체적으로
전체가
이것밖에
있을지
발연기는
비교할
티비판
성룡은
여배우는
좋겠음
좋겠는데
거의다
소설도
이번에도
##할때마다
그대로의
어른들
어른도
어른들을
자연스레
다르고
나이거
##액션영화
어쩌구
##스타일이
질질끄는
2013
누구야
이런영화도
케이스
중요하다
편집을
홍콩영화의
과거와
안타까워
그림도
설명도
전편을
ost는
복수는
현재를
알려진
바보같은
동화책
2시간을
서로의
흘러나오는
아오이유
풀어내
노출은
싫어하는데
누군가가
##줄알았
전달하는
전달하려는
어렵지만
##별로다
그랬냐
그랬지만
하루에
어린이들이
5점짜리
특별히
##일뿐이다
느낀건
현대판
올라가
##무서움
##무서운
떠나지
동생이
상상력에
소름돋았다
정서가
안봤음
그것뿐
연기자들이
##ㅉㅉㅉ
##의미로
##무섭다
전문가평점
국내에서
한참을
갈등과
특이하고
최강희
##떨어지고
대부분이
뭉클한
경험이
경험을
어처구니없는
복잡하고
가슴아프고
학생들
##거라곤
카리스마가
바꿔서
##지금까지
챙겨보는
몇년만에
감명깊은
오빠들
으리으리
이해안됨
기준이
흥미로웠다
감각적인
의리로
기대했었는데
안쓰러
폐지해라
적절하게
##OOO기
##ess
영화자체도
무너지는
난잡한
답이없다
편안한
로빈윌
하품만
바이블
죄송하지만
주고싶은
포인트를
공간에서
암걸릴
9점대는
##어디서
머릿속에
늑대인간
우디앨런
민주화
뭐하자는건지
펼쳐지는
##귀엽고
##귀엽다
어수선하고
그림체도
상태에서
유승호
감수성
스토커
에바그린
된장녀
지저분한
서정적인
발랄한
태권도
쓰나미
파이널
춤추는
나비효과
##감사합니다
스무살
허무맹랑한
게리올
what
저렴한
불친절
눈부신
유오성
삼국지
대리만족
OCN에서
윌스미스
카타르시스
기막힌
우베볼
곽지민
가나다라마바
긴급조치
엠비씨
솔찍히
휴잭맨
클로즈업
꾸역꾸역
베를린
후레쉬맨
퍼포먼
1초
2류
2점은
4명
48
40년
50년
7살
88
9점을
kn
ㅡㅜ
가리
간에
갈망
감점
감출
감격
감회가
강도
같애
개도
개고생
갱스터
걸음
결제
고사
고무
고추
고릴라
공리
공군
공익
곽부
관점이
괴리
교양
구도
구나
구린
구식
그토록
기름
기초
기업
길어
김진
김승우
깎아내
꼬집
꼬꼬마
꼭한번
꼴보기
꽃미남
꽝이다
끌지
끝맺
끝이다
나았습니다
나았을
나옵니다
나탈리
낚여
남북
남주의
남았던
남깁니다
내놔
네버
놀고
놈은
누드
눌러
능청
다닐
다뤄
달라서
당위
당당히
대처
대상
대견
대륙
더러
도서
돋았다
동시
동아리
되기
되었던
뒤집
들지만
들었지만
디젤
디자인
때리
때묻
때까지
뜨고
뜯어
루이
리처
마침
만에
만으로
많을
맑고
망침
망하는
맞을
맞출
맞지않는
맞먹는
매료
매춘
맴돈다
머여
멀미
몇달
무력
문채
문소리
미혼
바란
바티
박물
박스오피스
반쪽
받쳐
받았던
발정
발가락
배워라
버젼
벅찬
변하지
병사
보삼
보듬
보이나
보셨으면
볼것도
봤었지
부처
부풀
부딪
불태
브란
비약
빈틈
빠지고
빡침
뻔하지
뻔했다
사업
사는게
산뜻
살다가
세기
세븐
센세
손으로
수밖에
스쳐
스러운
스카이
시한
식당
실소
싫다고
심플
심정
썼다
쓰세요
쓴거
쓸때
아청
아유
아른
암유발
애청
양자
어장
어따
엇갈
연걸
연락
염정
영어로
오컬
오션
옳은
왕짜증
욕나올
울다가
울림이
웃었음
웃지요
유우
유태
이화
이색
이뻣
이프로
있던데
있기는
있으신
자폐
자칭
자다가
작고
잘되
잘찍
잠안
잤음
재생
잼없
잼난
저를
저에게
저학년
전원
전하는
정권
존잘
종류의
주신
주어진
주구장창
지인
진구
짜맞춘
짠하다
짱잼
찐한
차갑
착하게
챙피
천년
최상
춤도
카우
캐치
커트
컬러
케미가
크크
터질
터뜨
터진다
테일러
토나올
톰과
투모로우
틀에
틀을
파도
파티
판을
패틴
편은
평온
폭탄
폼만
피의
피를
핀처
하류
하길
하찮
하겠다
하려면
하던지
하우스
하모니
학예
한층
한낱
할려고
함축
합격
핵심
핵꿀잼
현주
호모
화나
확신
환영
후련
훔쳐
휴대
휼륭
흡혈
힛걸
##사무
##사투
##사아자
##람쥐
##이러
##이아니라
##아프고
##대상
##대소
##지기
##지션
##지길
##말아먹
##문학
##만보고
##만화가
##바꾸
##서가
##박스
##리얼
##졸잼
##동물
##기어
##기네
##기면서
##방울
##울었다
##도현
##보로
##보드
##보였다
##보기는
##스넌
##게이
##게되는
##우를
##나봐요
##군다
##니오
##니를
##했다는게
##해줌
##안가
##안감
##안치고
##그의
##그저
##같습니다
##화로
##히로
##다섯
##왔음
##오의
##오르
##오면서
##어보
##하구요
##래서
##래쉬
##미오
##을줄
##극치
##구석이
##었군요
##전도
##전한
##전화
##전투
##과함께
##3편
##셔도
##걸륜
##론은
##OST
##거북
##렸고
##임ㅋㅋ
##차를
##루미
##본드라마
##남친
##따로
##시요
##소수
##팬인데
##수리
##독립
##여왕
##여주는
##잔잔
##짱이
##폭발
##렇지
##세연
##용을
##ia
##생긴
##경의
##경험
##비언
##레나
##ock
##음ㅋ
##음에도
##통이
##설수
##치와
##치에
##치지만
##형은
##입장에서
##되지만
##량한
##감정을
##번의
##쉬고
##파리
##파에
##파일
##합니당
##저의
##반의
##관심
##느라고
##ud
##조작
##조마
##13
##머리가
##타가
##올림
##2역
##살려
##성장
##끼는
##중근
##석천
##두는
##였을까
##착오
##gh
##쁘고
##쁘게
##ack
##허허
##ㅡㅜ
##맞춰
##체류
##크에
##호크
##호흡
##셨네
##셨어요
##랄라
##펜터
##캐리
##밀한
##승리
##깊이
##됐으면
##먼의
##겹고
##ㄴㅇ
##ㄴㄴ
##댄스
##묘사
##넣기
##넣어
##꾸로
##열에
##덴티티
##앓이
##짧은
##슐리
영화군
영화치고
영화보는데
영화속의
##영화들
##영화와
##영화인듯
너무잼
너무좋고
재밌는지
재밌을거
연기때문에
##하는것이
##하는거지
##하는듯한
최고야
평점이다
이런지
이런식
감동먹
감동이었다
보고픈
##하게하는
##하게만드는
지루했고
드라마라
드라마나
드라마네
드라마였습니다
드라마였어요
100년
내용만
내용인데
아니었는데
아니였다
아니어도
아니였음
사람에
사람한테
만들엇
만들었음
재미없어도
보는지
좋은지
좋아할듯
이거진짜
기대되요
좋았을듯
있는거지
하나님의
지금이라도
한국전쟁
나오긴
나오겠지
##같은건
##적이네요
##적이어서
이렇게도
별로야
별로였지만
아깝단
아깝더라
이해안되는
##이나는
느낌입니다
기억남는
괜찮을듯
여자랑
##라는건
##연기자
주인공들은
만든거냐
유치하지
무슨죄
##배우는
소재인데
이상이
##드라마다
가슴속에
가슴뭉클
##ㅋㅋㅋㅋㅋㅋㅋㅋㅋㅋㅋㅋㅋ
매력의
음악으로
인간과
##시간낭비
많은듯
아름다워서
이제와서
##재밌었음
수준임
수준으로
##나오네요
여운은
캐릭터들은
코미디와
실망이네요
실망했어요
##는거보고
공감하기
공감할수
공감되지
개봉하고
대사하나하나
표현하고
표현할수
##만들기
##생각함
떨어지네요
기분을
##한테도
느껴지고
중간까지
알바냐
알바들아
시리즈중에
그러는데
부족하지만
정신이상
정신상태
웃기지만
##아니었다
시작된
나왔다고
##감독과
##거리게
##이상으로
뻔한내용
따뜻함이
보게됨
살아가고
신선함이
무섭긴
시청자들
무서웠던
##이야말로
영화였지만
오늘날
다큐가
못한다는
진정성
들어가서
코믹과
코믹으로
찾아보니
있었을
##한거다
후회가
후회는
아름답습니다
보지마시길
##정말잘
돌아간
잔인하지만
미친거
궁금해
궁금함
2편에
감사하고
후반의
로맨스가
비슷하다
다음편이
비교적
비교를
비교해도
초딩도
알았지
2009년
##등학교
알게되
교훈은
애들영화
##erf
존재하지
전부인
예상대로
어른을
다르지만
##액션의
기다린
멋있어서
개그도
낮은게
2011년
즐거웠던
누구인지
극장판을
화면만
한심하고
감성과
보여주는데
편집은
진행도
사이의
어려움
어려워
불륜은
참신하다
망작이다
보았네요
선택이
##기대를
##봐야겠다
멍청하고
얘기하고
결혼식
##시리즈의
설명할
전설적인
내인생의
있음을
영화인것같다
가능성
감상평
웃긴데
사라지는
미화한
나쁘게
나쁘다
바람이
중반까지
중반까지는
다운받았는데
되어버린
요소도
##방송에서
풀어내는
없을것
##줄알았음
##하겠는데
경찰은
잘생겼다
심심하다
호러물
이건뭐지
섹시하다
소름끼치게
종교를
후속작이
어렸을땐
무지하게
불쾌하다
일상적인
나타나
몸매는
올해의
고생한
##지않은영화
남녀노소
##버렸네요
설레임
아련하다
비극적인
출연진에
비주얼도
스크림
할말없음
그것만
능력을
에이미
이루어진
여기서도
##관계를
싶어졌다
연결도
생생히
##작가의
##나왔다
전반적인
노답이다
타임용
코난이
떠오르
미모와
움직임
##따구로
##재미없어요
제이미
늘어진다
스크린에
스크린에서
깜짝깜짝
정의는
류승완
재미잇어요
어지럽고
##♡♡♡♡
욕망을
주말의
아름다움과
신비롭고
보자마자
##답답하고
깨달음을
안볼란다
결정적으로
연기잘하는
국가대표
알수있다
이해안감
시키지
배경음악도
##ith
잠시나마
주윤발의
목숨걸고
일깨워준
애매한
유덕화가
죄송합니다
##아저씨가
##느끼게
어우러져
개똥철학
책임감
거품이
흔들리는
불안한
송강호의
선사하는
영화평론가
부자연스러운
top
불과하다
보게되었는데
키아누리브
모아놓고
불법체류
오리지날
상큼한
보고난후
절대보지마라
런닝타임이
주관적인
마녀사냥
초월하는
간단한
강요하는
넘쳐나는
부드러운
아메리카
##신기신기
##ffff
재치있는
일일드라마
한쿡영화의
##시켰다
시사하는
극한의
김현주
어떡해
도입부
빠짐없이
들여다
로렌스
진솔한
코엔형제
빨리감기
리암니슨
여지껏
고현정
동방불패
문근영
가슴찡한
오마쥬
거침없이
서세원
얄팍한
오다기리
소름끼치도록
##로게로게
분신사바
해운대
손오공
성지순례
가물가물
퍼시픽
스펙터클
김우빈
무심코
##드림1개드림1개
교통사고
연평해
장예모
조마조마
1을
2D
3은
3는
36
4는
4000원
50년대
95
REC
You
am
are
sp
tr
가려
가시지
간결
감미
강성
같던데
같잖은
개척
개허접
개발연기
거라
건물
걸고
것이지
것일까
견딜
겹쳐
계신
고기
고군
고르
고창
고리타
곤란
공정
과하다
교감
구분이
권총
그은
그랫
그사람
그시대
그놈의
극적
극히
급이
길어서
김일
김용
꽥꽥
끊기는
나는데
나지만
나아가
낚이
낚일
남는거
낫습니다
내린
냉소
넘사
녹음
누워서
눈시
눈꼽
늘려
다카
달린
담주
답없다
당한
대성
대만족
대서사
댄싱
더티
도배
돌프
되었어요
되고싶
되었지만
되었네요
두루
두마리
둔갑
뒤에서
드러운
들은
디게
따지면
딴건
딸은
때매
때리는
땡칠
떄문에
똥같은
뜨거워
라니
레미
레벨
루카
린제
링컨
마더
마징
막히
만나면
만났다
맛은
망했어
맞냐
맞아요
매기
매너
매길
맴도는
머라
머피
몇분
모가
모리
목욕
몬가
못하네요
못만든
못만드는
무적
무당
문명
뭔지도
미나
바쁜
바꿨
반해
반미
반대로
반가운
받는다
받았을
발상이
배고
배낀
백성
백프로
버렸
버린다
베댓
병입니다
보질
보낼
보낸
보려는
보았음
복싱
본사람들은
봅시다
분류
비노
사자
사운
산업
살았던
삼박
생동
생겼다
섞인
성폭행
세금
소시
속을
스폰
스승
스웨
시궁
시초
시기에
실상은
심함
싱거운
악한
악을
안개
안한다
안나고
안중근
않나요
알콩
애처
애써
액티비티
얼어
없으면서
에잇
여우
여백
여럿
여기는
역에
연설
영하
영감
오광
오픈
오멘
온가족이
올인
올림
올린
올리고
왜캐
왜일까
요세
욕나오네
우상
우에노
운전
울린
웃은
웃을수
웅얼
워쇼스키
원스
위에서
유진
유감
유투
윤리
이고
이긴
이었다
이처럼
인시디어스
입술
있으니까
작년에
잘보
잘해요
장군
장점을
재조
저에겐
적을
전미
전용
전주
절때
절실히
젊음
정선
정윤
제맛
제격
제길
제국주의
제점수는
조셉
좋겟다
죄가
주문
주로
주위
주네요
주겠다
주려다가
죽어라
죽어가는
중심이
줘야지
지향
진출
질을
짱깨
쪽바리
쭈욱
쯔쯔
차분한
참아
초대
초심을
초대박
초저예산
총각
최정
추모
출품
취해
취권
치중
카드
코폴
코스트너
키이라
태도
토비
토나온다
토요일
톡톡
투자를
트로
특색
틀린
파이트
팔아
패배
팬들
팬텀
팬심으로
페넬
포레스트
표한다
푹빠
피에
피어스
하울
하신
하락
하자면
한것
한사람의
할로
할줄
할뿐
할수가
해본
해맑
해주고
헌터
현상
혈압
협박
홀리
화신
회자
회를
흐를
흔들어
흘렸다
흘리게
힘으로
##사이의
##이치
##이것도
##이드라마
##은채
##은왜
##아파
##아역
##아픔
##대충
##지다니
##말지
##말자
##고향
##로소
##로워
##자극
##자본
##가까
##라클
##라운드
##즈미
##들에겐
##리뷰
##적을
##인기
##야하는
##기게
##와도
##방이
##방영
##방학
##보자고
##카드
##게없다
##우는데
##나보네
##국가
##니와
##해가
##해보이
##안이
##던것
##같으면
##영활
##화의
##화된
##연속
##다들
##어려
##하랴
##있었음
##을정도
##류에
##의로
##극에
##것네
##포함
##르륵
##노동
##구멍
##데서
##선은
##쓰렉
##거고
##거도
##거라는
##긴하다
##받았다
##본능
##녀다
##았냐
##상에서
##져있는
##소개
##팬이지만
##혀있는
##공룡
##테잎
##부에서
##부리는
##수술
##교를
##일줄은
##모션
##마무
##마져
##마누라
##겠소
##짱임
##급을
##태의
##잘함
##세영
##세를
##ive
##좀해라
##생김
##경은
##비밀
##제라블
##레가
##레의
##레비
##주길
##주네요
##통쾌
##치로
##형님의
##할머니
##민정
##민족
##티의
##티스트
##감만
##개월
##개막장
##졌다는
##네ㅡㅡ
##좋다고
##좋았고
##반대
##투자
##투표
##력으로
##up
##tr
##엇고
##엇습니다
##엇으면
##분히
##잇음
##잇어요
##GM
##1편
##1년도
##텐츠
##죽겠다
##뻔했네
##탄이
##타인
##추고
##2편
##갔음
##익스피
##약간
##두가
##였군
##맨을
##답고
##ep
##희도
##료로
##씬의
##씬과
##뭐임
##크게
##크라이
##월에
##끝날
##끝나서
##새키
##베일
##베스트
##호를
##셨네요
##매일
##종이
##6점
##6년에
##듣는
##삼아
##알렌
##클리
##십쇼
##폐지
##돼서
##회사
##회에서
##누님
##앵글
##둘이
##넘들
##됐음
##됐어요
##났지만
##났네요
##팀이
##50
##cc
##댄다
##UT
##쯤에
##뮤지컬
##쁩니다
##팩트
##짬뽕
##밴드
##넨버그
##칩니다
영화니
영화엔
영화광
영화이고
영화보기
영화치고는
너무심
너무많이
재미지
재밌는거
재밌을듯
진짜잼
진짜너무
진짜재미없다
연기변
평점왜이
평점왜이래
이런저런
감동있는
보고나
##이라는데
드라마와
드라마틱한
10000
사람이나
사람에겐
감독들
##면서요
만들자
만들던가
재미없었는데
재미없더라
사랑스럽
사랑스러워
보는느낌
ㅋㅋ진짜
시간대
좋아도
좋아해
이거볼
내가슴
완전감동
##지는영화
액션영화는
액션영화의
없는가
없는거야
기대할게요
##하지못한
좋았다고
하나만으로
처음인
처음인듯
한국말
한국에선
한국공포
나오던데
최악인
최악으로
10점이지
별로에요
##이나서
그래야
명작이라는
##있는듯
이야기다
기억나
아이엠
아이에게
이영화도
괜찮았지만
주인공에게
만든듯
만든건가
일본인이
공포에
보여줘야
유치했다
결말로
##사람이라면
볼만하네
몰입할
소재나
이상해서
##하기위해
반전이다
OO이
보기를
보기싫다
원작으로
원작이랑
영상만
솔직하고
많은지
많은생각을
##지마시길
필요함
이제훈
이제까지
이제부터
이제라도
추천하는
##나오게
모두의
코미디에
실망했음
공감되고
가족에
가족이랑
##나라의
이걸왜
##주고싶은
개봉전
나온영화
아쉽게
##생각도
스릴러로
기분좋아
막장에
막장영화
막장이다
봐야합니다
그러면서
정신없는
웃기네요
시작하고
나왔다는
왜이제
보고싶지
##ㅡㅡㅡㅡ
세상엔
##이상하고
감정은
모르겠어
보게됬는데
살아라
영화로는
##이네여
만화의
언제부터
안되면
사실적이고
##해야겠다
##고싶어서
관객들은
관객들에게
허접하게
엔딩을
시나리오의
부분들이
다큐영화
슬프지
이딴것도
힘들었음
들어와
들어갈
킬링타임으로
코믹요소
만들었어
캐스팅을
##한거냐
주연급
주연배우의
지루하다는
충격적이고
옛날엔
##사랑이
##사랑해
##감동적이고
따라가지
중국산
##작품을
감사하게
그만해라
상상이
재밌음ㅋㅋ
실화라
CG로
이름은
이름도
194
다음날
전체적
있을뿐
단순하게
2004
2005
2007년
##시절이
귀엽네
여배우도
잘봤네요
존재의
좋은데요
두번다시
영화임에도
예상을
##할때는
그녀들의
방송을
머리속에
질질짜
재미없는건
의도로
끝나기
##하니깐
영화보다도
그때가
보여주기
보여주려
한편으로
황당하고
자극적이
몰랐네
시절에
망작이
유명해서
여전사
선택은
괜히봤다
아빠를
죽음에
안나지만
##하긴하지만
##하긴한데
후반부가
귀신은
저질영화
가능성이
해야할
대한민국에서
3점도
연출력과
나쁘지않
##따위는
대작이
바라본
영원하라
##영화로는
되어가는
전작보다
흘러간다
요소들이
관계에
노력하는
15년
못보겠네
못보겠음
우울증
아프게
만들었다고
##짜증남
철학을
성장하는
예전부터
게임이
게임의
미래에서
그랬어
인상깊었던
cg는
##세계를
느낀게
블랙코메디
이기적이고
끝나고도
스트립
라이토
다큐멘타
동물농
올라갈
상처가
보시라
##인간들
폭력을
##무비의
소장가치
##안되서
등장인물이
영환지
영환줄
10분만에
해피엔딩이라
그립습니다
반성하게
설레고
설레게
표정과
산만함
비주얼은
##꿀잼꿀잼
드러내는
##보여준
무시한
오랫만
연기자들도
##ade
대표적
밋밋하다
고통과
##버리면
##나이더
망쳐놓은
타임킬링
편견이
7점대가
초등학생이
유치함의
학생들이
##영화라지만
교육용
일품이다
##영환지
영화제작
똑같네
시즌2는
세련되고
풍경과
감흥도
보여줬던
##상황이
남자주인공이
동성애를
작위적
##노래도
여러가지를
위로를
결정적인
짜임새가
제외하고
제외하고는
정확하게
이드라마는
평점조작
별반개
##생활을
열받아
부모님께
볼때는
##아쉽지만
누군가에겐
##짱짱맨
##한국영화
개념이
영화같네요
영화같아요
다섯손가락
자세한
1인2역
감안하면
##어이없네
점수는요
위대함을
장진영
케릭터가
망가진
바이올린
선정적인
짐캐리의
어리버리
리얼리티가
정상적인
아파서
##아빠가
that
일으킨
밑도끝도
##어디가
아이디어는
엘리자
질리지않는
장난치나
섬뜩한
시켜서
##비에르
현실적이어서
방향을
별한개
안녕하세요
클로이
그럴듯하게
절대보지마세요
##추억이
2014년에
귀찮아서
소소하고
러셀크
##시네마
반응이
줄리아로버츠
1점준것중
자리에서
파고드는
구지성
덴젤워싱턴
##이뻐서
내세운
어딜봐서
밀라요
글로리아
토끼를
##봤을땐
##흥미진진
비롯한
크로넨버그
기념비
김소연
온몸에
레즈비언
삽입곡
아일랜드
열린결말
잘나가다가
##카메라
김동완
끝냈어야
아야세
후유증
##ife
구로사와
나홀로집에
상식적으로
##ally
어줍잖은
파란만
웬만해선
전무후무
트라우
우마서
단언컨데
금성무
이문식
못난이
샤말란
소오름
1박2일
스캔들
송중기
재활용
제라드
명백한
서커스
주진모
꼬박꼬박
발버둥
성냥팔이
오마이갓
##본방사수
리처드
시한부
아청법
##사아자차
고군분투
시궁창
알콩달
할로윈
0개
000
1명
1보다
1순위
5가
92
911
But
CF
NO
XX
al
sn
ww
ㅇㅅㅇ
가지가
간의
갇힌
갈팡
강용석
같지도
같으면서도
개신
개소름
개구리
거꾸로
겠다
경비
경주
경쾌
고르는
고평가
골드
과분
관광
교수
구해서
구성을
국회의
굴곡
굿이다
굿입니다
귀를
그에게
극우
극으로
기능
길지만
김해
김고은
까지는
끝에서
나대
나게
나치
나라도
나약한
날리고
남우주연
내다
내마음
너에게
네요
논란
놀라서
놈놈
높을
높여
눈살
눈알
다다
다있어
다코타
닥쳐
단점은
단막극
달인
달리고
달린다
답게
답이다
답없는
당첨
당했다
당할수
대세
대조
대답
더블
독고
돈의
되었고
될것이다
두배우
두배우의
뒤쳐
들리는
들여서
디스
뚱뚱
레고
레니
로즈
루이스
릴리
마누
마다가
많아요
말야
말것
말곤
말기를
말해야
맘대로
맛없는
망신
맞춤
맥주
맥아담
맴버
멋잇다
멍하니
메디
멕시코
명의
명탐정
모조
못합니다
못하면서
못봐서
못했고
못만드나
무능
문어
물에
물음
뭐든지
뮤비
미카
믿음이
밉상
밑바닥
바른
바닷
박성
박근
발킬
발상은
밥을
배웠습니다
백진
벗은
베테랑
변한
별개로
보리
보이네
보너스
복고
본건지
본사람이
볼건
봣네요
부셔
붙어
브루
블러드
비상
비운의
뽀뽀
사촌
사뭇
살게
살림
살리고
삶이란
상어가
색감과
생물
생명의
설리
성에
소박
소박한
손잡고
송일
수상
수잔
수긍
수있는
순식
스님
스물
스튜
스머프
슬펏
시장
식겁
신랄
실수를
싫고
심쿵
심하고
십분
싱크
싶지도
싶으나
싶었나
써서
썼으면
쓰리
씁니다
아웅
안아
안대
안소니
않으면서
않으며
알고싶
애뜻
애기가
애정이
애쓰는
야수
야하다
약속
어거
에라
에밀리
여균
여성을
여학생
역동
역의
예비
오연
왜그랬
외노
외전
외설
요거
용가
용기에
용기가
우유
웃지
웃었던
유재
의심이
이말
이니
이의
이럼
이어가
이보영
이세상
일에
임요
있단
있군요
자가
자동
자화
작성
잘해야
잘나타
장학
장모
잼슴
잼나는
쟁쟁
저두
저번에
전후
전해주는
절실
정무
정교
정크
정녕
정점을
제타
조종
조화를
존트라
졸다
졸귀
종이
좋구요
좋을텐데
주름
주걸륜
죽었는데
줄수가
중이
중화
중에서는
지혜
지지부
진상
징기스
짜게
짜장면
쩔음
쩔어요
찍었
찍으면
차가
참된
책의
책으로도
책임을
챔피언
처벌
천장
첨보네
초보
총집
치킨
친척
친근
카펜터
코너
콜라
콧물
크레
타겟
타격
탐크루즈
토모
통일
통제
통속
튀는
특촬
판에
판빙빙
팔레
편협
포근
폭소
표방
표합니다
퓨전
프란
피는
하기도
하더라도
한일
한창
한켠
한고은
해바
해냈
했냐
했는가
허락
헌신
헤매
헬기
호주
혼합
홍석천
화만
화제
후하다
흐믓
흘리며
희열
힐러리
힘도
##사서
##이너무
##이영화를
##아를
##아닙
##아팠
##아가는
##아이는
##대본
##대해서
##지난
##지덕
##지르는
##말라
##말투
##고래
##문화가
##장구
##장과
##면에
##면에서는
##만화를
##으으
##으시면
##바랍니다
##자유
##자동차
##가휘
##리니
##리그
##리우드
##인대
##기기
##기간
##기물
##기들이
##드그
##드럽게
##드래곤
##도아닌
##한드라마
##보인
##보기에
##카와
##카타
##웃기다
##내다
##에피
##에플렉
##했군
##했으며
##더냐
##더이다
##해결
##안다
##안을
##그룹
##같았음
##영상을
##채플린
##다만
##다닌
##빠다
##없었는데
##어진다
##하도
##하셧
##하더만
##미랑
##있다가
##있구나
##있다니
##있을때
##있으니
##있었고
##무술
##겨진
##키고
##노가
##노라
##노의
##구들
##구마
##었기에
##었더라면
##선으로
##위의
##전부
##움직
##잼있게
##거가
##렸다는
##렸을때
##단체
##받는다
##루요
##루의
##당당
##본적
##질로
##질팡
##시리
##시한
##시트콤
##학원
##공연
##줄도
##일단
##행동
##모자
##모험
##모호
##마와
##마미
##디아
##디도
##심리
##싶음
##짱이다
##터져
##터를
##버젼
##림의
##코를
##코스트너
##발음
##퍼의
##퍼센트
##태가
##꼭봐야
##잘해
##잘하는
##봤다면
##레알
##토를
##예상
##주년
##통해
##통하는
##청춘
##청소년
##배로
##형님이
##각을
##볼라
##되기
##되며
##되나요
##졌을
##겟는데
##함ㅋ
##함이란
##정훈
##좋을
##좋지만
##풍의
##러가
##러진
##평범
##투더
##계는
##ur
##조가
##조합
##짜리가
##담이
##1을
##최강
##덕이
##타기
##격투
##낮다
##2도
##살짝
##성상
##렀다
##목숨
##겁나
##약을
##중에서도
##효과는
##식당
##달고
##달려
##랐는데
##짓거리
##na
##뜨리는
##희망
##역활
##ye
##틀어서
##씬에
##랜드의
##업이
##못할
##베가
##매매
##매력이
##종을
##듣기
##먹는다
##먹어라
##읽어
##패닝
##밀라
##왕자
##불러
##흥행
##될수
##7년에
##ks
##ke
##났으면
##풀어
##침몰
##wo
##way
##PD
##맘대로
##몬드
##혔다
##겻다
영화ㅋ
영화들의
영화ㅋㅋㅋ
영화수준
영화일까
영화만드는
영화인가요
영화시작
너무지루
너무좋음
너무재미있어요
너무높다
재미라도
재밌더라
재밌네여
연기진짜
연기실력
생각없는
##들이고
감동이나
감동있고
보고있으면
지루했는데
##었다니
배우님
배우진
10살
내용까지
내용인지도
아니여
아니었나
감독이랑
감독새끼
만들었어요
만들지마라
재미없던
쓰레기중에
사랑한
다시보니까
좋은게
좋은영화가
좋아했
##보고또
작품이네요
작품이었다
작품이라니
액션신이
액션마저
처음인데
지금와서
##없는듯
나오던
##적이게
##적이면서도
이렇게밖에
1점줄
하는건가
별로라고
아깝군
이해하는
##한다니
##했다니
기억안
기억으로
기억에서
아이덴티티
여자배우
##주는영화
##지도록
일본어
같은거
##배우들도
볼만했지만
몰입하고
이상이다
##하기를
남자배우가
반전으로
OO들
매력적으로
눈물까지
애니도
##니까요
##인지를
음악영화
인생이란
영상의
전개나
##너무나
만들어놓은
모든것
##지마시고
아름다울
하고는
##재밌었어요
##재밌는영화
수준에
수준떨어
전혀없고
재밋엇음
추천으로
코미디물
실망도
긴장도
공감하고
##했던영화
개봉한지
봤다만
대단했다
##이지난
재밌다ㅋㅋㅋ
어이없이
표현은
진심이
잼있었는데
요즘같은
모습으로
스릴러라고
보다말
떨어졌다
아쉬웠
막장스토리
느껴집니다
알바는
그러네요
미국을
부족해
정신적
웃기게
1편보고
작가와
##아니냐
시작을
시작과
나왔어요
나왔다면
##만한게
보고싶다면
##0년대에
##00만
##이상함
감정들
뻔한결말
여운이남는
그저그랬
살아나는
의미에서
장난이냐
무엇하나
느끼며
괜찮은듯
어린애들
친구는
친구들과
##더니만
행복이
무서웠는데
점수다
사실이다
영화였고
엔딩에서
자신들의
배경에
배경의
부분만
지루함은
영화관이
유쾌함
못한영화
진정성이
문제지만
예술성
예술적인
진부함
포스터와
킬링타임으로도
코믹연기
찾아보고
더빙으로
주제의식
지나지
지나가
미친놈
##사랑이야기
##한영화다
불쌍하게
감동적이지도
감동적이었고
따라올
여기선
나올듯
뛰어나고
감사한다
##것같지만
엉성하게
실화바탕
알고있는
알고보면
로맨스로
로맨스물
로맨스영화
얼굴과
프로가
비슷함
195
다음주
발연기와
##느낌은
비교해서
알았으면
이미연
2002
##겠지요
##재밋고
여배우들의
알게됨
##나온다고
마이크
##보기로
독특하게
좋겠네
맘에듬
당신에게
잘못을
##필요없고
각본에
소설은
예상이
이번주
어른들의
실제로도
하다못해
여주도
기다릴
기다리며
멋있었어요
방송에서
볼수있다
평범하지
시청률을
상영을
누구든
100번
의도한
케이온
전형적
너무너무너무
중요성을
중요한지
프랑스의
있었다는
댓글에
생각해보니
생각해본다
순간을
식상함
황당하다
훈훈하게
하게하는
분위기나
어쩔수없는
안타까웠다
몰랐음
엉망이다
소중함
##영화중하나
멍청하게
아빠랑
결혼을
그림체가
희망한다
비추입니다
##여자를
내인생최고의영화
전편과
예고편을
웃긴건
앞으로는
##이런거
사라졌다
3점짜리
##따위로
신기함
이래도
나라에
아프네요
속편을
어렸을때는
##짜증나서
##아먹는
해피앤딩
##하겠는가
아닐까요
케이블로
남아있다
환상적이다
##지못하는
8점정도
자유와
자유로운
7점이나
##해주면
##명작이다
군대를
그랬음
젊은이들의
미소짓게
취향에
##새끼들은
아저씨의
해주는거
역할은
역할에
이하늬
예쁜데
종교적
난해하고
동물의
불쾌하고
불쾌했다
올라갈때
10년만에
북한이
부터가
흐름도
##으로서의
보이려고
상상력은
상상력과
국민이
국민학교
##버렸어
선생님의
쓰래기영화
홍보영화
##관계가
일반인이
싶어하는
견자단의
13일의
우주에
##만점에
남겨진
때문이
영국식
상업적
끝난후
명품드라마
외모지상
찝찝하고
아역배우
로봇이
갈등이
##만드냐
겨울에
문화적
문화의
아줌마가
코난은
미모는
허세만
방법을
영혼의
쓰레기같은영화
전설의고향
주성치가
주성치의
##아주아주
악마를
욕망의
##사이에
##비디오로
보통의
봤을때도
그당시에
그당시엔
##상황에
올리비아
##문제를
다이아
다이빙
비밀을
야구를
양심적으로
무한반복
지났는데도
스페셜
스페이스
부실하고
인상적이네요
크리스마스에
아내의
울컥했다
안된다고
애기들
스티븐시걸
시끄러워서
두번째로
애매모호
이소룡의
##귀여움
다섯개
잊혀지질
잊혀지지않는
극단적
극단적으로
이해할수없는
맞춰서
자랑스럽다
영화이긴
6점대는
여친이
여친이랑
기억나는건
루즈한
망가지는
바이러스
꼭보셈
장동민
어리석은
유행어
집어치
정상인
예수님
벗어날
벗어난
매끄럽게
짜릿한
아니었다면
담담한
부자연스럽고
##볼만함
엔딩크레딧이
단체관람
##질질끌
오페라의
경악을
거듭할수록
로멘스
평론가는
고양이가
박정희
노튼의
##CGV
미치는줄
색깔이
쥐어짜는
하지마루요
별1개
우아한
아끼는
되도않는
##oooooooo
##OOOOOOOO
알렉산
찰리채플린
곱씹어
냉정하게
이경영
진작에
죽을때까지
황홀한
불친절한
어지간하면
멜깁슨
믿겨지지
배틀로얄
돌이켜
안목이
원초적
##개연성
끝내주게
140자
김규리
박용우
선입견을
배두나
비긴어게
blog
이명박
장백지
콜린퍼스
미성년자
디지털
야마카시
홍경인
21세기에
쥬라기공원
리부트
오리엔
공각기동대
비둘기
허우적
브리짓
쓰잘데기
잘짜여진
피노키오
자이언
어렴풋이
번지르르
오션스
레미제라블
오광록
알콩달콩
www
갈팡질팡
마다가스카
발킬머
징기스칸
2를
2분
2등
2월
2점대
33
4회
5편
6년
BGM
CS
Ost
SN
as
an
br
gg
im
ok
time
ㅜㅜㅜㅜ
ㅠㅠㅠㅠㅠㅠㅠㅠㅠ
가는게
각종
감도
갔던
개를
개밥
거지만
거라고
검술
것이라고
것만으로
겪은
결여
경고
계몽
고른
고아라
과소
과감한
곽경
관음
관념
광대
구할수
굴러
굿잡
굿닥터
그날
그리는
기세
긴박한
김청
김새
김준호
꼬아
꾸미
꾸르
꿈은
나로
나영
나만의
나니아
난도
낡은
남았
남여
남매의
낫네요
낭패
낮다니
낮추기
내생각
내나이
너가
노랑
노르
높길래
놓치고
눈의
눈깔
늙어서
다스
다수
다뤘
다있나
단독
단점이
달래
닭살
닮아서
답지
당하기만
대명
더글
던지고
돈받고
돈들여
돌파
동기
동성
되돌
되었을
될거
될수도
뒤를
드류
드려요
듯이
따윈
딱이다
떠들어
떳떳
똘끼
똘똘
똥이다
뜨거
띄엄
라인
라푼
러시
레지던
롤러
리듬
마인
마스크
만땅
만점이
많았으면
말한
말로는
말하자면
망칠
맥이
머금
머저리
멋대로
메르
메마른
몇명
몇OO
몇년전
모모
모름
목이
목사님
몸개그
못믿
못참
못하냐
못느끼
못만든다
무사
무신
무법
무능한
묻힌
뭐하고
미로
미쿡
믹스
민호
바디
바를
바꼈
바뀔
바라고
바스코
바래요
반은
반데
반점
반했다
발달
발칙
밥도
배끼
버킷
버렸네
베플
베꼈
변화가
변해가는
별두개
보영
보냈
보지는
보아서
보이게
보신분들
본래
본성
본좌
봐봐
봤었음
봤구요
부들
부르고
분이라면
불협
브레드
비웃
비평
비겁
비로소
빙의
빛나
빠지다
빵점은
뻣뻣
뿌리
사채
살아서
살인이
살인의
상기
상위
생의
생산
생명을
샤크
서툰
설교
세뇌
소모
소란
소망
속으로
속에서도
속지마세요
솜씨
수지
수녀
수행
수능
수OO
숭고한
습격
시티
식민
신사
신중
싫어요
심도
싶어도
썰전
썸머
쓰냐
씨지
아라
아씨
아껴
아싸
악령
안구
안할
안올
안하면
안했지만
안했으면
앙상
야한거
약하지만
양념
양들의
양심이
얘기는
어후
어머
없을때
없었나
없을까요
에미
여긴
여기가
영감을
옆집
예외
오면
오시
오현
왔음
왕의
왜만든
왜만드는
요괴
욕은
욕구
우수
운지
웃었어요
워터
원인
원본
원영의
월화
유기
유괴
으리가
은혜
은지원
이따
이진
이청
이익
이창
이불
이득
이들은
이OO
이시대에
이세상에
인천
인지도
일장
일류
일병
일대기
읽는다
임상
입양
잇고
있기
있기를
있던가
잊어
자다
잔상이
잘했
잘알
잘한듯
잘해주
잘했다는
잡혀
잡았다
장식
장점이
재구성
잼께
저걸
저냥
전사
전직
전부터
전우치
절규
절묘
정려
정수
제리
조진
조형
존엄
졸리다
졸음이
주인
주다
주무
주된
주유
죽겠다
죽이지
죽이기
줄도
줄어
지만
지르
지웠다
지린다
집으로
짓밟
짙게
짠하네요
찌꺼
찍었나
찍었는지
찍었냐
찡하다
찡하게
차예
참담
찾을수
천하
천원
첩혈
초짜
초록
초중
추악
춤출
치즈
카이
카모
코넬
크림
큽니다
탄압
탈북
탑3
탕웨
태평
탱고
터널
턱없이
테론
테마
투입
투쟁
파는
파탄
팬들이
팬으로써
편지
편성
편승
편이지만
펼치는
평에
폐해
폭격
폭망
푹빠져
풀리는
프라
피만
피트
하려
하지도
하자는
하겠습니다
하비에르
학대
한스
한판
한명이
할정도로
할아버지가
햄버
했나요
행오버
헤이
현우
현란한
화살
화나서
화딱지
확장
횡설수
훨신
흐미
흐트
흑형
##이것
##이던데
##아비
##대원
##대왕
##대는거
##지긋
##고기
##때려
##때리고
##장히
##으시
##로움
##바에
##바를
##자룡
##자라는
##프라
##프를
##리자
##인애
##인디
##드려
##드는데
##한이
##보군
##보지만
##보겠다
##보기가
##스민
##스텝
##카다
##내리는
##우와
##우어
##나여
##나음
##나봐
##니는
##에비
##봉이
##했으니
##안은
##안고
##안한
##안맞
##안될
##안봄
##그거
##그루
##같으니
##연예
##히들
##오면
##오스
##오를
##오는데
##빠짐
##없나요
##어에
##어느
##하튼
##재림
##재를
##미한
##작으로
##작이라고
##류영화
##의식이
##품달
##포가
##르트
##르신
##었는
##었을듯
##위안에
##전으로
##전까지
##3D
##범인
##셔널
##쓰나
##쓰는거
##잼씀
##엿는데
##간데
##ㅋㄱ
##ㅋㅎ
##거늘
##거슬
##거예요
##렸을
##긴처음
##차는
##루치
##본후
##남은
##녀를
##상처
##시끄
##시는지
##소중
##소린지
##팬이라
##놓으면
##막장이
##0억
##애서
##학적
##집을
##부활
##갈등
##수만
##교훈
##멋있다
##일기
##여친
##모리
##모어
##마을
##마루
##마마
##디는
##겠단
##겠구만
##싶어서
##잖어
##급이다
##태를
##세끼
##물론
##비도
##ly
##주신
##배가
##할땐
##민수
##티나
##티시즘
##되다
##되지않
##린다고
##졌다고
##네이버
##쉬튼
##정권
##파워
##좋겠네요
##뿐더러
##러기
##9년에
##엇지
##분동안
##분짜리
##잇게
##점이다
##담을
##맛을
##씨리즈
##피식
##낮게
##친다는
##29
##붕괴
##살짜리
##갔던
##갔다가
##성우가
##ㅓㅓ
##끼리의
##중입니다
##길동
##였어도
##망상
##망신
##능력이
##맨의
##응원
##ell
##뜨린
##앞으로
##ㅡㅠ
##브레이
##초월
##80
##체능
##크릿
##크리스
##끝난
##새가
##호프
##43
##매한
##활동
##결과
##락으로
##놈에
##알았다
##절정
##표가
##표를
##돼는
##회는
##별이
##DB
##써라
##써도
##참다
##좌왕
##승천
##헤이
##둘다
##넘은
##꺼는
##꺼라고
##꺼번에
##ER
##km
##쩔고
##쌍웅
##철한
##잡아
##산의
##랩스틱
##났을
##봣던
##봅시다
##됬으면
##찝찝
##눈물을
##픽션
##뛰어
##킨스
##검사
##홍철
##콧물
##힐링
##쟈게
##닼ㅋㅋ
##웟음
##툭튀
##튀는
##쿼터
##즉시
영화내
영화학
영화든
영화구만
영화만든
영화만의
영화속에서
영화감독이
영화끝나고
##영화나
너무해
너무잘
너무높
너무좋았다
재미지다
##하고있는
연기자가
연기하는거
##하는줄
최고급
최고였던
생각좀
생각하나
생각보단
스토리고
스토리상
스토리까지
보고왔는데
##이라며
배우나
배우인데
10초
재미있지도
내용이다
내용이랑
아니었지만
사람입니다
사람에게는
사람냄새
감독판
감독한테
만들지마
만들수있는
만들거면
재미없구만
쓰레기인
사랑하지
사랑이라고
사랑스럽게
사랑한다면
보는중
좋은건
좋아여
좋아했어요
이거랑
이거보면서
이거보느니
작품에서
액션배우
기대하면
하나요
이게뭐냐
최악인듯
##같은게
##적이었던
이해되지
이해못하는
##적으로는
명작이고
명작중에
이야기들이
아이템
여자분
만든게
만든건
보여주세요
무슨말
현실성을
몰입할수
다른데
이상해요
보기좋은
스릴을
스릴있는
매력있음
눈물만
눈물과
눈물짜
인생도
인생과
영상에
##재미로
인간들의
인간관계
정도를
만들어졌으면
##지않아요
##보는중
필요해
필요없네요
##재밌습니다
##다니엘
##0년도
배우들에게
추천할만한
아주그냥
대박이고
대박이에요
대단해요
나온지
어디에서
표현하지
##만들지
##만들면
##만들어서
##생각합니다
요즘영화
떨어집니다
아쉬웠어요
느껴져
그러냐
부족한듯
작가도
않는가
않는게
시작했다
보고싶어지는
훌륭합니다
영화라고는
출연작
감정선을
따뜻해지고
영화로서는
초반부는
##해야할듯
##고싶어요
되는영화
이해가안되
엔딩에
##내용에
재미가없
자신에
어색해
슬프지도
힘들었던
시대착오
##아깝고
예술은
예술의
함께하는
있었네
애니메이션으로
설정만
주연배우들의
아름답지만
##라이프
충격이다
어느덧
집중하면서
궁금증
말도안되게
2편의
나올때마다
감사를
대체로
엉성하기
##수있게
##수있을까
실화가
감동도있고
로맨스는
비슷비슷
있을지도
티비서
초딩용
이미지를
2003
2006년
없어지고
성룡을
알게해줬다
화려함
화려하게
##수준이다
존재는
존재감이
독특하다
##전개와
맘에안
두번보세요
두번봐라
##재미있어
각본도
##인생을
##한번더
세계적인
예상가능한
ㅋㅋㅋㅋㅋㅋㅋㅋㅋㅋㅋㅋㅋㅋㅋㅋ
자연을
자연과
자기네
이영화를보고
멜로도
##액션을
기다리
##하자나
어쩌다가
봐서는
그녀에게
머리속에서
평범하고
평범하다
판타지의
판타지영화
개그가
개그콘서트
낮은거
뭐냐고
즐거움을
화면과
평론가들의
##아이들이
감성은
댓글들
댓글도
댓글을
댓글보고
홍콩식
황당무
사이프리
잘만들었어요
돋보였다
##하지도않
과거가
만족합니다
불륜에
안타까웠던
먹먹하게
카메오
소중히
끝내지
여전한
선택의
아빠는
결혼에
##사회에
자꾸만
희망은
비추합니다
안보신분들
##여자랑
##여자는
독립영화가
전설이다
저질이다
이러고
예고편은
병맛같은
로맨틱한
로맨틱코메디
감상하고
웃긴영화
복수의
별루고
앞으로가
##이런영화가
연출력은
연출력의
느끼게해준
바람을
중반이후
##영화로써
다운받은
다행히
촬영한
허술함
재밌어여
부모의
마무리도
속편의
만들었다는
누군가는
예전에는
경찰을
##처음으로
제작비로
제작비를
안나오네요
이어지
저예산영화
하루카
하루를
가끔은
화가나는
제작진들
고민하게
아저씨는
슈퍼스타
평생을
더이상의
##시켜서
##시켜주는
사극을
##추천합니다
##재밌게봤는데
##재밌게봤다
##재밌게봤어요
연예인들
##해보인다
시원찮
용서할
일어나고
##최고의드라마
표절작
소녀들의
재난영화의
그지없는
폭력의
놀랍네요
올해본
그렇다쳐도
채널에서
##ang
부끄러워
부끄럽지
보러갔는데
강렬하게
디즈니의
스케일은
비극적
출연진이
통쾌하고
통쾌하다
헐리우드식
무시하는
역겨움
역겨워
눈빛은
##이니깐
홍보가
돈아까워서
이해할수가
어머니가
남편을
##무섭고
주변에서
##나왔음
설마설마
세월을
##ation
갈등을
놀랐어요
결과를
무비의
박진영
7점대는
기술이
지겨움
본영화인데
이정진
##왜이렇게
김수미
정의가
##영환가
챙겨보고
ㄷㄷㄷㄷ
달라진
악마의
착한척
##사이에서
아까울뿐
대해서도
할리웃
보여줬으면
대본을
미스터빈
받을만한
낚시질
다이애
다루고
짝이없는
##res
sf영화
연기잘하고
짜임새있는
시즌1은
시즌1부터
안습이다
##얼굴이
##관람불가
##하고자하는
언젠간
생활을
##zzz
사투리가
김혜수의
돌아가신
따분하고
보지말것
주윤발이
호구로
##아쉽네요
재밌다는건지
해리포터는
내게는
##123
C급영화
특수효과가
감안하더라도
난잡하고
##죽는줄알았다
장국영의
남기는데
정보석
##아쉬워요
만화책을
중독성
##몰입이
##몰입도
줄리안
관련된
부정적인
원조격
객관적인
명장면이다
사무엘
안어울림
절망적인
고뇌와
소화해
일으키는
좋앗다
엘리베이터
황정음
머릿속을
알파치노의
우디알렌
한순간에
##선택을
##으리라
##00원주고
장난치냐
차승원의
아기자기하고
브라질
연상케
우왕좌왕
입장에선
니콜라스케
만들어주셔서
떨어뜨린다
파워레인져
안보는걸
위트있는
심리묘사
공허한
발음도
버무려진
브로스넌
왕가위의
일어나지
##주고싶은데
이태임
부끄러운줄
데미무
목적을
이뻤다
다큐멘터리가
시간때우기용
김선아
멈추지
예뻤다
노골적인
무색하게
우롱하는
미키루
휴먼드라마
##구구구구
무관심
싸울때
철저하게
살아남은
거창한
불러일으키는
상투적인
속도감
쌩뚱맞은
경이로운
소리지르
##야야야야
돌고래
흘렀다
있어보이려고
고정관념
믿겨지
참다참다
##리의리의리의리의리의리의리의리의
1화부터
미사일
일방적인
##★☆★☆★☆★☆★☆★☆★☆★☆
간절히
뚜렷한
조디포스터
톰행크스
썩어빠진
애썼다
유전자
##누군지
어드벤처
필모그래
해병대
과감히
글래디에이터
서태지
치닫는
슈퍼액션에서
삼천포로
자빠졌네
제주도
조한선
조미료
맷데이먼
삼각관계
저능아
##해피엔딩
드라큐라
김아중
서동요
실베스타
오정세
주저없이
머리카락
강소라
교도소
김원효
보람이
쌍벽을
전두환
지긋지긋
노트북
이뭐병
최곤데
##크레더블
아오이유우
가나다라마바사아자차
센세이션
오컬트
##군다나
넘사벽
비노쉬
스웨덴
페넬로페
러셀크로우
개신교
순식간에
여균동
존트라볼타
팔레스타
해바라기
##지덕지
오리엔탈
곽경택
라푼젤
레지던트
앙상블
차예련
첩혈쌍웅
카모메
횡설수설
04
2주
3가
4편은
4차원
58
8년
8점을
9살
99년
9점이상
BE
OUT
ex
great
kt
with
가면서
간만
갈피를
감춰진
갑툭튀
강풀
같다고
개는
개낚
개같이
개유치
갠찬
거저
거장이
걸쳐
걸친
겪어
경상도
계기로
고갈
고대로
골라서
공영
공상과
과제
과정은
광팬이
구스
구해
구속
국정
군사
궁굼
그분
그들에게
그렸다
급작
기울
기간
기운
기립
기묘
기네스
김승
김흥
김정화
김효진
김인권
깜빡
꼽힐
꼽는다
꾸는
꾹참고
끊이지
끊기고
끝에는
끼고
끼리
나았
나뉜
나더라
나한텐
나로써는
날림
남겼
남에게
낫지만
낮고
낳고
내서
내적
내심
내친구
내이름
넋을
넓은
넘치게
넣지
노홍철
놓을
눈앞에
늙었다
니키
니들도
다임
다투
단단
닮았
닮았다
대상이
대가리
댄서
더운
더락
더스틴
덤덤
도그
도를
도끼
도달
도쿄
돈좀
돌림
돌리다가
동거
동반
돼서
됐음
됐습니다
되다
두사람의
둘은
듬뿍
따져
땀이
떼지
또라
뜻밖의
라이트
랄프
레슬리
레슬링
로저
로미오
루크
류현
리모
리딕
마나
마네
마인드
막내
막을
많았음
많았고
말하는데
망하고
맞네
맞는데
맞습니다
매염
맥그리
맹목
맹탕
머물
먹방
먹어라
멋졌어요
명목
몇십
모음
몰두
몰아서
몸은
몸으로
몹시
못이
못말
못봤지만
무장
무진
무용
무분
무인도
무쟈게
묻고
묻어나
물이
물려
뭐이딴
뭔소리
미생
밀고
박력
박살
박희
밖엔
발라
방울
배용
배워
백퍼
변해
별2
별5
별생각없이
별다섯
보드
보입니다
보더라도
복원
본성을
본거라
볼라
볼륨
볼라고
볼가치가
봐선
봐왔지만
봣습니다
부적
부도
부당
부유
부수고
분들만
불평
블레
비장
비꼬
비우고
빙자한
빠졌다
빠지면
빨고
뻔할
뻥튀
뼈저
뿌듯
뿌린
사사
사는데
살면
살펴
상품
상속
상대로
상남자
상대가
생긴다
서기
서늘
서유리
성준
성취
성범죄
세탁
세심한
소이
소위
소수의
송희
수없이
쉴드
슬랩스틱
시갈
시급
시계
시답
신문
신나
신유
신나고
실버
싫으면
싫은데
심취
심정을
십대
쓰라고
쓰는지
씨의
씩씩
아하
아려
아네
아슬
아멘
아찔
아들도
안먹
안보게
안봅니다
않기
않을듯
알던
알지도
알모도
암만
암시
암흑
애들과
애슐리
액숀
앤드류
앨런
야만
야하지
얕은
어눌
어땟
얻고
얻는
얼렁
얽힌
엄지
없기
없었어요
에게
엠씨
역설
영리
영애씨
예체능
오달
오호
오케
오묘한
오스카
온데
온전히
올랐
와이
왜봤지
요샌
욕심을
우연이
울었네
웃었습니다
웃었네요
워커
원더
원시
원나잇
위노
위치
유동근
윤진
은주
음울
음미
의구
의사가
이방
이무
이는
이데
이룰
이만하면
이빠이
익살
인사
인거
인증
인기를
인류의
인크레더블
일인
일케
임무
있구만
있으면서
자국
자질
자리가
잘하는지
잠들어
잠오는
잤어요
재대로
잭블랙
저당시
저스틴
저리가라
적인
전현
전광
전하고
전적으로
전까지는
절묘하게
정소
정식
정적인
제프
제기
제압
제정신이
조은
종편
좆망
좋을까
주입
주룩
주몽
주었던
죽도
죽게
중경
중년의
줬을
지은
지렸다
지키는
진흙
질문을
짜깁
짱개
쫄딱
쬐금
찌르는
찍냐
찔끔
차에
찾으러
척하는
천정
천박한
천하의
초창
촌스러움
총쏘
최시원
추운
추가요
출시
출근
출생의
춤이
충돌
측면에서
치매
친절한
카지노
칼을
칼싸움
캠코
커다
컸던
케스팅
코끝이
콩은
쿵후
클릭
키운
탁재
탐정
탐험
터지고
테크
테잎
테이프
토렌
통수
투캅
투니버스
툭툭
툭하면
튀어나
트레
트릭
틀리
티격
티켓
파이터
패닝
팬입니다
편파
폐쇄
포드
포맷
피튀
픽사의
핑크
하두
하구만
하구요
하겠지만
한류
한잔
한껏
할짓
할수도
해가
해답
해줬으면
해품달
햇는데
했다가
허드
헤드
헤어지는
헨리
현대의
형님이
홀딱
홍성
황인
후아
후로
후의
훗날
흘려
히트맨
힘듦
##사노
##사나이
##이젠
##이였음
##아래
##아키
##아프다
##대사는
##말곤
##말하는
##문화를
##장대소
##으실
##으시길
##로지
##로니
##바도
##바엔
##자매
##자들에게
##가와
##라며
##리수
##리에서
##동원
##인터
##인증
##인격
##인에게
##인만큼
##인거야
##기랑
##드롬
##울때
##울까
##도없다
##한스토리
##한개도
##한다는게
##보아
##보기도
##보느라
##스테
##내시간
##게스트
##우지
##우리가
##나쁘
##니콜
##에에
##했니
##더와
##해본다
##안보
##안된
##안볼
##안가는
##안나오는
##같다고
##영원
##화한
##히면
##채로
##다행
##오네
##오네요
##오른다
##하십니다
##있나요
##을수록
##작인데
##작가는
##극혐
##극으로
##것으로
##것일까
##구한
##구름
##구절
##려지는
##었어야
##데드
##데없는
##선에서
##위거
##전엔
##과이어
##걸요
##엿습니다
##OP
##거만
##준다는
##차반
##받아라
##루만
##루야
##죄로
##본다고
##질주
##질까
##남의
##녀는
##애미
##애들도
##학을
##테이
##부실
##부랭
##줄만
##줄께
##섹시
##수사
##수면
##수와
##련지
##련만
##련한
##련다
##멋있고
##일날
##일줄이야
##여신
##여자의
##모독
##겠당
##림도
##코난
##코스터
##변태
##태어
##잘보고
##물과
##예쁜
##예전에
##주냐
##주러
##주룩
##주기가
##후에도
##통수를
##배운
##치는데
##치네요
##형의
##볼게
##볼땐
##볼라고
##티는
##되도
##되지도
##되었습니다
##되었지만
##린이
##까말까
##찬이
##네ㅋ
##파이팅
##쪽에
##좋습니다
##저래
##풍경
##운서
##반응
##ue
##ter
##조로
##조심
##조직
##분장
##잇어
##잇어서
##룩한
##현재
##현씨
##온나
##1발
##199
##찾고
##찾는
##머지
##죽임
##죽이기
##덕화
##타스틱
##SF
##살면서
##앗던
##앗음
##앗습니다
##성인
##성격
##성없는
##목이
##목소리가
##즐거
##중하나
##혜진
##두준
##식상
##망하고
##달달
##맨날
##유키
##강이
##딸을
##역은
##ace
##허다
##츠가
##찮게
##속도
##슬립
##ms
##업을
##크도
##못해서
##끝나는
##새1끼
##베르
##호호
##놈을
##괜히
##표절
##읽고
##캐릭
##뚱땅
##될수록
##7점
##싸이코
##kd
##멘터리
##산을
##순이
##겹게
##접한
##AM
##5점
##확실
##슈퍼
##힘을
##됬음
##높지
##쫄깃
##벌레
##ㅈㅈ
##혐오
##웟다
##잭슨
##맹숭
##됀다
##ㅏㅏ
##옆에서
##숭맹숭
영화과
영화속에
영화들에
영화답다
너무한거
너무재밌다
너무하잖아
정말좋은
정말재미없다
재밌군
재밌었을
최고네
최고였
최고였고
평점의
평점쓰
평점주기도
이런말
이런명작
##이다니
생각됨
생각했지만
생각납니다
생각외로
스토리에서
지루했지만
지루하던데
지루할수도
##이라더니
드라마틱
드라마이다
배우빨
재미있지만
내용임
내용들이
내용자체가
아니잖아요
사람사는
감독들이
만들다가
만들수있
쓰레기야
쓰레기의
쓰레기드라마
보는영화
영화를보고
이거슨
이거뭐
작품이라는
액션까지
액션이라도
ㅋㅋㅋ아
좋았구요
하나라도
나오미
최악이었음
##적이야
##적이나
10점으로
10점주고
10점드림
하는걸
하는듯
연출까지
명작의
명작영화
느낌에
기억하는데
아이스
괜찮아서
괜찮았을
여자로
여자에게
장면들은
##연기짱
주인공들도
마음과
마음이다
마음까지
유치합니다
유치함이
무슨말을
##배우님
결말과
##사람들도
현실로
볼만해
볼만하지만
몰입하기
남자도
OO은
보기싫어
원작만화
##드라마라고
짜증났다
가슴한
매력있
눈물나
눈물콧물
애니중
##재미도없고
##는지를
##너무좋아
##너무좋아요
만들어놨네
##지않네요
##스러워요
아름다웠고
한번보면
억지스럽게
필요없
필요없습니다
##재밌네
재밋었음
추천추천
##나오지
캐릭터로
대박이네요
대박대박
##메이트
코미디라고
긴장의
공감대가
이걸영화라고
대단하네
##진짜로
##스트가
##스트의
##스트립
계속되는
잔잔해서
재미있게봤어요
제목부터가
어이없네요
어디갔
어디인가
내용이야
그렇듯
모습만
스릴러에
떨어트
떨어지게
아쉬워서
아쉬움을
알바도
알바의
그러한
그러려니
제작사
제작을
미국인
부족해서
부족했던
정신과
웃기면서
1편으로
작가들이
##아니라고
시작이
시작하자마자
보고싶습니다
보고싶었는데
훌륭하지만
훌륭했고
##거리를
출연했다는
따뜻한영화
##할수없다
살아온
살아간다
살아가야
수작인데
수작이네요
장난도
장난치는
장난아니고
느끼한
신선했음
친구도
만화도
행복하고
행복했던
답답했다
점수도
사실과
사실이지만
##최고입니다
##해야하는
##해야한다는
관객수
전쟁과
배경만
완벽에
영화관을
봤던거
슬프기도하고
힘들때
힘들지만
힘들어서
문제의
졸작임
예술인가
역사적인
들어있는
들어왔는데
코믹하고
몰입도와
찾아야
찾아봐도
찾아보는
캐스팅과
재밌는게
재밌는듯
설정의
주연은
사람이면
##정말정말
여러분들
영화라기
영화라기보다는
옛날영화라
##놓고는
미친다
미친듯
빠져나올
불쌍할
불쌍하네
불쌍해요
중국은
하지원의
하지원은
감사한
감사할
상상하든
ㅉㅉㅉㅉ
실화라는게
않는다면
1999
훨씬더
다음편
다음작품
전체관람가
노잼노잼노잼
이것두
있을수
발연기의
##이야기는
장르도
##느낌을
초딩영화
초딩수준
알았어요
인물에
알게되었다
애들만
쓰레기영화다
##수준을
맘에드는
그리움
##재미있네요
##재미있었다
##한번도
세계에
세계의
세계에서
세계관이
예상가능
2점도
어울리고
실제로는
몇번씩
자연스럽지
재미있는영화
다르네요
하다하다
기다림
멋있습니다
어쩌란
감독님은
##였음을
상영하는
즐거웠
평론가의
끝나나
##아이와
##시대가
살인범
가치있는
중요하지
중요한데
프랑스영화는
안타깝네
감성의
관람후
만드신
좋은영화네요
보여주면
한편으론
순간부터
황당함
황당해서
사이비
잘만들었
잘만들겠다
훈훈해지는
##하지도않고
만족하고
먹먹함
미안한
보는데도
##이냐고
##가고인의
흥미진진함
여전하다
선택을
##코미디영화
아빠와
죽음으로
결혼한
그림자
##하긴했지만
##시리즈가
독립영화의
전편이
##그래요
오글거린다
병맛이
ost만
감상한
웃긴게
##인물이
나쁘지는
##친구들
대작을
이런거구나
아이들이랑
바람핀
바람둥이
인정하는
인정하지만
다행이
적당함
재밌어용
관계의
15년전
3편까지
싫어진다
성장드라마
예전엔
정치에
뜬금없다
귀여운데
##보이는데
손발오그라
안맞음
애들이랑
80년대에
이어지지
자유롭게
피해를
한계인가
7점정도
##해주지
##해주길래
그랬어요
심리적
거기까지
낭비한
알아야지
알아봤다
화가나서
5점도
감탄이
감탄했다
##최악최악
다가온
오락물
모자랄
용서와
표절을
##남자랑
사기극
현대인의
압권이었다
나타낸
나타나서
북한을
포기하고
폭력적인
깊이를
미치겠네
퀄리티는
등장인물들의
남녀가
본방사
국민을
그립고
보러갈
전투씬
비극이
비주얼이
심각하다
##소재는
역겨울
눈빛연기
의문을
평이한
##오빠가
소재로한
존경스럽다
가까워
이때는
여기서부터
깨닫고
성인영화
새벽의
##하신분들
##이유를
##ong
##영화임에도
시각이
안돼고
안돼요
##배우들로
##ies
아이돌이
지켜라
반복해서
보길잘
놀랐음
망쳐놨
망쳐버린
볼게없다
박진희
7점대라니
##지어다
##떨어지
지겨워서
##도안되고
본영화중에
제이콥
할까요
김민희
늘어놓
오바다
가슴아프다
스크린쿼터
조합이
포르노를
도전하는
빌려본
못생김
응원하고
재미잇게
이해하기엔
뛰어넘은
어지럽
어지럽다
이끌어가는
안본사람
아름다움에
둘이서
이민호
남자주인공의
수고하셨어요
작위적이고
배역을
결정판
##신분은
시청자들이
짜임새도
기다려집니다
국가의
무한도전
지났는데
장국영이
##데이즈
앞뒤도
서부영화
아내와
새로움
조카가
b급영화
잼잇어요
기대했다가
집착하는
헤어지고
배경음악이
시끄러
조절을
가르침
타고난
정우성이
##버려라
추격씬
여자친구가
손색없는
혹시나해서
끼워맞춘
이소룡이
개념없는
##야할지
##귀여워요
빵터졌다
아놀드의
하시지
외로움을
감동받았습니다
자랑하는
케빈코스트너
뭐하는건지
나레이션이
##느껴진다
기존에
거북한
극복하는
주고싶은데
인터넷에서
무겁고
어리석
담백하고
무게감
이동진
호기심에
임창정의
할아버지의
짜집기한
몽환적이고
##장애인
##억지로
빠지는게
쏟아져
잠들었다
트랜스
##ㅎㅎㅎㅎㅎㅎㅎㅎ
##오오오
던져주는
##가슴이
##분위기가
개그맨들
말투가
타란티노의
##미스테
긴박감이
최고최고최고최고
디카프리오의
쯧쯧쯧
데스티네
몰라요
##제목이
숨막히게
브라보
가족애를
드니로의
모른다는
화질도
그럴싸하게
손가락에
##노답노답
상태로
흉내낸
놀래키는
빠순이들
올드보이
##하지말자
포켓몬스터
괜찮았으나
코스모
낭만적인
알바생들
드라만
박시후
총체적난
번역은
모르겟고
꺼져라
정준영
##이뻐요
수십번
##예쁘다
망설임
애절하고
김영철
쥐어짜
평점올리기
과대평가된
별1개도
##훌륭한
가해자
지배하는
2차대전
가관이다
모티브로
물고기
별기대없이
##치않은
느슨한
변호사
알렉스
이해가안감
김정훈
두말할
##한마디로
공존하는
차분하게
어지간한
왜냐하면
브래드피트
갑작스런
단조로운
스탤론
##킬링타임
CGV에서
녀석들
반가웠다
산드라블록
스파르
희한한
##녀석들
라디오스타
치명적인
##발랄한
셜록홈
##하트넷
러브라인이
당당하게
무성영화
무덤덤
보고또보고
아시는분
This
박상민
오죽하면
청소년이
눈감고
유준상
남상미
빨려들어
인위적인
전파낭비
눈물샘을
로드리게즈
남동생의
시네마
김병만
어린나이에
데스노트
난장판
조지클루니
##3456789
방어율
때묻지
발정난
애청자
학예회
휴대폰
흡혈귀
제점수는요
엘리자베스
모조리
임요환
해냈어
##드그렌
니콜라스케이지
공상과학
기립박
무진장
알모도바
데스티네이션
1학년
25년
3년
3시간이
4대
4년
49
5명
6번
7세
7월
70분
Be
KT
NG
Re
VOD
co
li
le
mc
pl
♡♡
ㅇㅋ
가기
가도
가스
가오
가졌
가보고
가야지
가졌던
가필드
간혹
갇혀
갈구
값진
갔으면
강아
강인
강하고
같았습니다
개구
개선
개개
개쩜
개억지
개노답
개차반
거리도
건네
건조
걸리
것임
것이라는
겉도는
격정
결심
겸손
계기
고든
곰이
공원
공무
공상
공통
공백
관우
광기를
괜한
괴상
괴짜
구질
구현
구름
권태
그뿐
그중에
그정도로
그대는
그다음
그마저도
극도로
글썽
금물
기여
기뻤
긴말
길은
김은
김연
김범
까고
까진
깬다
껄끄
껐음
꼭두
꿈같은
꿋꿋
끈다
나문
나이는
나래이션
낚였
날개
남네
남아서
남다른
낮냐
내포
내스탈
냉혹한
너므
넘지
넘길
넘었는데
네오
노아
노리
노노
노린
노인의
놈의
높다고
놓지
눈엔
느그
느림
느릿
늙고
님들이
님들아
다닌
다이나
다짜고
단발
답은
답다
당혹
당분
당근
닿지
대적
대화를
더할
더구나
더좋은
더러워서
덜떨어진
덧붙
도마
도자기
독이
돈많은
돋네
돌연
돌을
동서
동심으로
동남아
동떨어진
되질
되지만
되기를
되겠지
되었네
된듯
두시간이
둘을
뒤틀
뒤섞
등극
디자
디자이
딜레
딥블루
따질
따지고
땅을
때로
떠날
떡칠
똑같음
뛴다
뜨겁게
뜻을
띄워
램버트
로케
로리타
루비
리가
리들
리그
린즈
마는
마당
막힌
만듭
만끽
만나게
많습니다
말리
말다
말과
말들이
말았으면
맛있게
망각
맞서
맞네요
맡았던
맨오브
머하는
머하나
머랄까
먹으면서
멀어
멈춰
멋드러
멘트
명대사가
모던
모션
모텔
목적은
못가
못했는데
못했다는
무차별
문성
묻고싶다
뭘보고
미적
미숙
미끼
미켈
밑의
바는
반을
받았습니다
발광
밤새
방화
방대한
방식은
백야
백점
백투더
버리지
버틀러
버러지
벅스
번째
범인을
베송
베껴
별은
별내용
별그대
보도
보도록
보더라구요
보물을
보셔야
복사
복습
본연의
볼품
볼려
봐왔던
봣던
봣지만
봤다는게
부질
부부가
분발
분들의
불을
불량
불렀
불체
불리는
붕가
브룩
브리트
브랜든
블럭
비위
비스트
빙빙
빚어낸
빨라서
빼라
뻔하게
뻔해도
사와
사후
사탄
사색
사탕
살리는
삶에서
삼성
삼가고인의
상을
상술
새키
색즉시
샤이
샤이니
서구
서비스
설치
설계
성숙한
세명
세얼
세밀
센스가
속지마라
속았네
손은
손해
수수
순애
순풍
순결
순전히
숨바
쉰들러
쉽고
쉽다
스태
스러
스킬
스멜
스럽다
슬레이터
승승
시달
신을
신음
실질
실현
싫지만
심한거
싶다고
싶었지만
싸인
쌍둥이
쓰는데
씁시다
아녀
아랍
아멜
아들은
아픕니다
악어
안뜨
안잡
안드는
안해도
안보다가
안그래도
않더라
않겠습니다
않으면서도
알린
알콜
알렌
알리기
암것도
애교
애니다
애들을
앵간
약함
얄밉
양익
어루만
얽히고
없지않아
여명
여섯
여성이
연발
연제
연금
연정훈
열등
열혈
열까지
였지만
예스
예언
예수의
오씨
오기로
오구리
올리는
옷벗
와인
왜나온
외의
요런
요리를
욕밖에
욕먹을
우물
우웨
운이
운다
운명의
울때
원제
원피
위원
위태
위한영화
위주로
유다
유효
음침
응징
의료
이대
이벤
이원
이곳
이하다
이시대
이전의
이현우
인것
인민
인격
일주
일치
일하는
잃음
입증
입에서
입장이
있으며
자유의
자식이
작전
작지만
잘지
잘도
잘봄
잘하는거
잘했다고
잘만듬
잘하시네요
잘봣습니다
잠도
장점은
잼나네
저때
저래
적게
적벽
전대
전우
전나
전수
전까지
전에는
절벽
젊음의
점차
제대
제게
조윤
조음
조크
조센
졸리고
죠스
주니
주기가
주려는
주말이
죽겠네
준다는
준사람들
줄여
중복
중립
중앙
쥐게
증언
지우고
지현우
진가
진리를
징글
짝짝짝
짱난다
쩌러
쩌네요
쬐끔
쭉쭉
찌라
찬란한
참패
찾다가
천사의
천상의
첫째
청불
최진
축복
춘향
출동
취업
츠마부
치켜
친다
카르
코가
코미
코피
코끼리
쾌감
키우는
태민
텅빈
통틀어
통틀어서
투명
투척
트렁
파라
페이
폄하
평면
포스를
포세이
푸하하
풀어가
플러스
피비
피아니
필리
하악
하희
하균
하기에
한마
한발
한경
한획
한복
한거야
한마리
한꺼번에
할때마다
할꺼면
함량
해당
해변
해골
해줌
해줘야
해냈다
했었다
허황
헝거
헤어나
헬렌
현기
현저히
형님의
호연
화보
화산
화나게
환호
황우
회장
후보
후까
후쿠
후벼
후딱
훨배
흘리고
히가
히든
힘과
힘드네요
힘드네
##사자
##이신
##이번
##이쁜
##이에게
##이영화가
##이아닌
##이었어
##아동
##아르
##아녀
##아슬
##대만
##대여
##대없는
##지냐
##지망생
##말밖에
##문득
##장가
##면에선
##바뀐
##자주
##가시
##프는
##라길래
##즈음
##들여서
##리냐
##리려고
##동아리
##적에
##적당
##적이라는
##적이라고
##인저
##기용
##방식이
##도한
##한사람
##런트
##보호
##보세여
##스스
##스다
##스퍼
##스톱
##스파이
##우나
##우려
##우먼
##나갈
##나이가
##나가고
##국제
##했죠
##해봐
##해줘
##해하는
##해집니다
##영혼
##화까지
##연주
##연령
##다다
##다는데
##완성도
##없을때
##어있는
##어이가
##어내는
##씁쓸
##하오
##하품
##하십니까
##재로
##미더
##원숭
##원으로
##을만큼
##무언
##무조건
##작의
##작전
##는줄
##류층
##의도가
##겨우
##품이
##것두
##포의
##포르노
##포인트가
##구성도
##려한
##데레
##데이트
##위주의
##전사
##범벅
##페이스
##쓰면
##쓰냐
##잼있음
##거려
##거려서
##렸다가
##긴지
##단지
##차서
##차기
##루는
##루션
##본건
##질하는
##남이
##남매
##녀와
##았으나
##상상
##시각
##시는게
##져라
##져있다
##소유
##소이다
##팬이라면
##애도
##애요
##애는
##애애
##편이나
##공에
##테일이
##부다
##부까지
##섹스
##ㅌㅊ
##수입
##수정
##수씨
##수염
##수빈
##진을
##진부
##진심으로
##일줄
##일지라도
##듯합니다
##날라
##날정도로
##여인
##여성
##모아
##마시
##마치
##심사
##심장
##심심
##짱나
##터스
##터진
##버는
##버리게
##코도
##코네
##발의
##퍼가
##태격
##꼭보세요
##많으셨
##잘해요
##읍다
##세히
##세염
##양을
##신만
##신부
##법도
##황당
##비와
##비안의
##징어
##제이
##low
##주리
##주나
##주던
##주완
##주륵
##주시길
##메시
##배틀
##치는거
##쳐라
##입니
##할만
##할배
##할라고
##각시
##민영
##민주
##민씨
##볼껄
##티스
##되다니
##감명
##감정이
##개잼
##개노잼
##린영화
##까는
##찬양
##겟고
##쪽이
##뿐이
##뿐인데
##계인
##느데
##uu
##엇나
##엇어
##권에
##분으로
##짜피
##잇는데
##점수가
##출동
##밥에
##담은
##담에
##현의
##현오빠
##머가
##족을
##곡도
##곡을
##ㄲㄲ
##등의
##등급
##타의
##격한
##낮아서
##올로
##올수
##올리는
##28
##밖으로
##갔을
##갔네
##끼가
##즐겁고
##중은
##갑시다
##길로
##외국
##외에는
##두룩
##유도
##유혹
##직원
##강한
##짓는
##딸이
##딸은
##ne
##앞으로도
##견을
##NG
##특급
##츠야
##속에서도
##슬펐
##뭐고
##체험
##크리
##끝남
##호씨
##훈의
##40분
##광구
##결제
##놈이랑
##킬러
##클로
##클레
##먹으면서
##십분
##표정이
##컨셉
##밀어
##밀려
##왕이
##얘기만
##짐을
##ㅅㅅ
##불명
##웨폰
##넘는
##닮은
##됐고
##됐네요
##돋네
##철이
##잡은
##빌려
##봣네요
##떠서
##득이
##렷다
##꼬네
##돈을
##롭지
##멸망
##됬지만
##we
##멍청
##홍련
##ㅐㅐ
##열정
##낚시
##ㅈㅎ
##굉장히
##뭥미
##팍팍
##밝혀
##흑흑
##왠지
##낍니다
##믄서
영화배우
영화에도
영화때문에
영화마다
영화봤다
영화에서도
영화랄까
영화와는
영화내용은
##영화보면서
너무유치
너무재밌음
너무좋네요
재미다
재미두
정말재밌어요
재밌따
재밌진
재밌지는
재밌었지만
진짜ㅋㅋ
연기하고
최고가
최고는
평점믿고
평점등록
이런글
생각하지만
생각할수
생각했었는데
스토리야
스토리다
스토리인데
##들이는
감동영화
감동있게
보고있다
보고있음
보고왔습니다
보고왔어요
##하게되는
지루할수
지루지루
지루했습니다
드라마♥
드라마예요
드라마였는데
10글자
재미있다는
재미있을듯
아니구
아니니까
아니였으면
사람이다
사람들과
만들수가
재미없을거
쓰레기네요
사랑해서
보는것도
보는건데
시간날
시간끌
좋은배우
좋아하긴
좋아하시면
##보고도
이거다
이건정말
마지막화
##라고는
작품인듯
작품이지만
완전실망
액션이다
액션이나
액션영화를
액션신은
액션스릴러
액션신도
##하지못
좋았지
하나에
처음과
처음본
처음이에요
##다고해도
이게뭐지
나오더라
최악이였다
1점이라도
별로인듯
별로였습니다
모르면서
이해한
이해하게
이해되는
##이나와서
##이나오는
우리모두
명작도
명작인듯
명작이네
평점이너무낮
기억의
재밌게봤네요
아이큐
괜찮습니다
그런듯
장면까지
장면들도
장면마다
##주는것도
##연기의
주인공처럼
만든거야
만든걸까
일본영화를
일본만화
일본특유의
공포스릴러
보여줘서
아무생각
유치할
유치해도
유치짬뽕
##것도없고
결말에서
현실도
현실에선
현실적이지
볼만했어요
볼만했고
##가는거
##없이는
다른나라
반전만
OO도
##인가보다
보기시작
원작에서
원작자가
##드라마도
가슴은
매력없는
눈물나고
애니에
애니스톤
인생최고의
영상들
##이고요
##재미없는영화
인간도
인간으로써
##시간도
만들어지는
극장을
##지않은데
##스러웠
##스러움을
##스러웠고
수준인데
배우들에
추천드립니다
##나오냐
여운에
캐릭터들과
대박인
코미디인데
실망만
실망스럽고
실망스러웠다
##는거여
엄청나다
개봉된
##을때의
##이지요
##스트레스
계속된다
##이랑은
대사만
표현력
아쉽게도
잼있던데
##생각보다
##생각해도
스릴러영화
스릴러인데
긴장감있고
긴장감도없고
떨어질
떨어지지
기분더
않은듯
느껴졌던
봐야됨
봐야겠네요
알바다
알바임
##리스콧
미국인이
노래로
노래에
노래하는
아까운건
##인듯한
시작할때
나왔고
나왔어도
##이란거
훌륭하네요
##거리로
##이상의
감정과
뻔한데
보게될
살아있
살아있고
살아가면서
의미없다
싶은영화
행복할
행복했어요
답답함과
답답하기만
우리나라에선
##고싶었다
##고싶을때
##고싶은데
허접영화
허접해서
영화였구나
엔딩의
추억도
시나리오로
재미가없네요
완벽함
완벽하고
귀여웠음
지루한영화
인상적임
이딴영화를
시대상을
스타트
졸작으로
예술과
예술이라
제발요
들어감
들어오는
찾아가
있었기에
애니메이션이다
후회하는
기억에남
더빙때문에
안되는거
돌아와
엄마도
어느나라
잔인한거
집중력
옛날꺼
같이봤는데
한국영화보다
궁금하지
궁금하네
궁금해요
빠져들고
감동적이게
감동적이였다
감동적이었던
따라가는
여기까지
##ㅠㅠㅠㅠㅠㅠ
나올뿐
##만든거
영상미로
##해지는영화
로맨스와
걸작은
얼굴로
프로포
프로파
있을것
있을줄
##이었다니
##이야기도
비디오를
알았던
2002년
##재밋네
여배우들이
보여주는게
##시키네
##시키다니
킬링타임용으론
##보게되는
쓰레기영화에
존재를
존재한다는
당신들이
생각보다는
그리도
평가절
평가하는
잘못이
##년이면
##보고싶네요
##보고싶은영화
뭐야이거
뭐야이게
예상외로
이번이
##할때가
어른은
##평점에
나이들어
에로비디오
에로티시즘
멜로를
##모르겠지만
##모르겟다
##모르겠음
##모르겠고
어쩌자는
##을수없는
판타지로
누구보다
뭐가뭔지
있어서는
화면으로
재미없는영화
못하는게
가치관을
멋지네
TV용
꿀잼임
꿀잼이다
감성으로
그때도
생각해봐도
순간에
잘만들어
잘만들었음
잘만들었고
훈훈함
tv판
어쩔수가
안타까워요
먹먹했다
몰랐네요
원래는
줄거리와
줄거리의
끝내는
##기대했는데
괜히봤어
멍청이
아빠어디가
죽음과
진지하다
그래픽과
귀신을
만점이다
안보여
안보신
##하는거냐
이러케
예고편보고
감상하는
앞으로의
미화가
대한민국에
대한민국을
느꼈어요
영웅이
영웅으로
##ine
대작은
인정한
인정할
12년
서로에게
다행이지
전작과
천재감독
청춘이
청춘을
청춘영화
청춘들의
적당한듯
코메디가
마무리는
목소리로
목소리를
풀어낼
시간낭비다
리메이크가
##짜증나는
##다시한번
나만당
조연으로
철학적이고
90년대에
사건은
뜬금없고
4점준다
4점짜리
전체적으로는
미래에
아는척
##막장드라마
행동은
##hen
애들이나
어렵지
자유로
7점짜리
군대가
그랬나
그랬는데
인상깊었음
시도가
눈을뗄
카메라로
연애를
영화보고나서
와닿았다
젊은이
젊은시절
화가나
기본이
기본은
##이건뭐
조폭마누라
다가왔다
오락성
이기야
이기심
##시켜준
리뷰에
모자람
악역도
악역으로
스트리트
뮤지컬로
##ound
동물을
용서는
표절영화
사기다
소녀를
자막을
##한것만
개판으로
개판이네
흐름에
깊이도
고생하셨습니다
힐링되는
11점
30여
감명을
남녀주인공
남녀간의
부끄럽게
오버랩
오버하는
반성해야
##마지막회
출연진들
드러나
그것만으로도
능력은
능력이다
의문이다
이루지
30분은
받아들여
이쁜영화
18금
일반적인
싶어진다
마이너스가
단연코
연결고
아쉬움은
남편의
시걸이
인도영화는
남겨본다
##을거같다
상업적인
몰입감은
로그인했다
외모와
인내심이
인내심의
##나와요
##결말도
타임슬립
조선시대
##연출이
검색해서
박진감도
편견과
가져야
관심도
미모만
##오글거림
##엄마랑
##엄마가
봤더니만
투자자
조합은
##omb
필름을
##이스키
영화제에서
먹고살
재미잇는
풍경도
명작이죠
##용으로는
사랑이야기가
아까울정도
몇년간
아닙니까
감흥을
감흥없는
디테일하게
ㅎㅎㅎㅎㅎ
떠올랐다
모험을
사고방식
사진을
##ree
결정체
바꾸는
오랜만인듯
오랜만이네
오랜만이네요
기다려지는
스트레스만
##부를때
이해안가는
다운받아봤는데
아내를
잘어울린다
감각이
첫사랑을
생활이
조카랑
김혜선
집착이
효과음
시끄럽
시끄러운
조절이
다를바
읽어보고
보지말길
##스크린
때려부
누군가의
조니뎁의
대통령의
여러번봐도
사운드트랙
하시는데
##배경이
잊혀지지않는다
난잡하다
배급사가
감동받았다
후속작은
영화이기도
따위는
##뻔한스토리
폭풍눈물
찾아볼수
부탁합니다
달콤하고
##ass
과대포장
리얼리티를
호기심을
아파트
고독과
##굿굿굿
##♥♥♥♥♥♥♥♥
이병헌의
몽환적
강간을
즐길수
혐오스러운
일으키
박중훈의
유덕화의
미녀와
선사한다
이종혁
##초반에
왠만해서
지루하기까지
생겼는데
억울하게
ㅋㅋㅋㅋㅋㅋㅋㅋㅋㅋㅋㅋㅋㅋㅋㅋㅋㅋㅋㅋ
따름이다
실감나는
한가인
##ice
##광고를
90분동안
괜찬은
##없을정도로
##하나하나가
맞추자
브라운
방향으로
##맘에안
그럴싸한
니네가
설경구의
##웃기네
작화도
놓치면
지독하게
##발연기발연기
감수성이
김명민의
먹칠한
반갑다
##ㅜㅜㅜㅜㅜㅜㅜㅜ
##ㅋㅋㅋㅋㅋㅋㅋㅋㅋㅋㅋㅋㅋㅋㅋㅋㅋㅋㅋㅋㅋㅋㅋㅋㅋㅋㅋㅋㅋㅋㅋㅋㅋㅋㅋㅋㅋㅋㅋㅋㅋㅋㅋㅋㅋㅋㅋㅋㅋㅋㅋㅋㅋㅋㅋㅋㅋㅋㅋㅋㅋㅋㅋㅋ
본것중에
박시환
버무린
시간아깝고
국어책읽
고양이는
데미무어
적극추천
한쿡영화
모독하는
보기싫은
카메론디아
믿기지가
열자열자
윌리엄스
종합선물
끊임없는
내리막
지루하지않게
원작소설을
일관성
퀴어영화
표현해낸
여기저기서
비하하는
난생처음
총격전
미니언
일생을
조조로
찜찜한
90년도
싶었으나
one
그레이스
다케시
웃길려고
이재은
정화되는
낮추자
우습게
우습다
잘표현한
대책없는
조쉬하트넷
채플린의
##주제에
##뿐만아니라
비정상적인
박지윤
오만과
치열한
훈남이다
깜찍한
나왓으면
##hhhh
에어컨
추잡한
##스페셜
see
갖추고
김보성
졸립다
기대해봅니다
가미된
로긴하게
낮춰야
복제인간
신성일
한물간
단언컨대
7번방의
스며드는
크리쳐
태극기
대박나세요
어드벤쳐
느꼇다
메릴스트립
쇼생크탈출
이와이
중고딩
그로테스크한
김두한
새드엔딩
장선우
지껄이는
히스레저
##유루이
무릎팍
무표정으로
스턴트맨
울려퍼
##개인적으로
간접적으로
매드맥스
박하선
연개소문
장화홍련
무미건조
바르뎀
비열한
최루성
한채영
스나입스
넘나드는
빌어먹을
일대기를
중3때
로빈윌리엄
know
문채원
어장관리
현주소
고창석
생동감
유투브
재조명
##끝날때까지
동물농장
파란만장한
전무후무한
메디컬
쟁쟁한
지지부진
비긴어게인
CSI
대명사
롤러코스터
버킷리스트
부들부들
불협화
조진웅
크림슨
오리엔탈리즘
BEST
매염방
별2개
별다섯개
뼈저리게
얼렁뚱땅
중경삼
천정명
커다란
티격태격
다짜고짜
돌연변
리들리스콧
린즈링
문성근
브리트니
숨바꼭
양익준
연제욱
하희라
헝거게임
히가시노
2부
2배
2년전
2년전에
31
3가지
56
55
5번은
85
8천원
97
97년
Br
IP
Not
So
St
TOP
ar
bbbb
bomb
cct
god
life
out
pd
perf
un
wat
want
ㅠㅡㅠ
가발
가다가
가는지
가수가
가정을
가레스
가이리
가려진
가질수
간직한
갈갈
감을
강대
강연
강함
강해서
갖은
같긴
같더라
개재미없다
개재밌다
개답답
개병맛
개쩌는
거랑
거절
거라는
거에요
거예요
걸맞는
겁내
겁난다
겠어요
계절
계승
고준
고조
고귀
곤충
골랐
골빈
공공
공평
공권
과유
과장이
구리
구미
구닥
구하는
군요
귓가에
그간
그뒤
그랜
그들도
그들과
그이후
그어떤
극에
극악
근디
글자
금고
기적이
기이한
기황후
길에
김서
김사랑
깊었던
껍데
껐습니다
꿈의
끄덕
끈적
끈끈한
끝없이
끝가지
끼칠
끼치는
나뉘
나니까
나은데
나로선
나락으로
낙태
낙으로
낚였음
난진짜
날의
날리는
날렸네
남궁
남매
남았을
났을
내기
내공이
너나
넋놓고
널리
넘흐
넘어야
넘쳤다
노숙
노조
노민우
논할
논하지
논스톱
놓았다
뇌를
누적
누르
눈동
다한
다보
다물
다되
다망
다람쥐
다필요없고
단절
달랐
담임
닿는
대동
대하는
더러움
더군다나
던진
덩달아
데니
데니스
도중
돌려서
동심의
됐고
되가는
되었는지
두리
두사부일체
뒷맛
뒷모습
드럼
드뎌
듣던
들썩
들게하는
디테일이
딱임
딸내
딸리는
떠들고
라붐
런던
레아
로다
룬드그렌
리스
리버
리틀
리턴
마자
마셈
마르소
만이
많았
많다는
많으면
말같
말리고
말라는
말하는게
말해주고
말밖엔
말밖에는
맘을
맛도
망정
망하게
맞물
맞췄
매국
맥락
맨몸
머하자는
먹여
먼데
멋졌음
메카
멕라이언
몇이나
몇명이
모차
몰상식
못됨
못잊
못하지
못하다는
못한다면
몽상
무죄
무교
무민
무참
무장한
문구
물량
물러
뭐다
므흣
미덕
미쟝
미쳐서
미확인
밀도
바랬는데
박사
박기
박선
박혀
박은혜
박장대소
반공
반동안
받게
받을수
발매
발음이
밝히는
방사
방에
방치
배달
백윤
백설
밸런
버틸
버릇
버리게
번은
번쩍
범벅
법이
법은
벗기
벗는
벤에플렉
보복
보내요
보지도않고
보십시오
복장
본드라마
본것같다
본사람은
본인들이
본기억이
볼빠
볼께
볼영화
봐온
봐보세요
봣음
봤구만
봤는디
부다
부시
부숴
부부의
불리
불어
불릴
불신지
붙인
비키
비견
빈틈이
빡치게
빨랑
뿐더러
사형제
삭막
산악
살고싶다
삼총사
상반
샘레이
생일
생방송
서투
서툴
선우
선명
설렜
성대
성을
성당
성유
세주
세대를
섹스로
센과
소송
소원
소용
속이는
솟구
수박
수단
수출
수위가
술먹고
숨기고
숭고
쉽지않다
스미스
슨상
승리는
시가
시내
시니
시공
시켰
신랑
신소
실로
실타
실체
실소가
심한듯
심은경
싶더니
싸워
싸가지
싸대기
쌓인
썼나
쓰기
쓰네
씬을
아즈
아플
아들에게
안면
안도
안간
안해서
안하나
안나는
안그러
안봐야지
안올때
않지
않던
않겠지만
알만
알거
알리는
알포인트
암으로
애드
애미
애착
애쉬튼
앤더
앨리
앵앵
야호
야하고
양쪽
얘들아
어바
어뜨
어르신
얼핏
엄연히
엄지원
없던데
없기를
없었을
에구
엘렌
엠버
여겨
여잔
여우주연
여하튼
연인과
엿볼
옜날
오고
오게
오후
오염
오네요
오르는
옥택
온주완
옳고
와일드
왔으면
왕창
왕가네
외치는
욕이나
용이
용기와
우러
울먹
울었는데
울렸다
울었는지
웃을때
웃었네
워낭
월요일
유이
유유
유호
윤성
윤발이
으뜸
의리가
이만
이르
이윤
이단
이토
이효
이끈
이산
이하나
이어진
인육
인가요
일까
일그러
잃어가는
임금
입으로
있길래
있겠는가
잊게
자폭
자기는
자무시
작곡
잘나
잘껄
잘맞
잘하면
잘하시
잘나가는
잠못
잤던
장례
장가휘
재림
잼다
잼잼
잼없네
잼나네요
잼없어요
적어서
전지
전역
점이다
정을
정태
정정
정책
정규
정해진
정부가
제3
제자리
져버리지
조으다
존레
졸림
졸리의
졸았음
종족
좋앙
좋구나
좋네여
좌충
주르륵
준건
줄려고
중단
지아
지림
지효
지휘
지치고
지혼자
진중
질렌
짓는
짜여
짜맞추기
짧다
짱이네요
쫒아
찍다니
찍으면서
찍었으면
찔러
차려
차이는
찬성
참는다
찾을수가
채우기
채시라
책이나
천박
천안함
첫방
쳐맞
초특급
총도
축축
충동
충만한
취지는
치더라도
침대
카밀라
캐롤
캐안습
케네
케릭
케미도
콘택
콩콩
쾌락
쿨한
퀼리티
크네요
클루니
키드
타케
토크
통통
퇴색
투영
투박한
트위
트라이
트레이
특선
틀고
티아라
파커
파파
팔마
팔아서
팝송
패기
패밀리
팬을
팬들은
퍼니
퍼레이드
페이지
편이다
포도
포토
풍자가
플레
피리
피닉
하구
하질
하였다
하든가
하셔야
한이
한들
한세
한반도
한단계
할게
핫세
해대
해체
해놨
허수
헤헤
헤어진
혀를
현혹
현명한
형용
형사가
호랑
호빵
호감이
호랑이
홍은
홍길동
화나고
화내고
환자
활력
회가
효주
후손
후지고
훌룡
훑어
휩쓸
휴우
흥얼
힘드
##사스
##사태
##이럴
##이블
##이하고
##이군요
##이였는데
##이따구
##아랑
##아야지
##대지
##대며
##대통령
##지아
##지니
##지수
##지매
##말해
##말의
##말할
##말씀
##말하고
##고고
##고루
##면은
##면으로
##면에서도
##만리
##만치
##만나고
##만이라도
##로와
##로코
##로부터
##바야
##바래
##서니
##서요
##자야
##가치도
##B급
##BI
##CC
##프에서
##라기엔
##들다
##들갑
##리야
##리안
##리플
##졸업
##동의
##인즈
##인들을
##인거같아요
##야하나
##기본
##기부
##기만한
##드려야
##울듯
##울었어요
##한걸
##한태
##한장면
##보는지
##보이지
##보이가
##보지말고
##스만
##스나
##스캔
##카가
##웃었다
##내린
##내었다
##내인생
##게이트
##우다
##우진
##우연히
##국은
##군과
##에반
##했단
##했는가
##더는
##더를
##더라는
##요원
##해에
##해져서
##해버리는
##안도
##안남
##안하는
##그게
##그릇
##화에
##화부터
##히기
##완성
##오바
##빠른
##빠진다
##없었
##없을까
##없어도
##어릴때
##하당
##하내요
##래가
##재해
##미만
##미인
##미야
##미치
##있구
##있긴
##있어도
##트만
##을땐
##을지도
##을위해
##무는
##무너
##무식
##는구나
##겨움
##품을
##포드의
##노예
##노력
##구도
##려놓고
##었니
##위주
##실에
##전환
##전유
##과정이
##3명
##걸리
##걸릴
##글고
##잼없음
##잼나게
##잼있어요
##플레이
##ㅋㄷ
##거랑
##거를
##거보고
##렸나
##렸으면
##준사람들
##차도
##받게
##받음
##받네
##당초
##본건지
##본듯한
##질리
##질의
##질과
##남자를
##녀들이
##따듯
##시시
##시나요
##시사회
##소에
##소는
##팬으로서
##0도
##애랑
##편으로
##학적인
##공은
##공대
##공략
##집안
##집단
##테니까
##부인
##줄때
##수지
##독특
##진다는
##진정한
##일것
##건아니
##행님
##모레
##마법
##마땅
##마세요
##싶네
##싶었다
##터가
##찌푸
##코어
##코리아
##코드를
##급임
##급이네
##봤다는
##봤어야
##세스
##세주
##세하게
##iv
##생에
##양심
##신에
##신이랑
##법칙
##레니
##ob
##주자
##햇나
##햇으면
##햇는지
##배급
##배역
##치킨
##년은
##쳐먹
##할려면
##할아버지
##할만하다
##할께요
##민아
##볼루션
##껄렁
##티드
##되던
##감탄
##감이다
##놀래
##린건
##린다는
##졌는지
##겟어
##네ㅋㅋㅋ
##냐ㅡㅡ
##파가
##파요
##파렐
##좋구
##좋을듯
##러의
##러디
##러블
##조선
##조용
##짜로
##짜집
##잇지만
##출현
##1년에
##찾아서
##머스
##머리에
##병기
##최초
##죽인
##탄을
##타를
##2회
##앗고
##끼들
##약이
##혜영
##길레
##두지
##두리
##였던가
##복입고
##쇼를
##몰아
##짓은
##짓이야
##gg
##ead
##희경
##셀러
##aut
##료가
##판도
##판에서
##빨고
##견이
##db
##8년에
##뭐가
##크와
##못하네
##끝나면
##호사
##백만
##셨나
##셨는지
##종영
##밧는데
##활한
##65
##케릭터
##놈아
##삼총사
##총을
##클래
##십점
##참신
##넘넘
##꺼이
##꺼같다
##꺼에요
##짝이
##됐던
##멘트
##멘토
##손이
##손을
##ㅂㄷ
##났다고
##값도
##잊지못
##AT
##cm
##넣고
##높게
##LL
##벨이
##눈으로
##렌스
##뛰는
##빛나
##열이
##흐르
##곁에
##렵니다
##뻣다
##닼ㅋ
##욬ㅋㅋㅋ
##뭔데
##뭔가요
##쵝오
##붙은
##멤버
##팝스타
##쥔공
영화안
영화만큼
영화들도
영화이네요
영화정말
영화들과
영화같은데
영화보러
영화감상
너무질질
너무이쁘다
재미남
재미씀
##으로부터
정말실망
정말재미없
정말재미있어요
재밌었지
진짜루
진짜개
연기만으로도
##하는거야
평점들
평점들이
평점보다
평점이나
평점주는
평점너무
평점10
평점너무낮
생각들
생각했
생각난
감동이고
##하게만
지루해도
##이라면서
드라마같은
드라마보면서
##었다가
재미있지
재미있당
재미있었지만
내용이고
아니게
아니군
사람보다
사람이지만
감독만
감독까지
감독이라고
만들려는
만들지를
만들수도
##해서인지
##다는거야
쓰레기고
사랑한다고
사랑얘기
보는걸
보는거다
보는순간
다시본
다시봤다
다시볼수
시간떼
시간대가
좋은소재
좋아한
##보고있다
이거를
이거보다는
이거뭐야
마지막반전
작품들이
작품들을
내가좋아하는
완전재밌어요
없는건
기대만
좋았다는
있는척
있는거다
하나라고
하나부터
하나였다
처음은
처음봤는데
처음봤다
지금보기엔
한국에서도
한국사회
이게영화냐
없다니
나오나요
최악에
최악중에
최악이야
최악중의
1점주고
1점줍니다
하는것도
별로입니다
별로라는
아깝지만
이해해
명작인
##있는거
##있는척
느낌만
이야기만
이야기하는
##했다만
기억되는
재밌게보고
재밌게봐서
아이콘
이영화만
장면들을
장면에서는
##연기만
##연기너무잘
주인공에
주인공들을
만든다고
만든사람
마음껏
일본영화중
공포스럽지
아무렇
아무거나
유치한거
유치함과
유치함에
무슨짓을
아닌게
아닌것같다
##사람으로
현실적이라
볼만하나
소재라
##없이도
다른가
다른것
다른분들은
이상적인
이상하네요
##하기라도
##하기때문에
OO들아
##인가를
보기위해
보기힘든
스릴있게
스릴도없고
스릴만점
##드라마네요
짜증납니다
매력있네요
말이되냐
눈물의
20번
##스럽지도
##재미업
정도입니다
만들어질
만들어놨
만들어야지
만들어졌다
##었던영화
##지않지만
##지않을까
##지않았나
##보는듯
##보는편인데
##스러웠던
##스러웠음
아름다웠
한번보세요
억지스토리
억지스럽지
끝까지보는데
하고픈
하고있는
수준이고
수준미달
재밋엇는데
추천은
추천하고싶
##나오면서
##중에선
연기력만
대박이네
코미디인지
긴장하게
##는거에
공감하는
공감가지
가족이란
가족간의
가족들이랑
개봉안
개봉후
개봉하면
##스트를
계속생각
잔잔함이
재미있게봤는데
대사의
대사에서
제목그대로
흥미있게
어디가고
표현도
표현해서
##기는게
##생각에
개인이
요즘도
그렇다면
모습들
스릴러와
##봤는데요
긴장감있는
아쉬웠음
나오는구나
기분은
##영화는처음
재미도있고
봐야만
알바를
알바인가
시리즈에
그러면서도
제작사가
정신적으로
웃기면
웃기냐
웃기지도않고
웃기기라도
만드는구나
1편부터
1편이랑
어설펐
작가나
절대적인
않는다는
시작되는
시작했는데
##치는게
나왔을까
나와야지
출연자들
##이상해
남는것도
따뜻해지
보게된다
보게되었다
살아가
살아간
살아보고
살아있네
살아남는
의미없이
의미부여
영화로도
싶은게
장난하는것도
##밖에없는
어린애들이
얼마든지
무섭진
무섭지만
무섭네요
언제끝나
행복의
안되니
안되나요
주는것도
답답함을
OOO들
OOO들아
##소리에
관객에
관객과
관객과의
허접해
웃음밖에
웃음코드
멋진데
영화였네
되는게
엔딩장면
전쟁으로
전쟁영화를
자신도
1점도아까움
지루함없이
어색하게
완벽했던
귀여니
귀여웠다
어떤지
영화관서
유쾌한영화
인상을
힘들었지만
시대는
못한듯
스타쉽
예술작품
예술가의
포스터로
##한데다가
들어왔
들어온
만들었구나
만들었어야
찾아가서
찾아보기
있었군
있었는지
캐스팅으로
##아까웠다
후회되는
오래남는
개연성을
공포영화도
더빙만
##정말로
안되는게
돌아가서
충격이었다
매우매우
잔인하기만한
집중력이
##주의가
##사랑에
하나도안
##감동적이
감동적이야
2편보다
2편부터
나올줄
나올수가
여주인공만
위해선
##수있을
##수있음
그만하자
##거지같은
실화는
CG를
영화중의
로맨스의
눈물이난다
비슷하고
비슷하지만
다음부터
이것들아
네이버영화
있을법한
##느낌이다
비교하는
티비를
비디오가게
초딩들이
없어져야
인물간의
##재밋어
감동이었어요
##시절에
##보게됨
잔잔한게
사회는
##수준도
##ere
존재할
##보기에는
##보기싫다
독특해서
##거같습니다
##재미있었어요
각본은
뭐야이건
높은게
높은데
예상보다
예상했던
이번시즌
##들어간
어른인
다르네
##영화다운
멜로로
멜로의
##액션물
##하자고
어쩌나
##스타뎀
머리도
질질짜는
질질끈다
평범하게
개그를
즐거웠어요
즐거웠습니다
확실하다
누구의
화면을
예쁘네
볼만한게
끝나버린
성우는
있어보
있어보이는
중요한게
중요하다는
한심함
한심스럽다
개연성과
보여주며
보여주네요
보여주려고
한편으로는
대단한듯
홍콩영화는
진행과
사이먼
##그런데
하게되는
과거로
소리로
자극적이지
불륜이
불륜영화
어쩔뻔
참신함
안타까울뿐
먹먹함이
어릴때부터
보았고
##되어있는
##되어가는
선택에
선택하는
##기대안
##코미디의
얘기하는
그림과
후반부의
안보인다
##시는걸
영화인건
이러니까
가능하다
가능합니다
해야되나
무서운게
별루임
현재까지
##이런걸
나쁜영화
미화영화
알려주세요
그럴거면
연출력에
연출력을
느꼈고
느꼈음
느꼈네요
완성도도
대작입니다
중반에
스타일도
스타일을
서로가
청춘은
촬영을
흘러간
적당하다고
노력에
노력과
코메디를
15년이
마무리를
풀어냈
못보겠네요
나라에서
아마존
없을만큼
만들었다니
만들었다는게
왠지모르게
##다시보니
조연들이
철학과
90년대의
예전에도
사건에
##보는데도
4점도
돌려도
않을것
아는만큼
전달되는
행동에
안맞아
##많은걸
제작비는
안나오면
이어질
자유가
심심할
심심하고
한계다
어이없는영화
인상깊고
cgv
카메라를
##새끼들이
고민이
굿굿굿굿
기본도
어이가없어서
오락영화로
찍은듯
역할도
##시켜라
##영상미
소름끼칠
소름끼쳤다
괴물같은
라이온
라이브
난해함
##했을뿐
흥미롭지도
뮤지컬을
##our
해주는데
희생과
##나올까
##남자와
소녀가
레이놀
올라가는
일상에
일상생활
##웃음이
보시기
아침마다
포장해
포장된
좋을것
좋을거
몸매만
그지없다
포기하지
형편없음
흐름과
##으로서는
떠나질
떠나보내
퀄리티도
등장인물의
상상력의
국민의
##버렸습니다
소름돋게
해피엔딩을
반성좀
표정은
표정으로
디즈니가
정서적
지구가
지구에
지구는
지구의
##마지막까지
스케일만
독립영화도
##해준영화
슬프고도
안봤다면
역겨웠다
##이해불가
이루어지
30분만에
악당은
연기자분들
이때가
이쁜데
이쁜거
죽여버릴
##지말아야
여기서는
홍보를
영화라는걸
그린영화
성인용
##하신듯
##하신다면
##one
##하시는분들
베스트에
과장되
남겨주는
시시함
시시껄렁
##나왔는데
##버리겠다
##버리다니
##줘야함
로그인까지
없다는걸
찝찝해
공부가
공부좀
공부하고
##으로써의
인내력
##만드는데
##하려는지
놀랐습니다
시트콤이
타임머신
조선미녀
007의
치밀하게
미모에
##떨어져
##재미없었다
에피소드의
뭉클하고
많아지는
복잡하게
가슴아팠
민망하다
##해지네
카리스마는
레전드다
바꿔야
틀어주
정의를
##지금도
비판하는
빌려봤는데
대중을
똑같아
똑같네요
보여주고자
세련되게
##그렇다
어지간히
풍경은
악마가
커플의
##사이드
1990년대
안본게
##괜찮은
##괜찮고
40자
감흥은
빈약하다
이소연
어린시절에
##상황에서
작위적이다
하늘에서
##요소를
올리자
최민수의
도망가
떠올라서
비밀이
사고가
짝이없다
##라기보단
연기잘함
시청자들의
죽이는게
기다려지네요
50번
부실하다
이드라마를
잘어울림
잘어울리고
정체성
흥미로웠던
담배피
첫사랑이
첫사랑의
끝났어야
열받네
시리즈중에서
거짓말을
베드신이
효과가
##사건을
조절용
만약에
미쳤냐
담겨있다
재능을
추격전
여자친구와
누군가에게
클레멘타인이
웃겼어요
터미네이터2
끼워맞추
끼워맞추기
특수효과도
3번이나
김지수
김지운
배신감
빵터지는
하시네요
독일의
컨셉으로
하품이
하정우가
##아쉬움
##아쉬운
만화책으로
따위로
생긴것도
다보고나면
폭풍감동
각색을
망치네
박수칠때
마지막회까지
극복해
반담의
반담과
주고싶지만
##느끼는
##ash
살인마가
개똥같은
무겁지만
원조교
무엇인가를
호기심이
사무라
안어울리는
안어울린다
뻔한스토리에
이도저도아닌
갖다붙
길이남을
단어에
thum
안무서운
##ody
고어물
버려라
짜릿함
1980년대
고뇌하는
즐기기
즐기면서
##대단하다
질리지가
비쥬얼은
치유가
평화로운
부자연스럽다
##낮은지
실감나고
어딘가에
90분이
말아야할
그로인해
베이커
여신이다
연상시키는
모른척
못만들었다
방해가
소유진
##ame
##힘들다
오지랖
판타지가
흉내만
우려먹기
관점에
본능을
실수로
하드코어
기적을
도시락
성의없는
찬양하는
##우리나라
##TV에서
부드럽게
##100배
알수있음
적나라한
흉내내는
##ilm
버무려
유사한
흠잡을데
시간아깝네
고양이를
공연을
기승전병
노무노무
못따라가는
파고들
배드신
정준하
장동건의
지워지지
하지말자
박평식이
생기면
이영활
##에로영화
##행복한
##궁금해서
드물다
이외엔
주먹이
식스센
##남아돌
##잘생겼다
모성애를
창의력
타이틀을
3d로
똑똑한
못살린
비중을
흐뭇한
뮤직비디오를
타락한
맛깔나는
어의없는
조여정
##tv에서
장난아니게
잘나가다
징그러운
차분하고
흡사한
##보지마셈
##무엇보다
믿어지지
소림축구
##슬퍼요
가르쳐준
김동욱
넘기면서
알맹이는
와이프랑
##app
##ㄹㄹㄹㄹ
어울리지도
빨리감기로
1빠다
난감하다
동일한
에어리언
이주승
적응이
프렌즈
##오랜만
미루다
순정만화
아키라
옹호하는
요구하는
터무니없이
사랑스러워요
생뚱맞은
플래툰
보러갔다가
지상파에서
##ㅋ1ㅋ1ㅋ1ㅋ1
으으으
노인네
대다수
목표를
비비안
정글의
##안쓰는데
강예원
어긋난
##웃겼음
블루레이로
근친상
작정하고
주장하는
좋아하더라구요
균형을
김상경
서글픈
암걸리는줄
공산당
디비디
소나기
##유루유루이
그룹은
만만치
절절하게
정경호
히스클리
정신세계가
클라이막스
뭔말인지
쓸모없는
이집트
최우식
퇴마록
재미더럽게없다
아낌없는
싸이코패스가
IMDB
world
견줄만한
경각심을
놀아나는
별10개
황진미
##줄알았더니
바티칸
잠안올때
패틴슨
연평해전
다큐멘타리
밀라요보비치
트라우마
국회의원
사촌동생
크레이지
##아닙니다
다이아몬드
140자까지
과소평가
반데라스
오시이
이청아
황당무계
사이프리드
공영방송
로미오와
온데간데
이데올로
주룩주룩
초창기
총체적난국
다이나믹
오씨엔
찌라시
츠마부키
한경직
한획을
황우슬
스타트렉
cctv
과유불
방사능
불신지옥
어바웃
1만
1에
1과
1부
2에서
2보다
3기
4가
4류
4점을
5월
5점을
6편
6월
66
79
8살
8년전
9년
94
94년
97년도
Ch
Cg
D급
FBI
God
LA
MB
Oh
Sh
cr
don
day
did
fuck
just
part
was
ㄲㅈ
ㅁㅈㅎ
ㅋ아
ㅜㅡ
ㅠㅠㅠㅠㅠㅠㅠㅠㅠㅠㅠㅠㅠㅠㅠㅠㅠ
가이
가지만
가고싶다
가정의
각시
간절한
갈라
감방
감칠
감추
갑시다
강원
강정
강제로
강인한
갖춰
갖췄
개이
개와
개의
개입
개쩌
개취
개OO
개OOO
갠적으론
거면
거나
거여
거물
거리를
건전
걷고
걷어
걸리면
걸출한
검사가
겁니까
게으
경향이
계약
고흐
고향이
골수
골목
곳을
괘씸
괴로운
교황
교묘하게
구사
구제
구토
구출
구축
군데
군인들
군국주의
굴욕
궁극
권유
권력에
그해
그때마다
그시간에
그시대의
그돈으로
글남
기만
기를
기관
길었으면
김예
김갑
깊숙
깔아
깨닳
꼬라
꼴에
끌려서
끝자
끝부분
나선
나눈
나는지
나가서
날렸다
날아가
남게
남들은
남을듯
낫다는
낮죠
내공
내뱉
냉장
냉정한
너와
넘겼
노인이
노이해
녹여
놓아
누를
누르고
누나가
눈썹
느리게
느리다
늑대가
늦출
니노
닉쿤
다방
다채
다본
다냐
다잡
다봤다
다수의
다중인
다이스키
단면
달랐다
대런
대게
대전
대왕
더나
더록
더듬
더재밌
덕화
덩어리
덱스터
도화
도움을
돌아서
돌리다
동굴
됐네
됐네요
됐을까
되었을까
되었을텐데
된거지
될만한
두는
뒤흔
뒷부분이
드럽다
듣게
들면
들어야
들었고
등은
따르
따온
따지는
딱인
딴따라
땅에
뗄수가
또래
뚫고
뛰는
뜨는
뜻깊은
띄우
로건
로또
린치
마루
만하다
말안
말의
말좀
말초
말할때
말하기도
맘껏
맛있다
망하지
망가지
망한다는
망친다
망했네
망해가는
맞어
맞짱
맞았다
맞는거
매장
매치
매순간
매들린
맥아
맨인
맨처음
맴돌
머임
먹음
먹으며
멀었다
멈춘
멋찌
멋졌고
메타
며느
명감독
명장면이
몇회
모레
목에
몸소
못해요
못했을
못하다니
못잡고
못참고
무었
무례
무턱
무의식
문자
물로
물을
물든
뭐람
뭐에요
뭐길래
뭐하시
뭐래도
뭔죄
뭔생각으로
뭔놈의
뭘로
미라
미쉘
미란다
민영화
밀폐
밍숭맹숭
바래
바가지
박쥐
박예진
반지
반해서
받아라
밝게
밥맛
방학
배트
배창
백발
백제
번도
번개
번뜩
벌인
베티
베일의
벽에
별도
보살
보성
보겠지만
보세여
보셔요
복선이
본걸
본것이
본걸까
본받을
볼맛
볼려면
봉만
봤기에
봤네여
부린
부리는
부러워
북괴
북미
분만
분장이
불문
불공
불타는
브릿
비스
비범
비애
비싸
비보이
빛난다
빠는
빠수
빡치는
빼어난
뽕짝
뿌려
뿜었다
삐뚤
사지
사명
사각
사유
사납
사세요
사는거
사상을
사만다
사악한
산다는
살을
살벌
살았다
살았으면
상식이
샘이
샬롯
서편
서현
선진
설도현
섭섭
성과
성적인
세워
세가지
섹스를
셀마
셋이
셰익스피
소주
소년이
소시오
소심한
속고
속빈
손현
손호
송강
쇼를
쇼크
쇼미더
수동
수치다
숨을
쉐프
스노
스위
스코
스킨
슬픕니다
승부를
시위
시련
시린
시킬
식탁
신용
신분
신호
신난다
신화를
실체를
실소를
싫었다
심판
심정이
십자
십수
싱글
싶지는
싶으신
싸움이
써본다
썩을
썸띵
쏘고
쓰래
쓰여
쓰다니
씨가
아랑
아에
아미
아베
아기가
아기를
아티스트
악랄
악순
악중에
안이
안드
안한
안생
안토
안찍
안봣
안다면
안하나요
앉은
않다고
알기
알듯
알찬
알맞
암담
앞선
앞으론
애완
애비
애환
앵간히
야심
야망
야마다
약해서
양심을
얘기도
어때
억지도
언어로
얻었다
얼룩
없긴
없겠지만
에필
에머리
엔드
엘프
여중
여기도
역행
연대
연민
연대기
열불
였는데
영홥
예지
오를
오웬
오가는
오즈의
오스틴
올가
올리지
올린다
올립니다
와닫
왕정
왜안
왜죽
왜봄
왜나오
왜그리
욜라
용재
우산
우덜
우주의
욱일
울지
울렁
울기도
울음을
울뻔했다
울림을
원했는데
월터
월광
위의
위엄
윌리암
유해
유죄
유코
유민
윤발
윤두준
은교
은정
응급
이로
이세
이천
이냐
이현
이두
이응
이땅
이규
이사람
이겼다
이영환
이지현
이랬는데
인어
인제
인식을
일로
일들이
일들을
일일이
읽을
읽었는데
입만
있구
있겠
있더라
잊은
자지
자네
자면서
자리에
자질이
잔다
잘가
잘좀
잘될
잘라서
잘봣어요
잡아서
재가
재즈
잼없고
잼난다
저승
저같은
저정도
저처럼
저여자
저한텐
적에
적다
적막
전라
전해
전시
전효
전하려는
젊고
점령
정은
정찬
정색
정직
정웅
정겨운
제인생
젠틀
조이
조문
조상
조승
존시나
졸고
졸다가
졸리는
졸았던
종려
종료
좋군
좋지도
죄지
주게
주근
주륵
주면서
주기는
주기엔
주위에
죽는거
죽을수
죽도록
줄수있는
줄려다
중점
중에는
즐감
증폭
지대
지방
지미
직전
진영
진시
진진
진격
진가를
질려
질풍
짜다
짱구는
쩌리
쩔었다
찌든
찍느라
차용
차를
차례
참가
채울
책과
천지
첨봄
첨이네요
청각
청승
체인지
쳐박
쳐들어
촌스러워
총쏘는
최재
최다니엘
추기
충성
측은
츤데레
치졸
치기
친한
카페
카톨릭
캐나다
컨텐츠
컸다
콘서
쿠삭
쿡티비
크면
크래
키키
킥애
타마
타령
태풍
터트
터진
테니스
토막
토할
토대로
토나오는
토나와
토시오
투성
퉤퉤
트리스
특성상
튼튼
티남
티난다
팜므
패트릭
편한
편을
평등
평들이
평행이
폐인
폐급
포근한
폭동
폭력이
품고
풋볼
풍요
풍광
플랜
피티
피폐
피트의
하라
하와
하느
하염
하룻
하라는
하더군요
하더만
한반
한영화
할래
할머
합창
합쳐서
해부
했을때
향기가
향기를
허망
허세가
헌데
헛된
헛점
혁신
형식의
혹해서
홍어
화법
화난
화를
화합
확보
환생
환각
활짝
효과는
후세
후퇴
휘두
흐른
흔적
흔치
흔하지
흠흠
흠이라면
흡인
흥겨운
힘찬
힘내요
##사위
##사마
##사냐
##사탕
##사이트
##사이코
##이만
##이민
##이길
##이하다
##이스트
##이구요
##이여서
##이랄까
##대생
##대1
##대없이
##지을
##지역
##지근
##지겹
##지지만
##지기를
##말해서
##고와
##고수
##고민
##고딩
##고양이
##때리는
##장으로
##만나서
##으요
##로가
##로스
##바란다
##서준
##박사
##자서
##자니
##자보다
##가이
##라면서
##즈와
##즈나
##즈베리
##들일
##리만
##리씨
##리포터
##졸려
##인정
##인거다
##야돼
##기획
##처리가
##와이프
##와함께
##방지
##울수
##도야
##도둑
##도에서
##도없이
##한수
##한회
##한듯한
##보진
##보살
##보지도
##보아도
##스데이
##웃으면서
##송희
##내에
##내면서
##내려는
##게다가
##우라
##우돌
##우롱
##국에서
##군을
##에프
##안좋
##안간다
##던대
##그랫
##그레이
##화와
##다닐
##오지
##오가
##오프
##오분
##빠르고
##어트
##어나는
##하차
##하를
##하쇼
##하넹
##하였습니다
##하듯이
##하든가
##하셔야
##래를
##재의
##있노
##있더라
##있길래
##트롤
##트레이
##무적
##무기
##류로
##의가
##의는
##의영화
##의식을
##품에
##키기
##것보단
##너가
##포에
##노릇
##려는거
##었나요
##었으니
##데뷔
##데없이
##선사
##실때
##실수
##페스트
##글자로
##쓰지
##엿어
##명수
##간을
##윤재
##거기
##거짓
##거탑
##거지만
##거렸다
##렸네요
##긴하나
##긴다면
##준의
